/**
  ******************************************************************************
  * @file    network_data_params.c
  * @author  AST Embedded Analytics Research Platform
  * @date    Mon Apr 10 16:13:38 2023
  * @brief   AI Tool Automatic Code Generator for Embedded NN computing
  ******************************************************************************
  * Copyright (c) 2023 STMicroelectronics.
  * All rights reserved.
  *
  * This software is licensed under terms that can be found in the LICENSE file
  * in the root directory of this software component.
  * If no LICENSE file comes with this software, it is provided AS-IS.
  ******************************************************************************
  */

#include "network_data_params.h"


/**  Activations Section  ****************************************************/
ai_handle g_network_activations_table[1 + 2] = {
  AI_HANDLE_PTR(AI_MAGIC_MARKER),
  AI_HANDLE_PTR(NULL),
  AI_HANDLE_PTR(AI_MAGIC_MARKER),
};




/**  Weights Section  ********************************************************/
AI_ALIGNED(32)
const ai_u64 s_network_weights_array_u64[26865] = {
  0x3f2268bf3f6d35c3U, 0x3f17e0fb3f3c5009U, 0x3f4cce543f3d1988U, 0xbd1a15983e4be2caU,
  0x3e9bb15d3f82d67cU, 0x3f1e1b763f510cb7U, 0x3f7377893f5c9dbdU, 0x3f2378473ef9d24eU,
  0x3f816bdc3ea1e858U, 0x3f228934bec928cdU, 0x3f0339503f33d389U, 0xbedb6cdb3f5b4423U,
  0x3f5f6a5f3f09dd9aU, 0x3ec1e0a13f4a92a0U, 0x3f73706e3f585433U, 0x3f8f69ca3f521095U,
  0xbc4a37913f7995caU, 0x3f2e51533f5bf71bU, 0x3f8cf30e3f4fa560U, 0xbd0a4df73f25da6fU,
  0x3f0743bbbed1ee85U, 0x3f255ddc3ea56a68U, 0x3f6cc7f93f96aeccU, 0xbf35c37a3eb144beU,
  0x3f18aefc3e7825c1U, 0xbf9e477a3e0e14b0U, 0xbf54f0abbfb6916aU, 0x3f89eaa13f45669cU,
  0x3d8bd1343f240277U, 0x3ce1d7c13ea62e7dU, 0xbf4803a83e5dd45cU, 0x3d0722793d956dd0U,
  0x3dc1f2363e9b79feU, 0x3f257090be668f32U, 0xbf88c406be146a2fU, 0xbf44277f3fce0b95U,
  0x3f02690cbe465c17U, 0xbe078c253d6c7790U, 0xbd863392bf199cf4U, 0x3f9850eb3e95b54fU,
  0xbe0c86473e42c597U, 0xbe30d5acbf1a4bbaU, 0xbd0bf5ccbe0e921aU, 0x3cc509743eab141eU,
  0xbf3e00b13fae3e17U, 0xbf54a0a83f1b3ab2U, 0x3ea3b0cd3e6366c1U, 0xbe33a900be3347d9U,
  0x3ffb856fc00174feU, 0xbe380fc23e3f9ebeU, 0x3c952b493e45e722U, 0xbf823f723f73cb24U,
  0xbf0da00bbf1fd790U, 0x3f3b45943ecc62fdU, 0x3f1cfc68be8694eaU, 0x3e623c1ebdc1e068U,
  0xbe8021a43faf1e98U, 0xc092d0d33fc35620U, 0xbe15ecaf3fa96ba8U, 0xbf076c5a3fc0dacfU,
  0xbf8c2813be165c02U, 0xbeeeec0e3e499d92U, 0xbed5683040a9d5ccU, 0x3f41037f3ddabaa7U,
  0xbe91c7593f4535abU, 0x3ccfdbaf3e8de28cU, 0x3f8440d6bf5af071U, 0xbe2d6784be3eaf1dU,
  0x3e0fd4173dd97739U, 0xbf0e7b4fbe8ae917U, 0xbeea1604be5ce48cU, 0xbf26d6fdbf39fc57U,
  0x3e2c11193d004fadU, 0xbe28bc853e0b012aU, 0x3d1f91edbd1cefbeU, 0xbfa62ac33bdacf7dU,
  0x3d60fefa3ebaea9bU, 0x3d7074a63e73ffd9U, 0xbfa8af0d3e09c964U, 0xbeb6ea8b3ea15211U,
  0x3e3f48cbbf612e0bU, 0xbf0423623d2721dcU, 0xbdbec57f3d35268bU, 0x3f49fe8fbf6d2872U,
  0x400a3d563f98f13eU, 0xbee6ea83c065f61dU, 0x3f74004bbf5ce1c6U, 0xbf8813f33c211629U,
  0x3dec6b6d3d5aebc4U, 0xbbf3b3043f8bbd24U, 0x3d3f3dff3e3947acU, 0x3dac64833e3eb8ecU,
  0xbd841c8f3edd45ccU, 0x3f4ef8173f0114b9U, 0x3dbc123ebd3a2361U, 0x3d0cc33abefbb326U,
  0x3e81333c3ca2d5aaU, 0x3e1223f2bd19dbe2U, 0x3e782c733f198670U, 0x3e8ce441bda8d6a2U,
  0xbeb9b1873dd7d4a7U, 0x3f8f40bfbf93f468U, 0xc02612073f3b9f68U, 0xbdff669940772f39U,
  0x3de4beeabed219dcU, 0x3f18ce74be0ac718U, 0x3f708e4bbf3f58d3U, 0xbf3f059f3f106480U,
  0xbe428529bbe14a4fU, 0x3e510384be752865U, 0xbe1b7e65bf42f13bU, 0xbe530c6c3f83c0b7U,
  0x3d0fde6d3f071954U, 0xbedec903bf55b51eU, 0x3eb1dcd93ec73fa1U, 0xbd0a605f3e9c3bb2U,
  0xbd1f76d33f055bbeU, 0xbe8d09153d38b883U, 0xbd513dd2bd0b102fU, 0x3ce012b1be60971eU,
  0x3e8a2e5fbea8cf9dU, 0x3d89b718bf033f1aU, 0x3d51654fbdb55e16U, 0xbe5763c73e502a1fU,
  0x3faf602ebe8e61d0U, 0x3ecd470abfc5c1fdU, 0xbc7fa6213e392bceU, 0xbebbfa88beaf6308U,
  0x3f06c6ce3f01ede8U, 0x3e5d8f28bedb71caU, 0xbd96ec2a3f1b96b6U, 0xbdd480cdbe9e094bU,
  0xbf1123f4be4d95b5U, 0xbebe8ee0be34d4ebU, 0xbedc0c6e3f92b649U, 0x3eb9e3a0be3217c8U,
  0x3fbdc13cbe0730aeU, 0xbdec9261bfdd44deU, 0x3fbfbfa5bfbb2d08U, 0xbe63b23a3d9bdc9bU,
  0x3d8827833e8250cdU, 0x3e8043fdbf2c4a05U, 0xbdcef064bf115bd0U, 0xbe4ee55e3e0b9b94U,
  0xbe7c61e5bdc55e7dU, 0x3e2fbb88be27e51fU, 0x3e1cf3f8be517218U, 0x3f1b67f3bd4b70bcU,
  0xbd0b6a73be4533dcU, 0xbe2907963f24c95fU, 0x3f209ff4bf3bb818U, 0x3f3682ae3bfc5dc6U,
  0x3fa25960c017b5d1U, 0x3da0769b3d7569b6U, 0xbd82a31bbedea58fU, 0x3ed8fd2dbec4b1f6U,
  0xc03bfbaf3f3ff603U, 0xbec2eafb40139eb3U, 0xbd3d065f3ecb2baeU, 0x3f790eeb3db83387U,
  0x3ec292e3be03df5bU, 0x3a86d5823ef3d398U, 0xbba75cf0bd1c6587U, 0xbee76bcf3d827e6eU,
  0xbe3d1a05bf0dd19fU, 0x3f8f619abf0f2230U, 0xbdf885c3be9979faU, 0xbdcd357dbeb45b43U,
  0x403e0d05be9b5fb9U, 0x3d5835ac3e1c3e31U, 0xbe0a0c71c05b6a2eU, 0x3d2489d83eb28155U,
  0x3eb1d4e7bdcdf66fU, 0x3e4e6af63f5d3b27U, 0xbdf503433e124478U, 0xbf148a3c3db91670U,
  0xbeaec2febf4bb827U, 0xbfb69a91be5f0484U, 0x3f5466e2bdc5ecb7U, 0x3eb0b14640109683U,
  0xbfd35472bedcb5d2U, 0x3f44c5bebe7587e2U, 0xbe9e2ea3bf2b0c4cU, 0xbf8a0d723f7a1f63U,
  0x3ec055ae3e942ca8U, 0xbe0bb868bec01566U, 0xbfaab63ebe3ff24eU, 0x3eddc011be5b9bd3U,
  0x3ea09d363f8436cbU, 0xbe70f3ec3d6df770U, 0xbe9639103dbf6f9fU, 0xbeaa2fac3f675292U,
  0xbffdcc10c026dc56U, 0x40036f90bf02ccd3U, 0x3efeda064021f3c0U, 0xbf4abdacbeb77a88U,
  0xbee34b02bdfb358bU, 0xbd9596e2bded0c17U, 0x3f4f01993f1617ddU, 0x3cbf68ef3eaf128bU,
  0xbd120b75bd923858U, 0xbf283193bec807e3U, 0xbd0db02f3e11e719U, 0xbda4eb843d570ca8U,
  0x3eeed449bcfdee10U, 0x3f234c963cbb5ae7U, 0x3eb75a603f675ab5U, 0xbf3189d9bf0a1f53U,
  0x3dcef6f5bf1c93b9U, 0x3d95ae2d3f197271U, 0x3ebe29883eb2735eU, 0xbf7480003e25f04bU,
  0xbf3f5e00be7197d6U, 0x3f0c9d143e5757adU, 0x3f0093f73e4d4ef0U, 0xbe60695fbefc0199U,
  0x3e250d9b3eb6e396U, 0xbe088cc3be241fa1U, 0xbb8115893f418e13U, 0x3ddadfacbe79cd2eU,
  0xbe0830633f4a5d4bU, 0xbd7438a0bd7c3471U, 0xbf451fe7bd20d469U, 0xbec0269bbd8ecf13U,
  0xbf363fdb40e276fbU, 0xbf9028d2bd2d60deU, 0x3f287e07bcda1be5U, 0xbc5af4e43ba3611aU,
  0x3d9f8f9c3f890ddbU, 0x3f054afe3e0c1e95U, 0x3cc3752b3e2a9565U, 0x3ed1c4c7bd51413dU,
  0x3d960618bd4b9b8dU, 0x3edce0463f7db09bU, 0x3dad2950bd1ef064U, 0xbec1bcf1bc9f2fb8U,
  0xbe92ed053f7540a5U, 0x3fdb89073f28aa24U, 0xbee829cdbd98b495U, 0xbe9783853d06d390U,
  0x3fe884033a951300U, 0xb9875a40bf02a9beU, 0xbe1f600fbf1a20a9U, 0xbf3d25aebdaf64e0U,
  0xbccaea26c0a79167U, 0x3fb302aa3ffdd36dU, 0x3f368a7d3feb3881U, 0xbf53afa0bede678aU,
  0xbfb98e3bbf015568U, 0x3e96e775bc84675aU, 0x3fd2f358bf014a1dU, 0x3f1d5af53eaa9d47U,
  0x3d54b60abcd75400U, 0xba9e0e003f82b016U, 0xbe0a018c3f3ba0f3U, 0x4025f3b6bfc5197dU,
  0x3d6e444e3ec47a31U, 0xbd998b403e027c9cU, 0xbeb612cc3f297da1U, 0x3fbe61243bce17b0U,
  0x3b96fa203d72afeeU, 0xbe9a3f83be8c048aU, 0xc009887ac0b8f8e5U, 0x3f26e6f1bf40b65fU,
  0x3ec51b00be1f8d64U, 0xbee358a8be79d93aU, 0xbec68fc3bf85c5c4U, 0xbe348684bf25204fU,
  0xbf5c4d55be52457aU, 0xbe8cbe8ebcb3efcdU, 0xbe5dcbf9bf34a932U, 0xbf1c373dbeb77bf5U,
  0xbed724d43ea047b0U, 0x3eb90b0ebf3abe05U, 0x3d04c5a6bc0685beU, 0x3d1ab7b4bf52d631U,
  0xbf39e3a1bef73673U, 0xbe88a05c3d4e486fU, 0xbf4b452cbf322c90U, 0x3f1ca186bde6a504U,
  0xbf093f70bf055b59U, 0xbe2a760c3df0a387U, 0xbf0b074b3dcc4594U, 0x3f29fd743be78ac2U,
  0x3e78651fbefa9693U, 0xbe2d01db3e693cd7U, 0xbeff309b3f27a530U, 0xbe87aae5bea9b5fcU,
  0xbe2b7d9a3ea09926U, 0x3e3c92fe3d94e2f1U, 0xbf055149be82ff8eU, 0xbd15a161bed8aa14U,
  0xbcc8a9873f0bddccU, 0x3e3883babe3a0136U, 0xbe543c3dbd6e4e4eU, 0xbec075e7be7f2194U,
  0x3e65def1bd7da3f9U, 0x3eaf5dc6bea6d453U, 0x3cf33146be8c5cf3U, 0x3f06bd1fbe2910f3U,
  0xbe913f3dbf5adcb8U, 0xbf13c64bbe01bfe7U, 0x3cc2cae9bd8c4bbeU, 0xbe6d74883f01a28cU,
  0xbe71eae8bec7dd83U, 0xbea417b43e775036U, 0x3d015204bdeddc90U, 0xbeb498dd3d995e13U,
  0x3d15022e3e4c86d1U, 0xbee7f98f3f058d87U, 0x3ee9c1723e717725U, 0xbe58c09a3e12e0a6U,
  0xbe680eb43da31f48U, 0x3e7b036cbd931ed6U, 0x3e8d345cbcaf2425U, 0x3f1639b23e071984U,
  0xbeb5430a3ea2e3b2U, 0x3f3e0fd5bd9d8dacU, 0x3e28a6f5bf0dc4beU, 0x3d70e4273d6a86adU,
  0xbf0eb2f1be5e5c9bU, 0xbe86faacbeb235c6U, 0x3f4fd06bbdbdd869U, 0x3ea28353be8effd4U,
  0x3e839fa93cf6cdb8U, 0x3b06fa133f25318aU, 0xbdcf6f31bd915077U, 0xbd6858483d608ca5U,
  0xbdb6184a3ea06094U, 0xbeeeee143e477173U, 0xbcb0ae26bee861deU, 0x3e9a74c8bdb6abd9U,
  0xbe02bb813d6873a8U, 0xbe959e29be3072dcU, 0x3e58757ebf3da308U, 0xbd96f266be4f1377U,
  0x3fe4ec063e081cd6U, 0xbda475b9beeb943dU, 0xbe873c1cbdf76400U, 0xbeacc5dcbe28b237U,
  0xbefc0f95be95c3d9U, 0xbef9994f3f1936c9U, 0xbe20e45cbf1efb26U, 0x3c0170e53dd0eb77U,
  0xbf493a7d3f8fc6e2U, 0xbe4d95683ba7bff6U, 0xbeb9a5e7bf3db98bU, 0xbe9ca2febe961d7bU,
  0xbe961643bf69c13cU, 0xbe84d6383e083e2dU, 0xbf08b72fbdb72f8aU, 0x3fa203ca3cb23987U,
  0x3eef1a17bec145acU, 0x3c250f11be03944bU, 0xbd8470d0bed665a2U, 0xbe0035943e54b118U,
  0x3e4cf9ef3d7633e3U, 0x3e5f63ad3e9c8d34U, 0xbdea05c2be0b969cU, 0x3edda15b3f518973U,
  0x3dad7d1b3d65c08cU, 0x3db8877dbee58383U, 0x3df9c7573c59793aU, 0x3e24039e3e0b5c0fU,
  0xbe12a3ee3dc841eeU, 0x3dcd31113e555f1eU, 0xbd239f4c3e15fd33U, 0x3db54b113e5a851cU,
  0x3e27dc3b3dbb1342U, 0xbe6bd9033cd16b14U, 0xbe2c06a73e170a87U, 0x3b86afdabdb2f90aU,
  0x3dd1c9833e84ea47U, 0xbedf98533eacc7feU, 0x3d15e3483c8dd733U, 0x3a896b1d3ecaced2U,
  0x3e41b0173dbdf808U, 0xbd79736d3e3e0501U, 0x3db826e93c9b8220U, 0xbe0c43e13e64a98cU,
  0x3e62d65c3ecb56c0U, 0x3dc9af0ebe055896U, 0x3e9689e0bec39becU, 0x3d8c3f473e56600cU,
  0x3f13c5473ee92771U, 0x3f18161c3e3fa9fbU, 0xbe8bfc0c3e803014U, 0xbe14f792be5e12b3U,
  0x3da34655bef3879eU, 0xbe04eaa1bf14a6cdU, 0x3d1c0fd4be5db470U, 0xbf374e9d3ec5de19U,
  0x3e3b23333d4c6295U, 0xbdab6b00be78d389U, 0x3e53c18a3ee3a370U, 0xbeb320dd3dc3a575U,
  0xbea68c6a3e92239dU, 0x3ec2365e3db52818U, 0xbe63866f3e4964d4U, 0xbf175cc0bed14fcaU,
  0x3e239746beaf22a7U, 0x3e9711973d6a4839U, 0x3f6db2fe3f04cee4U, 0xbdc56cf63e89c34dU,
  0x3ec025c53de56251U, 0x3e8d75ad3d08439cU, 0xbf062a10bd206e97U, 0x3f0cef17be2e5f82U,
  0x3e39ad333c3b02eeU, 0x3e4564003e451e67U, 0xbedfec44be08df6dU, 0x3d39a0d1beba1ae8U,
  0x3d9f16d93de61349U, 0x3e36bfc2be6b9993U, 0xbecd490bbe0decccU, 0xbd88aa24beef5773U,
  0xbed4f1d5bbf14f76U, 0x3e897384be78ec3fU, 0x3eb28eb2bf11eac7U, 0x3ed34a3cbddaf0bcU,
  0xbdca6dcf3fa17031U, 0x3f2043a6be361946U, 0x3e7521363c9a5c32U, 0xbe12d6aa3dc7b1f6U,
  0xbe75ddf9be8839e7U, 0xbf234ab33e112f92U, 0xbe8cafeabf04be61U, 0xbe697fabbef0b5f3U,
  0xbe9bf3fabe037d35U, 0xbf174b603effd606U, 0x3f3397873d917901U, 0xbf17ac2b3e05932fU,
  0xbf0be65ebd40dbcaU, 0x3d15e6fcbcd99d3cU, 0x3ece3087bebe9acbU, 0xbe6a5f8f3e98afe9U,
  0xbea0e7773f4ff2bbU, 0xbf2a280bbb834cd8U, 0x3f0d523cbe8f591eU, 0xbc6856d9be5eb8e3U,
  0x3db4f1dabf2f0d62U, 0x3e1eac4fbe0dc226U, 0xbf3e96703d32a093U, 0x3f0438ccbe19ad7eU,
  0x3e45ac473f22e1d1U, 0x3ea29461bd910de7U, 0x3ea1fedbbf0381abU, 0x3bb90b19be5ac430U,
  0xbe1cf5253f55683aU, 0xbe090fc2bf2f5a78U, 0xbddcd3703ecfa89bU, 0x3f60a0fd3eac54b6U,
  0x3ee4dd99be967ee5U, 0xbe9ecc59bd46fd9fU, 0xbdcec1f03f2eb889U, 0x3f4450adbf7816a8U,
  0x3fc7d7074017ba4dU, 0xc041980fbf4042c6U, 0xbfbdf9cabf591fc9U, 0x3ef544203f690824U,
  0xbcc9b280be20dc3eU, 0xbdef5cf6bdf0c441U, 0xbdc6d8f5bd3961ceU, 0xbd38f6bdbd13c540U,
  0x3dd5cbc2bd5d7799U, 0x3e194e48bdb0387aU, 0x3c7f46963dd3fe45U, 0xbdc3b4a93df73c5aU,
  0xbc6e914f3cb96f73U, 0xbe0f97bdbe16268eU, 0xbd908315bd411cd8U, 0xbe2b19bb3d137f05U,
  0xbe5d76e6bd7796e9U, 0xbe5e84803c5cb136U, 0xbea2cf4b3e38265eU, 0x3e138da7be8351caU,
  0x3d0886733cd3e0c6U, 0x3d1a7a6f3c0edb40U, 0xbebc298d3d1cc542U, 0x3e4068423ce737c0U,
  0x3d89044c3d1821e4U, 0xbe0171c339fe5062U, 0xbd0862573ecb2efbU, 0xbd603242be912022U,
  0xbda7c7eabddfbc05U, 0xbd94eb08bd3496eaU, 0x3eafa6953d8d1ce4U, 0xbe2b77653d00b9e1U,
  0xbe1d3ac03cbab70bU, 0xbd010608bd1000d6U, 0x3d4d34103e92eaa3U, 0xbc6219303e639cbbU,
  0x3eabe610bc876625U, 0x3dccdeb63d864451U, 0xbe5623babde451cdU, 0xbdd2b6bcbe8d2d4aU,
  0x3e4b9306be42e742U, 0x3e80c802be55c99bU, 0xbe174399be49f579U, 0x3e2f65493e1c59f6U,
  0x3e072bfdbea7f6ceU, 0x3df9adfdbeb57cefU, 0x3d62ca6abd8dfe65U, 0x3ed0c7b7bdb83457U,
  0x3d39515cbe867479U, 0xbdd1a89cbe8e0780U, 0xbd9b3a6abe007371U, 0xbd9f74d73d6dd322U,
  0xbbfc6ab23def1ef1U, 0x3d69a4bcbecc1679U, 0x3d2b1f463efd3c86U, 0x3dcda63c3d251763U,
  0xbdc5d200be121fb0U, 0x3ec5142abb247d63U, 0xbea50d843d9744a1U, 0x3dc549123b82f3fdU,
  0xbd0b9d583ce8f78aU, 0xbd444979be017f80U, 0xbbdd626d3ede23edU, 0x3dacdb093dd0a0afU,
  0x3d883b9abd2a7567U, 0xbe5d16b83e8c6a10U, 0x3e6570093d8ba278U, 0xbd420f33be00ac64U,
  0x3df8a05dbe37e64dU, 0x3d579c343dea6aa1U, 0xbd94be263dca8769U, 0xbe317d8b3ad1e678U,
  0x3dc3bfd83d6b34e4U, 0x3d8013183d66851fU, 0xbdc74aacbe733aedU, 0xbd388a7cbe4b7f9eU,
  0xbe6242be3d52813eU, 0x3d5666ddbe15d5d1U, 0x3cf0f01b3e0f5074U, 0x3d9c0fee3d1ddf54U,
  0x3eb989b93d9ba8e1U, 0xba4c8e6fbe9e87c9U, 0x3e23c9b2bce05fe7U, 0xbd95e4d13ddbca2cU,
  0xbe2a99073d64156eU, 0xbdd0906dbdcf5195U, 0x3dd3d0ce3eb81b89U, 0x3d8cd55f3dd491a5U,
  0x3d8944b5be43e8b4U, 0xbce0fa073ea08d67U, 0x3e4a86c4be264155U, 0xbd5bbff43d3f2221U,
  0xbd78e5543c820af7U, 0x3ea347f43d7ecaecU, 0x3cc3fad3bcdee963U, 0x3e3d3bd23cf33db4U,
  0xbd77ee07bd9392f8U, 0x3e5c587f3d6add7bU, 0xbdf1ec9cbdce46e8U, 0xbb0e5d7c3e09cf39U,
  0x3eedfa82be257693U, 0x3e1dea193e0fb156U, 0xbe5feff5be9a0946U, 0xbda24c47bec500a9U,
  0x3defffb9be006646U, 0x3eabe8ec3da64bd6U, 0xbdba1f5bbe0e1edbU, 0x3dcf65cf3e9bf149U,
  0xbe17930d3d55e2baU, 0x3de6f2a03ebd5bc1U, 0xbd4462513dd31010U, 0x3e8caaf8be283f09U,
  0xbd3a27553eb65086U, 0x3ce570353cc64e5bU, 0xbe2bc5243d8c58e6U, 0x3e0e5cee3cadf814U,
  0xbd4e25223e63d071U, 0xbd1b44053e9dc356U, 0xbdbd97473cda2e24U, 0xbea26c873da7d6a7U,
  0x3cdcb447bce5a982U, 0x3eaf142d3dad977aU, 0x3d92fc76bca8dbd1U, 0x3e5187eb3d89a6a5U,
  0xbeeafa173e2941d3U, 0x3d0cffbdbda18715U, 0x3de78f9bbeba684bU, 0xbd496ef53e95b3e5U,
  0xbd9f0f74bbfa5560U, 0xbdd6bea93e24ea95U, 0xbd85bb33bdc8cffcU, 0xbd89b5af3e9d6efcU,
  0xbe056f233d52379fU, 0x3d9b0c65beb3df1bU, 0xbea31dd5bd9a1fffU, 0x3c4c0011bc5cdc8eU,
  0x3e7af1ea3e1f75feU, 0xbd1e4d663bbc5e4bU, 0x3e9c0a5c3e1580a5U, 0x3de05671bc4a1520U,
  0x3e2841183d2b3db0U, 0xbd0bda76be34a4a9U, 0x3daddc07bcb65e5dU, 0x3cf1bb273d613571U,
  0x3dbb90553c4773faU, 0x3cd7f2053e80d5edU, 0x3e7fbd6d3dc6958cU, 0xbd1b8fbdbb74902bU,
  0xbd1333bb3e7f86d0U, 0xbe732c293d1c01aaU, 0xbdd26d21bceaffe1U, 0xbde54f7a3d92283bU,
  0x3e51ea37be54f266U, 0x3e2b424c3d466027U, 0x3edb78993aca3b71U, 0xbd38b8dc3da88957U,
  0x3de0631bbe23dbe8U, 0xbd9ba7adbdd6b799U, 0xbd551945bdb54448U, 0xbe2ea5683d6f615fU,
  0x3dc2f7e83dc54e82U, 0xbe1ba039bdd36317U, 0xbb4d9b913da1e8e5U, 0x3cd6d48abd5dcd17U,
  0xbc20c8b9be48e8f7U, 0xbe3e33873e45c446U, 0xbdb71ecb3c5d419cU, 0x3d57cd06bd91b35bU,
  0x3d8915a2befb929bU, 0x3e39f5debd5e81b9U, 0xbe0db32ebd3a0fffU, 0x3e2667c93d458629U,
  0xbb8cbc933e4389e6U, 0xbd34ae4ebe73c91bU, 0xbe2f389fbdd285bcU, 0xbe9d11513e30787fU,
  0xbdc3ad04be041294U, 0x3e1b95273e2aff74U, 0xbc53d9553d67fbadU, 0x3dc8710ebd12adb2U,
  0x3e7b6648bc7cb3f1U, 0x3bb441b13e0be145U, 0xbdc047f9be93e017U, 0xbdcc45e1be890de3U,
  0xbe496b703e5d3855U, 0xbe3ce82cbddd9a6dU, 0x3d5f10e63d904122U, 0xbd8c56e6bed3e20eU,
  0xbea409edbe80ae40U, 0x3e143b30be673a4bU, 0x3e01d8163e3debf8U, 0xbb796c053e9f08ceU,
  0xbd8d8919bdf4aad9U, 0x3e8105fdbe97b475U, 0xbb94d1923d746437U, 0xbe58ebb3bd416a95U,
  0x3f7999223f52d36bU, 0xbe9696133f5484bcU, 0x3f1d07c23f1dcc7aU, 0x3daf324cbec55b2cU,
  0xbeff7d8b3f3043a8U, 0x3f0dff12be8398e9U, 0x3ea632c2be580da5U, 0x3f14e58d3f5eafd3U,
  0xbeefa62bbf46149aU, 0x3f186ebc3f5b9a1cU, 0xbf0a7f6c3eee5beeU, 0xbf295978bf100165U,
  0x3e57cab13bd159fcU, 0xbedb2c2f3e9dde9bU, 0x3e90994d3f24f5e3U, 0xbedc8828bea04dcbU,
  0x3f0ab003bead1a60U, 0x3f4f87db3f6451beU, 0x3f07008b3f33ac94U, 0x3f73203f3ef54363U,
  0x3f222af53f2ed60eU, 0x3f6368da3eb55810U, 0x3e5b56a73f3618fbU, 0x3ef372cabec8f3fdU,
  0xbef2bf85bef43788U, 0xbf192ae9bec0b7e3U, 0xbee1a9b9bf172e49U, 0xbe3719f7be33e27aU,
  0xbe3ed9eebdece6a4U, 0xbdfa7dbabe96db43U, 0xbf1c77bcbec3f761U, 0xbe89f753be88b466U,
  0xbe4df8d1bec8fd85U, 0xbefec617bee09105U, 0xbf0f028abe415a78U, 0xbea01e9abf0ff61eU,
  0xbe86fa80be7c7766U, 0x3e93b9d2be0cde50U, 0x3e5fcbbd3edcd8d8U, 0x3f087ebb3ece4548U,
  0x3dd802653e573826U, 0x3b9d64e93e0e552bU, 0x3eb724173e793569U, 0x3e98763b3e345a9aU,
  0x3e40dbfa3ef54b0cU, 0x3dfb52df3da84419U, 0xbe3d1d533c206efcU, 0xbde7e7d6be855825U,
  0xbeaee99ebe7554dfU, 0xbde4f324be123cb0U, 0xbd81518cbe2a7287U, 0x3ecfe86d3e97aba7U,
  0x3ecc57293e662e32U, 0x3e965c6d3f0df6e8U, 0x3e63261d3e056aa1U, 0x3ebb4e183e00817cU,
  0x3e40fafa3ee357bbU, 0x3f1880e43efa6c89U, 0x3e3fdc433e72d834U, 0x3dad23b13e826955U,
  0xbe3c4af7be301638U, 0xbe893896bdf287e1U, 0xbe45cb03bec271bcU, 0xbe8554e5be13a545U,
  0xbec09d0dbdc22d41U, 0xbe2ab390bf03d27fU, 0xbf362b55bf06b0c8U, 0xbe63a157be946041U,
  0xbe10f30cbed0cae4U, 0x3eee77e43ec3c2a0U, 0x3eb6b31b3e93e6dbU, 0x3e6ffc313efe1800U,
  0x3e8ab8123e43ee4eU, 0xbe7eb3123c98cb49U, 0xbe32e9acbebd4dbeU, 0xbec1fffdbe51c5efU,
  0xbd67db7bbe4cf067U, 0xbdf373adbe0608e0U, 0x3e7000243e4fcef7U, 0x3eb31b853da4bc2bU,
  0x3e0a21c13ee47998U, 0x3e4a05823e3fdc2cU, 0xbe3d56a53d51045bU, 0xbd9799c3be56f437U,
  0xbec50e3ebea49463U, 0xbdd636f7be04dde2U, 0xbd40db78be289830U, 0xbe44e6abbe3b98bfU,
  0xbf045623bdfe1d60U, 0xbe1829c6bf191560U, 0xbeb92cc5be89991bU, 0x3e69dec0bdf2843aU,
  0x3ddd26a03ea6b7adU, 0x3ed5fffd3e981b8bU, 0x3dbf84233e20d7c1U, 0x3d7987503e10d419U,
  0x3f9f60213f705952U, 0x3f6aafbf3eb27cc7U, 0x3efb57e43fa5bd41U, 0x3ec4be713e0f08a9U,
  0x3fa236bc3eabb043U, 0xbd9c1c973fb73887U, 0x3fd148873fbac962U, 0x3f0e32b8be052522U,
  0xbea932f43f062562U, 0xbea89bdbbe5ad58eU, 0xbebc35eebe505621U, 0xbe81adffbf0fc6e3U,
  0xbeab068dbe5c6170U, 0x3e3c6a55bdfada44U, 0x3e3d381e3e85e224U, 0x3ec9b3613e8332efU,
  0x3d2d3a483e6ad734U, 0x3da433e13db9e4d3U, 0xbe8ec98bbe6bb488U, 0xbec0dd52bcfa63a8U,
  0xbe06aa89beda8475U, 0xbe89d191be5fda39U, 0x3ee2eff3bdd4e0e5U, 0x3e6123bc3f0e22ebU,
  0x3f2f05523f05d1d7U, 0x3dfaa46a3ea48137U, 0x3da460cc3e3aacbfU, 0x3f8950d13f5070c2U,
  0x3f8b52393e79f73cU, 0x3efcb5cb3fc1dc11U, 0x3ef3c40b3e9f0a16U, 0x3fa129d73e817f2aU,
  0x3ebe67fc3fc29decU, 0x3fbd1f823f9d5d0cU, 0x3ed609aa3ece2a46U, 0x3df6c9fb3e8ed776U,
  0x3e6ae3653e233522U, 0x3e8292743dbabf5dU, 0x3e02810a3ec9194fU, 0x3de47c923dab20e9U,
  0xbe8356263cbcea81U, 0xbe6a4f50bec21bf8U, 0xbed248efbebceb80U, 0xbe1f8c39be9de681U,
  0xbe0bed4cbe7df013U, 0x3f0adf223ea0d954U, 0x3ee63c833e94057bU, 0x3ee79c6f3f4245a2U,
  0x3e9f3e933e435118U, 0x3f5416393e70e1beU, 0x3ed114de3f5fcdd6U, 0x3f9b45b43f8ee2e1U,
  0x3f14035c3f0e60d1U, 0x3d716c9c3f12f3b9U, 0x3e6740a43e393584U, 0x3e9194ae3d64c1b1U,
  0x3dea92c33eaef528U, 0x3dfdb4b83df0b4e6U, 0xbe80526e3d560936U, 0xbe14ed39bee1ee86U,
  0xbf142cadbea04c49U, 0xbda4874ebe65d827U, 0xbddd9ec5be521707U, 0xbe8ed8c1be2dfe08U,
  0xbeb87d56bd9235e9U, 0xbe3de6eebee61105U, 0xbe45a869be0d7c2bU, 0x3eb87dcfbe13ac1eU,
  0x3e7d4f003eff320fU, 0x3f171dbd3ece3f0eU, 0x3dd585343e9a50edU, 0x3d653f153e35df21U,
  0x3f1ec0c93ecacc0dU, 0x3f2bcc9c3e9b954aU, 0x3eeb46c93f7ac093U, 0x3ee2c2c53e99e92aU,
  0xbe2f537b3e52ab56U, 0xbdeb616abe859f23U, 0xbeb594f9be682b15U, 0xbdeffcd6be12fc81U,
  0xbd2957c7bdf4460cU, 0x3f4956fabdf95b37U, 0xbd8e0a34bf1c739dU, 0xbf65cef83f574dcbU,
  0x3eb5ec2cbc932515U, 0xbecc3dccbf1065fcU, 0xbe6b0cb1bef5a510U, 0xbf1b469bbf0233bcU,
  0xbe8b9628be923e39U, 0xbe0a769cbed52a7cU, 0xbea08f29be889d8aU, 0xbe9e6a6fbe43c05bU,
  0xbe6ac870bee99193U, 0xbe7d68bdbdb051c3U, 0xbe1c9d8cbe042d6fU, 0xbdb344e9be3d1648U,
  0xbec60a02be96113bU, 0xbe3fd997be88f15eU, 0xbe67e176be9afc30U, 0x3f12bf5a3f176dc0U,
  0xbe9767943ef34382U, 0xbe9e7111beb97120U, 0xbf17b206bf045957U, 0xbeae610bbecd152eU,
  0xbdfcf197bee99321U, 0xbf34aa46bef7b4cbU, 0xbe29fb25be799502U, 0xbe365a5cbe64185eU,
  0xbef11d6cbea7f5c9U, 0xbeef3e84be7ef851U, 0xbeb87b2cbf267d6cU, 0xbeb4574abe4b3edfU,
  0xbe997edcbdd91879U, 0xbde024e9be82241bU, 0xbe6de198beb85e3cU, 0xbe881deabe6451ebU,
  0xbde1c013be51f861U, 0xbe915bbdbe30cb00U, 0xbe60a8eebd975e3fU, 0xbe215693becada3dU,
  0xbe2a164fbddae517U, 0xbed8185ebdb57e67U, 0xbdf4fad4bf08b0b7U, 0xbf290864bf092e8aU,
  0xbe7b7516be2aa634U, 0xbd9612f5be8fd721U, 0xbea10b8c3f295912U, 0x3f6d0aafbee68ff2U,
  0xbf50d90bbe9d9ca5U, 0x3e1cdbf93f0adb1dU, 0x3e0b73dabeea456bU, 0x3ddd842b3e80a84dU,
  0x3eddda2a3e8ff901U, 0x3e14354b3e4fa935U, 0x3df6b41e3e51cbd4U, 0xbeadddd0bea9feccU,
  0xbeaa54edbe2d0e55U, 0xbe220994beb54205U, 0xbe3d8a57be2a8a42U, 0xbe8f6726bd3e9d15U,
  0xbe4852a2bea2042bU, 0xbf137538bf00bba0U, 0xbe6eb0c6bebb3ebcU, 0xbe2e3c53bec47138U,
  0x4066ca024016e6d9U, 0xbd86f9f840260972U, 0x3ff9e7e23c064980U, 0x3cdbec80bf42d5e9U,
  0x3fa09ed83fe67cebU, 0x3fd5f7e8bf4b2d88U, 0x4007dd3cbd04b270U, 0x3db83550401671bfU,
  0xbeed0e93bddd40d5U, 0xbf3eb9c44031ac28U, 0xbe97e1ec4002b6d4U, 0xbeb156c9bd4e0aa0U,
  0x3f855dc13e5d12acU, 0xbf82c756c0244194U, 0x3fe6621fb9883000U, 0x3e34fcc03fc1d204U,
  0x3fe61c8ebd44a210U, 0x4011b963bfc46b47U, 0x3f8e96dc3fdc79b0U, 0x4037f074be1192aaU,
  0x3f7ed25c4010c9e2U, 0x4042070d3fda62beU, 0xbc9a3980bd235437U, 0x3fc9ed4c3f883417U,
  0xbd978c983b8dc2c1U, 0x3eba10523f16ac5cU, 0x3c13cb5a3d264787U, 0x3cf20e1c3dba9b6fU,
  0x3e69574c3e9a76efU, 0x3e0178243cc25f33U, 0xbf23de62bd67b615U, 0x3e80ef543e71d7e4U,
  0xbe292888bc5d8c44U, 0xbf10b128bd0ed1a9U, 0xbeb08263be227447U, 0x3f0a085ebec49ba5U,
  0xbd8c0f1ebcf620cbU, 0xbe9c3c493e8e0a1aU, 0x3d26e0c2bec95c25U, 0x3e2ab9e2bd83da4dU,
  0x3dd1d828bec78c84U, 0x3f1a93033ee79f72U, 0xbd4d06483e5194a8U, 0x3e9d9c6ebdd718c0U,
  0x3e26a55fbf07069fU, 0xbeafc8633d97b3c1U, 0x3cb819493d8e9a1cU, 0xbde09ed4bea489d1U,
  0x3f6a76ccbeb6abffU, 0x3f18d8753db5eb07U, 0xbbd340e4bef6359aU, 0xbeda19793e975721U,
  0xbd86b03ebee096a0U, 0xbe35b8efbdf8ac95U, 0x3ec3379ebd100eecU, 0x3ceb1fc03e84a0d4U,
  0xbc3e5b43be801c5eU, 0xbdaf9fdfbe758cadU, 0xbe44171abd4efa9eU, 0xbeac630a3e65a618U,
  0x3e4db7b4be00d7f0U, 0xbd66b1393e4fa0beU, 0x3c81e16d3e1dd6e1U, 0x3ef45698bf1f42ffU,
  0x3dd30bcf3ec5c8b6U, 0x3e19e353bf1c8cdeU, 0x3e4e47d2bece2fe0U, 0x3e550b11be53501bU,
  0xbe3f2d80befcddbbU, 0x3eda59f63e830b52U, 0xbd31a13abd245c86U, 0x3dffad16bd8d169eU,
  0x3b446023be61fe49U, 0xbdcff9ffbe0562abU, 0x3f1acf7bbd02bbd4U, 0xbe2a7a50bd8301e8U,
  0x3da286c53e873bbaU, 0xbea0aa063eca56a1U, 0x3d8edde33ec402e9U, 0xbf128c423f04da72U,
  0xbe5025d5be58e6e7U, 0x3ed1cf7ebea18935U, 0x3e258d93bea48c92U, 0xbb8d872b3c94310bU,
  0xbe2f1f8ebeb6a7f0U, 0x3c7590afbebfeea0U, 0xbdc01840bf08975bU, 0xbd1e4e5cbecb20a0U,
  0x3ed505823e8aba24U, 0x3d28b1bfbee43c7aU, 0x3d985da93da1f392U, 0xbdcb0ec6bd2a588fU,
  0x3e6a0ab73ec21b23U, 0x3debc7e5be2f85e5U, 0x3e6c07693d6e0297U, 0xbe58258cbdb41b34U,
  0x3ddd496bbe4f3ac3U, 0xbdf81f323e29ba98U, 0xbec14319be79846cU, 0xbf8312a13ddf2360U,
  0x3ebfdddfbec34fc9U, 0x3e2859193e61149eU, 0xbe88e7933ddb94eaU, 0xbeacd197be878328U,
  0x3e9e13f43d08a318U, 0xbd96ea63bdf5aa37U, 0x3d02fc2d3f423ba5U, 0x3e1d86c5be13535bU,
  0xbc306de73ef22ae3U, 0xbe439a1ebe9c6848U, 0xbd835025beb5bf02U, 0x3d6303b23e6e0717U,
  0x3c770dfbbd702893U, 0xbc29668e3e486db4U, 0xbcd0cac43de92c75U, 0xbcb447013dc257a9U,
  0x3cc09501bdacdd4dU, 0xbea0b3a4be636044U, 0x3edd1c833c0b0e26U, 0xbf04a0863dc05716U,
  0xbc218f483e81645dU, 0xbde7238abe552fadU, 0xbd3e006a3db5e234U, 0xbe2e5719be3e2948U,
  0x3d0ad3d7bdc784fbU, 0x3f3d8c14be365162U, 0xbe82e5ef3ea2b6beU, 0xbe946ac8bdb3d005U,
  0xbd02d9d0be9b1f20U, 0xbe9726d9beb38a6fU, 0x3e7cba043d2215a5U, 0x3eaf9a6c3d32ea3aU,
  0x3e1d07023dc0f78eU, 0xbd87e318be27aa25U, 0xbe82b8a43f1943bbU, 0x3d68a8f5bdbb9d9cU,
  0x3e9f73af3e8d279bU, 0xbef2a5033e88114bU, 0x3f200faabebbff3dU, 0x3e5fcb963e997007U,
  0xbe03c8913ebd731bU, 0xbe9a31bcbefc23dcU, 0x3f12384a3d9564c0U, 0xbedd57b3bd76f83eU,
  0x3c62f3f6bd36a996U, 0xbe9be569be49ace7U, 0xbe2e64e8bf4a0758U, 0xbe1040ff3e919cbaU,
  0x3e0603aebd3b4632U, 0xbd983b0c3d13c6e6U, 0x3c14fb5d3dcf4c7fU, 0x3d9c42d23e382456U,
  0xbe967d2dbe83869dU, 0xbdf8ab6cbeaf8364U, 0xbe4a61e3bec79b17U, 0x3b23cb4a3d4f2f6bU,
  0x3df2e3db3d06a838U, 0xbebe9d28be9d0400U, 0xbdfa0b26bdb9102bU, 0x3ebf7aa1be9d590aU,
  0xbe6867e93e1638d2U, 0xbee972e7be28044fU, 0xbea687d23dab5d5dU, 0x3cffd1f63e6cc004U,
  0x3da3f7513e3c1088U, 0xbe7ae807be252957U, 0x3ec7aa693da4c979U, 0xbe78a2acbe55c557U,
  0xbbe01ac9bf17158aU, 0x3e9ecaa13dfb0c0eU, 0xbe9217c73e8786bcU, 0x3e6e339dbe70677dU,
  0xbe64478dbda3529bU, 0xbe313eb0bde097d3U, 0xbeae14c1bd4eff2dU, 0x3ebae138beba9987U,
  0xbc3a47663e31bc70U, 0xba1ba1c83e4aaa98U, 0x3d98f96abe681302U, 0x3db98b483daaf0c1U,
  0xbdffdae73e721284U, 0xbe7bb4b33d34fee9U, 0x3d016c5bbebf96d9U, 0xbd23bfef3e8d258eU,
  0x3ea662c03dda8429U, 0x3e122013bede441aU, 0x3e278213be21317fU, 0xbebc41a6be63590aU,
  0xbe1ade13beb43e8dU, 0x3e829e3f3d829d30U, 0x3e6541613e5232a8U, 0xbe2d25e6bead4704U,
  0xbea5e0ebbec925a5U, 0xbe4fad903e7d068fU, 0xbe750e3bbe8c3777U, 0x3dcaac733e5ee0feU,
  0x3ecd59303cf2915fU, 0xbe105a36bdca10e1U, 0x3e21ac98beb0663fU, 0xbf3a5c6e3df68015U,
  0xbd6953fd3d674538U, 0xbc37399f3e92af66U, 0x3daf3701bdf4d4bfU, 0x3c691cfcbf0965bfU,
  0x3ed136aebea564a4U, 0xbe84c348bedfbb46U, 0x3f1443603e9adf5bU, 0xbe786dc73e23a1caU,
  0x3e7271f9becb6246U, 0x3eb0f59fbeaf74aeU, 0xbe2d77e73e0f0b71U, 0x3e3ae82fbd8414bcU,
  0x3ec9f988bd9d3c93U, 0x3e3ca1933ed4bbddU, 0x3e743524bd9c0dfcU, 0xbe0f99213d89d432U,
  0xbeac0b1f3f8de966U, 0x3f9fbef73f754446U, 0x4037981fbe9cd443U, 0x3f11fa673e2aeaf6U,
  0x3c2c6174bc1313e0U, 0x3d9ddb823e09af0fU, 0xbe33795dbe7b5ea7U, 0xbe3d99993e06265cU,
  0xbdbf40263cbbc444U, 0xbd003c4c3d83d524U, 0x3d7d14ddbceb8d50U, 0xbe4507e0bed55ac4U,
  0xbde8a1133de7901bU, 0xbeb80c123d773da6U, 0x3e28afd33e11abdcU, 0x3d6e22a53e1df0e5U,
  0x3e0c650ebd8d651bU, 0x3eb6de54be103f6aU, 0xbd86c445bdefe55bU, 0x3d37f259be0015b1U,
  0xbeb0249d3dcc6332U, 0xbeae6c743e0b0b91U, 0x3d026b5e3d809761U, 0xbcb4d6e63e8080efU,
  0xbdfab6d33e071f93U, 0xbebf5b0d3dc2eda4U, 0x3e1b1e333ddfd8f4U, 0x398fc7a03df0f618U,
  0xbe5be977be7487d1U, 0x3e475dad3e3ba7c6U, 0x3ecfcf063e11c7f3U, 0x3d80f1af3d8c2fdfU,
  0xbd509ddc3f19d15eU, 0x3dc247f2be083907U, 0xbe10c8cf3d2a4cdfU, 0xbd6d1650bd920f9aU,
  0x3df8b6d33e97de09U, 0xbddf84fabe9f718bU, 0xbd6b89463e524f78U, 0x3d7a34e3bf221108U,
  0xbdc2e03abd300b0bU, 0xbc5abbc7be52f8d9U, 0x3e4edaedbc23ffd4U, 0x3d5e46d23d167441U,
  0xbe07d8863e7bd1b4U, 0x3b084fa2be718214U, 0x3e044b833cc57ec6U, 0xbec1ccbebed4d4d6U,
  0x3ecff2cfbdded944U, 0xbdf19bdebeb1e958U, 0x3d73c2a33e231628U, 0xbd9dd7813e0aa623U,
  0xbe46c1063ddb80fdU, 0x3b80c493beaa952aU, 0x3ef2c74dbe46a3f7U, 0xbe0da629be1e899eU,
  0x3dcd0006bd638c80U, 0x3e29bbe7bce7e0eeU, 0xbc9f5e463cf897cbU, 0xbcbdd521bd6459f4U,
  0xbd55101e3e22b3d9U, 0xbd16d5e4be057d38U, 0x3b99fd56bbaced92U, 0x3e4934b93eaee1e1U,
  0xbe9171acbe752bffU, 0xbe4ee69bbdf3f50aU, 0xbcdf1e003e5606dbU, 0xbe6c3350bd91d867U,
  0x3e6eb4b73f1c795cU, 0x3aef5a8d3e013dd6U, 0xbdb232e23e8a289fU, 0x3da8915fbf036fbcU,
  0xbdc447d93e4299f2U, 0x3da731a0be7da43fU, 0x3e80a1babde09cf1U, 0xbe585f69bee3ed59U,
  0xbd4833603e0099fbU, 0x3e806a7f3e14a34bU, 0x3e4a39fd3f1143c7U, 0xbd47c6a63e197008U,
  0x3e1e61cb3da48b20U, 0xbec0b7ec3e8336a4U, 0x3ed8b7583e5bbbe3U, 0xbc4af13e3c1c4f18U,
  0x3ea2f7f5bd32b5ddU, 0xbdd775163e0839eaU, 0x3eb189f73c10ac13U, 0xbe9ca20c3d8aacb4U,
  0xbcacc9a8bb7c6f3bU, 0x3cc7424d3e286400U, 0xbd204dc9bd6a4dbeU, 0x3d3b9faa3ded1ac9U,
  0xbb7c43e3bed278bdU, 0xbc9bd3e13cef14d2U, 0x3e4537303e39790aU, 0xbed6bd023eb3aabdU,
  0x3e502f913e1b6616U, 0x3cded8243e4c22c4U, 0xbf0080b93e8836bfU, 0x3d06c4f2bd11bc76U,
  0x3d7d4130beb80162U, 0x3e84b8bebe705a5cU, 0xbe845f383d6324a5U, 0x3d6a61f2be3d07e3U,
  0xbebeb8c03d87870bU, 0xbdf6d362bdae582aU, 0xbcb641a03d3b8f16U, 0x3eaa07fc3e7555f6U,
  0x3e5cb5a0be954989U, 0xbe2dcd20be5b935eU, 0x3e21d4c93e31b297U, 0xbd703f3a3e7c36e7U,
  0x3cf9a0d43e449b61U, 0xbb3035a13dab8d55U, 0x39fcc5fcbe2a761eU, 0xbe024af2bec9aa1bU,
  0x3bd120c7bec2978aU, 0xbbe187173e32a35eU, 0x3e734e07bec9be78U, 0xbe688143be96cf74U,
  0xbd37f7853ce965d3U, 0x3c507baf3c276081U, 0x3d8e66d3bdcc7199U, 0xbe444740be8e5db8U,
  0x3e09334fbe336bcdU, 0x3d9b41f43e95adfcU, 0xbf00b2593d4751b3U, 0xbc65152b3e32fb8eU,
  0x3bf27ad0be04f36fU, 0x3dd0fae1bea1f6cdU, 0xbd07c9c4bb07b474U, 0x3cc9e412bbd502bcU,
  0x3e812e56bdb3b21dU, 0xbe6f411ebe31ccfaU, 0xbbcf53ae3e51fe33U, 0x3e2106743d121dcdU,
  0x3e171caebe4423cfU, 0xbe082b51be8f4f62U, 0x3dcf633d3e66af27U, 0x3de54773bcf0aa08U,
  0x3d83ef243d26d23dU, 0xbd0f74f6bd2ce496U, 0xbe050ccd3e6e0908U, 0xbdd377fe3e23beacU,
  0x3e9720523dc52e15U, 0x3e0147df3daa2a7fU, 0x3d0d07febd60e46bU, 0xbd67c453be6bba15U,
  0x3e730cb03e1996f7U, 0x3dfd5b143d5ae49bU, 0x3e0e460d3dd57732U, 0xbe89aed2bf264a3eU,
  0x3e16263e3c16c2cdU, 0xbe4d38c3398b2295U, 0x3d5c84083e350e25U, 0x3cfda70abe422e4fU,
  0x3d5191c43d892c59U, 0x3e15fc373e89298aU, 0x3d9b6c35bcc68c86U, 0xbe378aec3eb92e26U,
  0x3d51c3693dea91f7U, 0x3c8051b13ee5c07dU, 0xbd9e93d6be44d3c1U, 0xbe74550ebe97fdb8U,
  0xbdccd9733f040280U, 0x3dba8beb3d848035U, 0xbed1d61f3efd9b2dU, 0xbd3d8cd1bd3bf7d9U,
  0xbdf40744bdc84f05U, 0x3d49dd293e24da46U, 0xbdfd82ed3ef7f523U, 0x3f1bdbbb3df2d5f3U,
  0x3df279c33e54e8b3U, 0xbd778133bd18fea9U, 0x3e698884be584820U, 0xbe41b7593e4e8b41U,
  0x3d27eacebd5ef49aU, 0x3d3b612bbe062000U, 0x3e5951873d8782b7U, 0x3ebee73dbf00fd87U,
  0x3df17963bdcab00dU, 0x3eb366b3bd5cd1d6U, 0xbe0a8b46bd9ad233U, 0xbceb9b42be24a42fU,
  0xbd375437be122b4eU, 0xbd8f59303e60845cU, 0xbd261bb5bb165817U, 0x3dbbf8d13e0981eaU,
  0x3dc6df0bbdcf79faU, 0x3ca9b2a5bcc1c5ffU, 0x3e36a575bea7e0eaU, 0xbeaae4953e33d042U,
  0xbcdfc98f3f04a2afU, 0x3e8266443d2010a7U, 0xbddbb576bea9d515U, 0xbdd65ea9be4b7f0eU,
  0x3f2715d73f58ff14U, 0x3f4121553f42873fU, 0x3f3aebd63f1cee98U, 0x3ee368ce3f0e506cU,
  0x3f6271a0bd83af75U, 0x3e3c28ee3e2d5910U, 0x3f98b8783d1c9af2U, 0x3f097e653f27d59fU,
  0x3ed2a77dbeab0f9eU, 0x3e81a6263ef1e105U, 0x3f81ac1f3f377a84U, 0xbedf3d273f4380ceU,
  0x3f3ee9ae3ec059f8U, 0x3f8d6ce73f40e27fU, 0x3f62c1b33e684d56U, 0x3f5c6e4abd06156aU,
  0x3f4604723f3f3437U, 0x3f60346e3f767126U, 0x3f87ebb0bdb9beceU, 0x3e99a6743f2f9b5fU,
  0xbd838908bde4b006U, 0x3ecfc78b3f1c3e0cU, 0x3f624607bf21e4aeU, 0x3f25d0373f549573U,
  0x3e177fa8bf0066e5U, 0xbf96e6283e747699U, 0x3f74d62d3decf3abU, 0x3de72365be037117U,
  0xbe12f1b83e853e1eU, 0x3d91757c3e6143afU, 0xbf29952abf2ca274U, 0xbe4779583fbec3b6U,
  0x3ecc3946be4d6824U, 0xbfe322b9bd90e669U, 0x3cd8c6c83cddb1d3U, 0xbe3aff3b3fad52bcU,
  0x3f0c3cecbdb14f2fU, 0x3efcba4dbcf7bcdbU, 0x3ec9131e3f29c64cU, 0x3df1a9b2bd1cbc60U,
  0xbeceaa87bdd3732cU, 0xbe854439bf28e81fU, 0xbede7f3ebd98f1f2U, 0xbe6648593db96bfaU,
  0x3e2a7f1abf8d4864U, 0x3f21e1363d9c44a7U, 0x3ece0f7abd0d7b9eU, 0xbe8c89a8be0e5afeU,
  0x3c64b0c83fa3591bU, 0x3f04b521bf9e156cU, 0xbe967f2dbe733c2aU, 0x3e6d18c33e1a47a3U,
  0x3e5415ec3d994002U, 0x3e8746d7bf1e7c7eU, 0x3e45f0ad3df626e6U, 0x3e86b4193de36afaU,
  0x3e4b9acf3d468848U, 0x3d367fa33e42aab3U, 0x3e5139713e88b142U, 0x3e2cbac6bd246544U,
  0xbe26abe03e556129U, 0x3da75d273e56f7b6U, 0x3d94a232c0006644U, 0xbebf573b3f01e779U,
  0xbc24dab33f1303dbU, 0x3d68e61e400466ebU, 0xbf840d44bf420a9dU, 0xbeb2770bbf4d13dfU,
  0xbeb39a903f515574U, 0xbf9e2e0abf4e0dc7U, 0x3f596278bf365f9dU, 0x3f37ef8c3f7a9c06U,
  0x3eab782b3da266fcU, 0x3dbd1d20bd9d90d9U, 0x3da5e2133e524076U, 0xbdf621a03e7f86beU,
  0xbccfc1653e90bb4fU, 0xbda8a5103ee152e4U, 0xbef70c6abefd0a2eU, 0xbf88af853f721aeaU,
  0x3f6caad43e3d63fbU, 0xbea4a353bce3ff08U, 0xbed6a6233e9e845dU, 0xbe88303ebf095c36U,
  0xbe5e151abe93e88dU, 0xbed00303beb0ceecU, 0xbeb17ff53d297238U, 0xbe4738c9be554c1bU,
  0xbc442b92beab6796U, 0x3ce47c8b3df6011dU, 0xbda7b0edbf02b973U, 0xbe0d8552bee5502cU,
  0xbdd9dbd4be95b30cU, 0x3f241662be7c39e7U, 0xbde91793bec7ab06U, 0xbdd85265be3dc6bfU,
  0x3d6331973e36a6f2U, 0xbe853b173d5d7ec0U, 0xbf2c8d1d3fe7f935U, 0xbf4c2942bec4f9d3U,
  0xbea5437dbe398d18U, 0xbe787eaf3dc47a6bU, 0xbd883ce0bec3bc89U, 0xbb94ebf2beebe7b2U,
  0xbc848224be633154U, 0x3ce8576fbdd4805bU, 0xbf31db6fbde366eeU, 0xbf5c51c1be6b1d28U,
  0xbe2943e23b4dcdd1U, 0xbe2370453d03f434U, 0xbe38218d3e789361U, 0x3f2882833c5c5a91U,
  0x3de8b1203c610e45U, 0x3e4057ee3e04e31cU, 0xbf479c423aeefb35U, 0xbebee4013e2d67d4U,
  0xbeb92409bea389a0U, 0xbf05565e3ca6e334U, 0xbf2692a03e3b6ce0U, 0xbf3415ad3ee2c3ceU,
  0x402b15943d6185d9U, 0xbf91cf30bedeaeb5U, 0xbf1243bf3e1d695fU, 0xbe9b7e53bead0f8aU,
  0xbec63680be45e430U, 0xbe3c5dd6bd36ae94U, 0xbe54939ebe3f546dU, 0x3f01e924be2ae6c8U,
  0x3ee3fd963fc28b90U, 0x3f4bf0af3f90b99fU, 0xbeeb54f13e3a1d01U, 0xbe2c95f93f2befc2U,
  0xbec65605bd500a1cU, 0xbeb1883a3dc0e565U, 0x3f929826bfdd7f2dU, 0x3f9c06eb3ecdd44cU,
  0x3ef4b624be8bde5eU, 0x3eaa20163f4211e5U, 0xbca63deebde1e63aU, 0xbee7ae22be2f740bU,
  0xbe88abd4bf0d971dU, 0x3decb0ccbf18f539U, 0x3dbac399bf0bcfc1U, 0xbdf7140b3e3efb77U,
  0x3e04db39bf21495eU, 0xbec265dabf00cec0U, 0xbe9dfc32bced79beU, 0x3fb3fff1bde56020U,
  0xbed37c31be55ade3U, 0xbeb745b73e015adfU, 0xbebb910b3e8f2db9U, 0xbee7498a3e717210U,
  0xbe6a471abee89801U, 0xbef1eb973ec05047U, 0x3e2c2d883ebf3c7eU, 0xbdc9cf943dacc745U,
  0xbfe3060f400d92a5U, 0x3ec54336be1e8494U, 0xbb2d472cbee94d04U, 0x3e3648763e80425eU,
  0x3f774e97bf4a8dc4U, 0xbf746369be7434a9U, 0x3f0dbfba3f02ac4eU, 0x3f377fedbf083f34U,
  0xbeba2ecdbebf0cc8U, 0xbe7883ba3fc08c62U, 0x3ed485b0bf9ae0b1U, 0xbe61d414be2d4ca3U,
  0xbd205b9abec5e721U, 0xbf8e71ce3eb5ff43U, 0x3f9d96abbd33d3a4U, 0x3e134c7abe5991edU,
  0x3e5f8a1b3ddf3fafU, 0x3cd8fff23fe23640U, 0xbf9e4192be2e1252U, 0x3bf58b563d8863cbU,
  0x3ce508d9bf24140dU, 0xbf730dd13a735697U, 0xbf86fe053df533eaU, 0xbf45a147bf224888U,
  0xbf51547c3e0a9187U, 0x3ef77f0a3e6ef16eU, 0xbef885b0bda5e9b1U, 0xbc15fbca3f81a0f1U,
  0x3eb02dcdbf73a992U, 0xbe864613bda66c94U, 0x3ddba163bd9f630dU, 0x3effb678bdb29773U,
  0x3f278211bf8c74f5U, 0xbe559b62bdaf8ffbU, 0xbeaa9312be074ffeU, 0xbeb8ba08be4f8e21U,
  0x3faab278be02785aU, 0xbec23ebdbedf98a6U, 0xbec42eea3d5eaeb4U, 0x3e157db13dc3be62U,
  0x3ea87115bd45fae0U, 0x3e8babc73f1cfeecU, 0x3eb6501abead5062U, 0x3f0a7e4abec54c1eU,
  0x3f169f43bdd2e41eU, 0xbfc1b8393e512b80U, 0xbd69f0db3ea783f3U, 0x3dae7654bf1090d1U,
  0xbeb2eac8be76ee8eU, 0xbefd875ebe988235U, 0xbef3f1473f05a281U, 0xbebbd210be5a7f97U,
  0x3e317707be4250e7U, 0x3db835223f31f3a0U, 0xbd6fa3e13e029ce9U, 0x3dc1914c3db3c028U,
  0x3d65a3353e05e108U, 0x3f2d73453ebcfb7bU, 0x3e49bfd83e2e6032U, 0x3e0e9562bf044434U,
  0xbeea8b43bee2c9c9U, 0xbe63bff9bebdd85cU, 0xbe8eb60e3f1977b6U, 0x3f723bd83e3cdb83U,
  0x3e9d8b6e3e4a86f9U, 0x3e85ee9fbf03c5e4U, 0xbf4c6b97c04827feU, 0xc031ca813fdc18d5U,
  0x3e12b4a440dac21cU, 0xc06e1033c030250dU, 0x3ec247133fc4c251U, 0x3e9bb43d40005876U,
  0xbfcddf11be2ffb2bU, 0xbe4dc060be0e5c32U, 0xbe5159ecbebbff89U, 0xbea366ab3c214584U,
  0xbe79bd313dd1ff69U, 0x3e246764bfa6f8a7U, 0x3d0541a13d85a517U, 0xbd19a3003d03fb0eU,
  0xbe1e6368bebb80c4U, 0xbf20ae123d00c16bU, 0x3d82f91f3db0b377U, 0x3d1bdababd173715U,
  0xbef89d363c969576U, 0xbe25f3803d94f1a0U, 0xbd2dded43f8eb584U, 0xbe8884613f736fb9U,
  0x3e184fa7bb6e8c80U, 0xbe45ca28be6a17caU, 0x406c407fbe291ec0U, 0x3ffec2293fb1420aU,
  0x3f8c48183df462e0U, 0xbf4eaf883f4851d0U, 0xbef7a0bf3f746af8U, 0xbe1eb2dc3fccd826U,
  0xbceae7f63b0bf9c0U, 0x3ff6dba63f75d36dU, 0xbf01f0053f831b02U, 0xbda5369a3c1cc152U,
  0xbd070364bd92532eU, 0xbc10dfdc404b4031U, 0x403315803fa71893U, 0x3c928680bf725c07U,
  0xbe9bb6743f7ff4adU, 0xbf99b7933eb7ec48U, 0xbe39aaddbc824c20U, 0x3fa6a58e3feb3eceU,
  0xbd9885e9be410621U, 0xbd784ffe3e6d5250U, 0xbe1da1613e853954U, 0xbe45987abf30b254U,
  0xbe411e5fbeaafb6eU, 0x3d8e1d79be7620a7U, 0xbdce4826bd8d810fU, 0x3c1b1fe83e3753daU,
  0x3e879a753ef104a3U, 0x3e0eb9e03e2dc38fU, 0xbdb29b3cbc7e2eaeU, 0x3b8ed1993e6e4c02U,
  0x3d796fa13e38b0b5U, 0x3f2c90b5bea14d28U, 0xbe08756f3ec3e69eU, 0xbe54659fbe658b6aU,
  0xbd2dc731be42a8e5U, 0xbd947eadbedf1b14U, 0x3e5de769beca77e2U, 0xbe14133f3dbba067U,
  0xbe7f20653eb79f8fU, 0xbd86ae06be16e9dfU, 0xbe240be0be777bc7U, 0xbe8779213f0c2204U,
  0x3d77f984be2300f3U, 0xbe956226be176220U, 0xbde98acf3ea6e9eeU, 0x3efd05f03ecb3029U,
  0xbe272780be15898dU, 0x3d7701c2bde39f27U, 0x3eca25b23dbf79f5U, 0xbf3be4653d1c6711U,
  0xbe42db6a3e15f809U, 0xbe21e7663d056d1eU, 0x3dec69c1be3908beU, 0x3e4a75323e85f13bU,
  0xbeb54b313b76dd27U, 0xbe8741923d8e2f94U, 0x3d0f159bbd2dc774U, 0xbb91fa97bd6bdd48U,
  0xbde35523bd21a4abU, 0xbdd3f70cbe3f76ceU, 0x3f8ac5edbe8805b6U, 0xbe6b7cb3be79dc32U,
  0xbce72f463d7422c5U, 0x3c968f6abe0eeea6U, 0xbd6e40dcbdbc8886U, 0x3e109de63e60aa97U,
  0xbd2b412a3dd780abU, 0x3dd3badabe83547bU, 0x3e58f0cb3cee7a49U, 0x3e53cb663e19f562U,
  0xbe8eb3533e95176eU, 0x3e2f6c1a3dd98826U, 0xbeb204693e844d2dU, 0xbefbd09dbe8d294eU,
  0xbe8f0c373d47f590U, 0xbe0b71e6bdfb8925U, 0x3effd32d3d02690eU, 0xbb77a4f2be049253U,
  0xbdec58073dff2696U, 0x3e823d793e24221fU, 0x3df3981a3e4a7fccU, 0x3e98fb753e05b634U,
  0xbe45d9fc3e619365U, 0x3de83e823e46759cU, 0x3de058e2bd11767dU, 0xbe7d339bbc6a47d8U,
  0x3ef1a846bd32f6f2U, 0xbe33e1c9bdecfd4fU, 0x3d9c0d35bc8f41a2U, 0x3e0baf753e35f196U,
  0x3e33b4b33e681898U, 0x3d8025febe0ef1b7U, 0x3e4cece93eea3010U, 0x3cb623ffbeb38cd9U,
  0xbe03a015bcaa8855U, 0x3e5f48bc3d1c67edU, 0x3f6254713e3de9d9U, 0xbe5be26b3d2ba38aU,
  0x3e8052dd3d5c4c3fU, 0xbe15b536be256c6aU, 0xbd663460be346cdcU, 0xbda11176be3c0c5eU,
  0x3e1905143c84da21U, 0xbd4dc8cfbcc031a3U, 0x3e8e7d313df563b7U, 0x3e2b62503e2f10b4U,
  0x3e0134ed3e3bc735U, 0x3e3d24d1bddb6664U, 0xbf719c53be80dd20U, 0x3e0c0c0fbdba8335U,
  0xbc7402d3bd271442U, 0x3d08ab7d3e49d1deU, 0x3e9769dc3e788106U, 0xbe3b4bca3d752620U,
  0x3eae94b13f11cb50U, 0x3ea921c13eceb5bfU, 0x3f259a293d9d334dU, 0x3d694d50bddf6794U,
  0xbeea27ce3c95c2d5U, 0xbf6744db3ebb8afaU, 0xbe0f08283ee607ebU, 0xbec6d19cbe83eacfU,
  0x3e192f913f219217U, 0x3ee5604dbeb2fde7U, 0xbea1fc4ebec27159U, 0xbdee6026be4db0b2U,
  0x3d86a76a3e8c1713U, 0xbefa41223ee715e0U, 0x3e8806b03cce49e6U, 0x3f1e6cb53f149905U,
  0x3efb2f893f0db02aU, 0x3ecf6a7cbee008f1U, 0x3cfffd53be6bcbcdU, 0x3e8eafccbf3cde94U,
  0x3eb828bfbf0d5adbU, 0x3eb7cfd13eb623a2U, 0x3f30db883e526b2eU, 0xbecff9723c29b673U,
  0xbc02312bbdb3aff9U, 0x3dfece313e113f4cU, 0xbd7d75003c6ddd80U, 0xbecadfedbe65e115U,
  0x3e5f27aa3d894868U, 0x3dd032f73e51c0a3U, 0xbe113e4ebe275ab7U, 0xbe4635cb3b6f9750U,
  0x3e87400a3e1238c6U, 0xbe0b82523d638437U, 0xbca6f3e8bebad4d0U, 0xbdfad506be9c575dU,
  0x3cc1592c3db1e981U, 0x3d97b3803bac68daU, 0x3d19c4b4bc7fce74U, 0x3d8323d73dd9a78dU,
  0x3d9b9c1dbd6bac97U, 0xbdd056973ebd1f8aU, 0x3ef2de7ebe2a1dc1U, 0x3df1fc09bd86b178U,
  0xbe235d49be64b54cU, 0xbe67acdc3e41990dU, 0x3e69bf83bea3fde4U, 0x3e701af4bdc06413U,
  0x3f16c3cb3e4acb68U, 0xbb8b20413ecdaf20U, 0x3ebc7a62bd5dd718U, 0x3e1c56cebec8cbe7U,
  0xbe07f3b43e97c79bU, 0xbe804d863ce99536U, 0xbe04ea153ee20a1aU, 0x3e2ce5963ed3b4b9U,
  0xbe08ca6ebe9f741dU, 0x3ead1950bec100c9U, 0x3e902f39bda3b3e3U, 0x3deef5eebbaff6a4U,
  0x3cb19a3b3ea708eaU, 0xbf507c3f3ebd39c2U, 0x3f239eb2bc9a6ac3U, 0x3eb8003d3e26f520U,
  0x3e7be6383eb6f22fU, 0x3e854258bec2643aU, 0xbeee874c3f0316a5U, 0xbe1d5b51be9c2db0U,
  0xbdd843b0be013d86U, 0x3dff80a83e8fdb7aU, 0x3ed78af1bd13f3beU, 0xbdff88acbeb2207dU,
  0xbe303046be9c8847U, 0xbdfd671bbe225d2aU, 0xbe784d263e362428U, 0xbebfad29be32c74eU,
  0xbd1e03403ea34273U, 0x3e08325dbe00d787U, 0x3e766a41bdad1aecU, 0x3efb9d103eb9ead1U,
  0xbe70addfbe2de4d7U, 0xbe79aede3e6bce5cU, 0xbc64d85c3ee461fbU, 0xbe7e26113ee2b6fcU,
  0x3daa6ec3be522ad5U, 0xbf8087543ddd6aa6U, 0xbe78b0313ec44ae8U, 0xbe929f23be97355dU,
  0xbe828154be20fce2U, 0xbe00e266be740467U, 0x3edc9e433dafa2a4U, 0x3e8720b93dbf86b4U,
  0x3e844b613e97ddb7U, 0xbec19d0fbe829cbdU, 0xbeaa6b0ebd986250U, 0x3dd99c403f18bc5eU,
  0xbfcded2bbf24c75bU, 0x3fcb117fbf251286U, 0xbeb9c5d53f5062c8U, 0x3d9cf72d3fa5aa72U,
  0xbe7d5bb63d6689d7U, 0xbd265219be5ea224U, 0x3d884ae83e1e2042U, 0x3d974c263ea6fac5U,
  0x3d508da93d8a65f2U, 0xbe1e33d53d9d2ca2U, 0xbeb1ee223e1257f4U, 0x3d9d417ebe56424eU,
  0xbdbf0ae93dddda12U, 0xbebe4b54bd092d74U, 0xbcbc5fae3d477d1eU, 0x3cbe29a83d96dfccU,
  0x3def80393dd0351aU, 0xbc76b563be859b15U, 0xbcf48b0a3e875b2eU, 0xbbbfc7553e80d76cU,
  0x3e7e429e3d4f84b5U, 0x3d2d3541be7d1cfcU, 0xbe453b263e04fbf2U, 0xbc3b22033e59ac26U,
  0xbc877046be98e292U, 0x3e4f0cf73d76e4b5U, 0x3e4972ce3dadd910U, 0xbe97e2213d8d0555U,
  0x3d0ba648bddebe3cU, 0x3ecb1742be2d8e93U, 0xbd49fc21bd97fd56U, 0xbd9757773d353a20U,
  0xbe3d39333e87b079U, 0xbcd251483e8edea8U, 0x3ddde1bbbdf49fcbU, 0xbd9c5eef3e22a5a8U,
  0xbd83ff08bd3feeacU, 0x3e113b0fbd1f6a9fU, 0x3db7efbebce557b8U, 0xbeb8f9bfbdeb4e5bU,
  0x3df9798abd77cb7fU, 0xbc449b3ebdc61dbdU, 0x3e984b463e6676ceU, 0x3e83d762be77c844U,
  0xbd554934be1d74d5U, 0x3d5d53803d40e16dU, 0xbc06ddf53e9123caU, 0x3da4a4973e3031eeU,
  0xbea145083e1f68ebU, 0x3c7896b0bd27ef05U, 0x3c4f9ba7be6bfde4U, 0x3c72cfd13e148071U,
  0x3e6425f7bec5a7e2U, 0xbe580d73bec44f79U, 0xbbfb8b1f3ea0c61eU, 0xbdf0b585be2841a6U,
  0x3dbb14713d1c5fc7U, 0xbd4c105dbac47f04U, 0x3dabe493be08645cU, 0x3e3270953dd1308fU,
  0xbe14f5fd3a8c75f2U, 0xbd600507be447b49U, 0x3df8c7403e5f8b4fU, 0x3cb4c7ddbde481b7U,
  0x3df1cad73de8c77eU, 0x3ce852023ea4a0e6U, 0x3d52a7d73c85c7b3U, 0x3d8f6c8dbd4706c0U,
  0x3d5d6e52be95769bU, 0xbaa3809fbe4fa91aU, 0x3dff967c3e943a85U, 0xba3a9bddbddaffc7U,
  0xbd9918793dca24ceU, 0x3e2f6111bd816ef4U, 0x3eca7eb8bd1a3f6dU, 0x3e0e251b3e4ea26dU,
  0x3dbd79c3be66f4aaU, 0x3cb2a37d3e5215ccU, 0x3e47cbdebe072658U, 0x3e5db3c63db2b1b7U,
  0x3d893343be541b8fU, 0x3c83bf63bdfd24e0U, 0xbe989f85be038dbfU, 0xbe352ea5bdb9bf03U,
  0xbd7b18ac3e5dbbc5U, 0xbec613c13c3b776eU, 0x3e54e61dbd7bf25eU, 0x3df325983e322819U,
  0x3d976bce3cdaced9U, 0x3da9a160be6cf090U, 0x3e666d70bd9334efU, 0x3e058e263d712ec9U,
  0xbe4ead4c3e6ad22dU, 0x3e2d3c483e2a9b3aU, 0xbe227935b9ce6accU, 0x3e40238ebe20a5a1U,
  0x3e072ee4bdc51fd2U, 0xbc55d1d6bd4025d3U, 0x3dd10b68bda012f3U, 0x3dc7a7393e94cc90U,
  0x3c3141d5be083251U, 0xbd402ffa3d7f7dc6U, 0x3e02bb71be4ac1b1U, 0x3e595dbdbc4ede30U,
  0x3dc2f32dbe15a473U, 0xbd48dfadbd485153U, 0xbd903ab73d393fafU, 0xbeb138583d921019U,
  0x3e3582e6bb4dc717U, 0xbd8fb4043e1de25cU, 0xbe28fd63bd764ea7U, 0xbe249cbebe3b90f4U,
  0xbdb9fe143d35cdd0U, 0x3cf7310a3df5ce78U, 0xbb0c9be6bdeb206fU, 0xbd8461e6bd1b6bacU,
  0xbc6be51b3e9c99e5U, 0xbd470bb6bd462deaU, 0xbdc50dcfbcc087ebU, 0xbd8b282abe98df37U,
  0x3d947a5c3e704042U, 0x3d8d4a75bd5537d7U, 0x3c5ecf06bee7539eU, 0x3cbbb9e4be5cebdeU,
  0xbd186b58bd2edd23U, 0xbd04c8773e815f9dU, 0xbe305c6fbc525554U, 0xbdc7de72bd11205dU,
  0xbdd43ece3e650d16U, 0xbb8b3f6abc374346U, 0x3d0e4b7b3eac94afU, 0x3e4225d83e6834c6U,
  0x3db69206be442582U, 0x3d5c696ebe16190bU, 0x3d95cfdebe37ffacU, 0xbdbb60153d6c9bafU,
  0x3cebe7463c2b2d96U, 0xbeaaffe93deff722U, 0x3d4c7b203dd1fca0U, 0xbe01f639bdc82714U,
  0xbd8c97143de92b82U, 0xbd0308f1be57efd6U, 0xbc7f27963d866031U, 0xbbd81258bdd1ba35U,
  0x3e5f174a3dc34585U, 0x3e90fcc63e73a0a9U, 0x3da4065bbd8de2f4U, 0x3cee92d4be675367U,
  0x3d992968be9fea9bU, 0xbccdf0413e10139fU, 0x3da14a39be9a235bU, 0x3dcc33523e32978bU,
  0x3d05be25bdf33dc2U, 0xbc09bdbb3e1d4d9dU, 0x3acbdb22be3f4a69U, 0x3b558306bdc889c8U,
  0x3d8865a3bc75c224U, 0x3c606c1c3eaa7ebaU, 0xbde0bcb53e0b8935U, 0x3e0f20bc3e8ac574U,
  0x3e92462c3cc60aa9U, 0xbddba9313cbdee01U, 0x3e2df753bda57851U, 0xbe0df03dbe826fc6U,
  0x3e825b2bbe639596U, 0xbd9c85fa3d3cbdf0U, 0x3e0c8fb2bde4ebedU, 0x3d20c4523e271a71U,
  0xbe122a7ebde34f3aU, 0x3d075f743d124ec9U, 0xbe7a184bbe201f69U, 0xbe9ef5903e00d28fU,
  0xbec37ef03e641971U, 0xbae9a6613e0476b8U, 0x3ea219c63e39ca2bU, 0x3e4d932dbd0c7782U,
  0xbe6a3f06be3030c3U, 0x3e9ed6a7be7276bfU, 0xbd3ae85fbd9be982U, 0x3bc82af43e3362f9U,
  0xbdc561cf3d32c72dU, 0x3c8707cdbe3360b3U, 0xbe7c9089bd0e45d4U, 0xbe704553bd8a3576U,
  0xbc8fc7e7bcc64667U, 0x3cc1dfcdbeb45d14U, 0x3eca7c58be2bc01cU, 0xbe169fb6bcbcf1d8U,
  0x3ddb9a513d3f6066U, 0xbd59617ebe5e8b91U, 0x3e16d9f43cb21b74U, 0x3d516ecf3e3a3f08U,
  0x3c4fbab4bdbaf686U, 0x394441873df5e8bbU, 0x3d79b833bd3d6489U, 0x3d94f89f3bb535beU,
  0x3f081c0cbd15d33bU, 0x3dccaf343f499eb9U, 0xbde6e35d3eb523d2U, 0x3f35c21f3f251006U,
  0xbe4924713f0a158aU, 0xbf33f9d53f2cd0b6U, 0x3f5604f9be5632a7U, 0x3f3e79c83f558d6cU,
  0x3ec2c9b03f440346U, 0xbeebfb52bef3c9b1U, 0xbf2cc91dbeb2e9edU, 0x3f0c84f63f1c0aafU,
  0x3f30e35c3f430037U, 0x3f7b21a4bf0c562eU, 0x3c1be0863e339734U, 0x3dd5d9573f4ba554U,
  0x3f35f4f33f4e994aU, 0x3eee1dd43f5b8aeaU, 0x3f61953abc209523U, 0x3edb2f8abc841ef6U,
  0x3ea77f363f1fb2b0U, 0xbd8ca8693eb55a68U, 0x3e28ac9c3f2783adU, 0x3f6f9cab3f2ad1b2U,
  0x3f0f61423f106170U, 0x3e818b323e94436dU, 0x3e025371bf86c021U, 0x3d3b0b053d2ca544U,
  0xbd3d4c413c017b76U, 0xbe2a78fe3e480184U, 0x3fb53bd43ed5bbc3U, 0x3dda80cb3e2e2e03U,
  0x3d3fbfe5be81ba8fU, 0xbf0f5e86be14c1c0U, 0xbef15184be131b8eU, 0xbececf40be70234aU,
  0xbdedc69bbc38a7ceU, 0xbe937481bda3f9d1U, 0xbea1b3a2bd9bfb7cU, 0x3ec6ee90bd4bd25aU,
  0xbeec375abe0c0fddU, 0xbef442f4be4c06a1U, 0x3fb813863e07d7d8U, 0x3f1368f1be221bd3U,
  0x3f0e9471bed93eedU, 0xbd651b323e896593U, 0x3e402d633e111eeeU, 0x3db7f17a3dc6b020U,
  0x3f87dfc73dcbbb12U, 0xbdac9e313e0b8ce0U, 0xbd61cbccbd9cc2f4U, 0xbee4eea3be82132fU,
  0xbdd165b8be24fc65U, 0xbc7d21f33e41429dU, 0xbe1f5e53bd9631d7U, 0x3e237d84bd07d870U,
  0x3c7ce17c3dc5827bU, 0xbf1732963e0da030U, 0xbd397c39be863737U, 0xbe70926cbe9b608cU,
  0xbedba7a33ea11fcaU, 0xbf7516c43e8a429eU, 0xbee82c913fe402e9U, 0x3dddff19bdb90aafU,
  0x3ea9fdb33e26dec1U, 0x3ecc86613c6f4c89U, 0x3f94e5ba3ed18327U, 0x3e40d6f23e80649dU,
  0x3e33df63bcd0b11cU, 0xbe55da43beb76e64U, 0xbea43eadbf142539U, 0x3d65e0abbf0f002dU,
  0x3db67909be182aa1U, 0x3efed4e9beb9f460U, 0xbebb1460400ee7fbU, 0x3f4d4ad33fa52b36U,
  0xbe07a1ddbedea9b0U, 0xbf01d1013b9cc8f9U, 0x3ebbec843e67a0d8U, 0x3ecf62d23e4bf885U,
  0x3e8980763f47737eU, 0x3dde79c33dabf88bU, 0xbe3afe48bd6c3b0cU, 0x3eb3b8a73e09322bU,
  0x3d6c90afbf966119U, 0x3cc92da53f9a896cU, 0x3c6dcf703d954072U, 0xbeaac8febe9b40b2U,
  0xbf02695abe673a7eU, 0xbeaeffb93ee394b3U, 0x3db65e2f3c8fa416U, 0x3dfc066abd842437U,
  0x39d021bd3fa0cda2U, 0xbe1978843e98c98fU, 0xbdaf08333eb2dbb4U, 0xbdd025de3b30d410U,
  0xbe339787beb7de89U, 0xbe92b784be4572e5U, 0xbd93471bbe93e433U, 0x3c512b7f3c98e2feU,
  0x3ec105853dcba7dbU, 0x3e8efabf3eab3bd8U, 0xbf61567a3eb8654aU, 0x3e87e8bd3e9ba3d9U,
  0x3e3256963e75797cU, 0xc01c171b3efcc95aU, 0xbf185e583ea3e12bU, 0xbead37ec3fb385e8U,
  0x3f8b3c6f3da031eaU, 0x3f276c83bba6a72eU, 0x3e9d8da83f4c8f81U, 0xbe9462323f3c18b7U,
  0x3e4125353efb28b9U, 0xbdcc33eb3e0a4be8U, 0x3f32c5dcbe3cb69dU, 0xbecb034ebea5cf6fU,
  0xbf104aaa3f8ead83U, 0xbfa41e3cbf3be543U, 0x3f3d2622bf543236U, 0xc0239fc93fec469cU,
  0x3fd0ff943f8afb9eU, 0xbfec08eac0307a77U, 0x3f6c04cac01fae0fU, 0xbee677b9be35df85U,
  0xbe3723a3bd96bfc3U, 0xbe3bb7ca3f4b7076U, 0xbe4be739be0d28a0U, 0xbe9be481bdc6dac8U,
  0xbe830fadbe95b34aU, 0xbf405a12beddd223U, 0x3f0a3c15bc0f949bU, 0x3e79e20d3f24c15fU,
  0xbea5270f3ecbdfd1U, 0x3e50df5f3eb251dfU, 0x3d9b8964bfb6ba14U, 0xbeb611763ea3c504U,
  0xbdacbb633e9b627bU, 0xbd602981be7a39c1U, 0x3e0b1d0abdeb41b0U, 0x3e752339bdd8bb0bU,
  0x3e06a43b3f548548U, 0x3fcc75393d57ea81U, 0x3f959d6bbebcecf1U, 0x3f418e7c3f266925U,
  0x3f05ced23e83d213U, 0x3f1b704a3ddb69daU, 0x3f28b117be3d026eU, 0xbfcee2e2be7082efU,
  0x3f095115be86f518U, 0x3f1792b9beae7f27U, 0x3ef2500c3d0fbe25U, 0x3ec6b176bd514276U,
  0x3e8b9dbe3d17cab0U, 0x3ed5fe863e84a6e0U, 0x3db3124f3e41ba0fU, 0x3d1d5d603f223359U,
  0x3e8c24cb3e91d5feU, 0x3ea444173ea151b5U, 0x3e7040e43ef5e853U, 0xbf8ae9afbe76eb98U,
  0x3e6dc7ccbe7f8bebU, 0x3e90f262bec2ce12U, 0x3fc2b89cbdd07168U, 0x3e91cd26bbe43068U,
  0x3e2ab4a63ee76626U, 0x3e185e573e6f19d6U, 0x3dd7d8e13eabbc89U, 0xbca458d83ea4243fU,
  0x3fa764af3de5bdccU, 0xbf7e50083d93bc00U, 0xbf912b253ea82ea3U, 0xbe9452343f04ea4bU,
  0x3e85f2ec3e98eeefU, 0x3decdb9bbecca917U, 0xbf08ab05beb4aa80U, 0x3d99ec2fbead056cU,
  0xbd93406abeca95fbU, 0x3c826027bcbe4e8bU, 0x3f8f372f3d4e2ec5U, 0x3f30ba3b3f35d56fU,
  0xbfa6f0eabf4dca8cU, 0x3e52f6fcbeebd087U, 0x3e7f26e7bdd9c79aU, 0x3f9fece63dddebe9U,
  0xbb20fd623c415763U, 0xbc8643763e661619U, 0xbe55ddf8beb4437dU, 0xbe7b947fbe59d36fU,
  0xbd9bd696be989d05U, 0xbe931946bef0c92dU, 0x3c11aef5be6cfbd3U, 0x3e15ac3abf57476cU,
  0x3f082d4fbf102071U, 0xbe99a28ebf19385dU, 0xbe68fb2ebf1cb396U, 0x3d16d75a3e00fbdeU,
  0x3f4b502dbd5abfbeU, 0x3f5f93e8bf3d8d4bU, 0x3d30f31c3e365216U, 0xbecdeadcbe3e5d0dU,
  0xbed86e8bbda32903U, 0xbeb062cdbe00da9fU, 0xbe3fb1c03dedc271U, 0xbe6a05143e9cd8d7U,
  0x3e1e31e4bd37fc7dU, 0x3eee5760bbdd6535U, 0x3ee1e53b3ec3950fU, 0xbf35ce75bf1a9000U,
  0xbe37b3dbbf09ea2fU, 0x3c0f6698beea7b72U, 0xbe6dd4abbeae4b6bU, 0xbd8917ffbe4c71feU,
  0x3dbedc7cbd26b890U, 0xbc83b2563ba35353U, 0xbee56bffbd2232d2U, 0xbee41c5cbece40afU,
  0xbc2a75f2bdcdbaa1U, 0xbe298d6fbe1c3ab8U, 0xbe1ba917bce1cebeU, 0x3f582a4ebe320ed5U,
  0xbe4be291be130582U, 0xbe36bfebbe424edbU, 0x3ccc1da1beda332bU, 0xbd8835743e871e44U,
  0x3f6ab1fdbdf8373bU, 0x3e950847be9d6bbeU, 0xbe75bcd03ebbe02fU, 0xbebbc2783f833fe5U,
  0x3f077033bde31c11U, 0xbd8abcfcbe65bd80U, 0xbe80f1173f34b102U, 0x3ed317453eae975fU,
  0x3e07d6a33c9bfcc6U, 0xbedbe26f3f23c471U, 0xbf5b1883be0236c0U, 0xbf665ad2bde0bffbU,
  0xbf897df03f44383fU, 0x3f26bc59bc71ff10U, 0xbe976b69bd089573U, 0xbdc080e13fbbbb6aU,
  0xbfbbcbb83ecfad0dU, 0x3fbd30e73feef29bU, 0x3d163d20bf8df0dbU, 0x3fb180c63ff3389aU,
  0xbfc93192bf43d9a2U, 0xbf2303753fda7704U, 0xbf6708b2bfc84e70U, 0xbf4ed690400e51e0U,
  0x3e813dd83fd70086U, 0xbf5c900cbe037a75U, 0xbbb2eb80bd5eb078U, 0x3ec0c1074002a686U,
  0x3e652f5e3fb09e4eU, 0x3fbe421cbfa80079U, 0xbffb9d30beace89eU, 0xbf87af493bc12ad7U,
  0x3fc3d0a73e0b456cU, 0xbf8d4265bf1eadd3U, 0x400a49da3f89ee54U, 0x3fa26b143efc3e53U,
  0x3f8f46c53f21cdadU, 0x3fbd05d93f75a3d1U, 0xbf999d8cbf961746U, 0xbfca21d83f680ab8U,
  0x3ed8c439bdd43ab9U, 0xbddccd74bd79640fU, 0x3e98ca193e874d07U, 0x3e10a63a3e55db3aU,
  0x3df1033bbe80eabcU, 0x3d6366c93cb66058U, 0x3dd04b773ccee10fU, 0xbe37f9c7bec3dfd1U,
  0x3f0188663eaded0bU, 0x3e885ad73d7d8519U, 0x3ce64991bd84b9ddU, 0x3dcd7e82bf0a917aU,
  0xbc0ac4f4bdbde082U, 0x3ee27bcdbebd76d4U, 0xbe704006be815820U, 0x3e7973cc3dba3d91U,
  0x3da0a012bdacc596U, 0x3ecdc2e4bdbd2d23U, 0xbe97ffd43f0027f4U, 0xbe2e19b5be1d0807U,
  0x3e8cda02be884b65U, 0x3e2d996fbda7f6cdU, 0xbe3fdd593cbc32d9U, 0xbea2d3c63e830b81U,
  0x3d24a4fcbf00ddc6U, 0x3d28ca853d570954U, 0xbe92f6d63ee2259cU, 0xbd90b981be8cc11eU,
  0xbe4541673cfd7372U, 0xbd9cbd163d8daadbU, 0x3e161b1a3f19de43U, 0xbe45a8c03e35e72dU,
  0x3e4dd8f6be977d67U, 0xbe5afe1cbbfc9b80U, 0xbe2aed7ebe32204dU, 0xbed27a423eb6a21dU,
  0x3da7591b3edb58a6U, 0xbe700dcebec945a9U, 0x3ef53182be28d8e2U, 0x3ed87d953d89aa77U,
  0x3cc75913be918a8eU, 0x3e1e2891be93c15fU, 0xbeb2c1c1be1c3dcfU, 0xbca735a83e49c1feU,
  0x3bf5145fbdb5a48fU, 0x3f23d3713d1e7627U, 0x3e254d42bda170b8U, 0xbead69a53f025dfeU,
  0x3e474676bdcfed9fU, 0x3d9792aa3e3fcecbU, 0xbdb09d5dbdf18a7bU, 0x3dfb9a1cbd0130b7U,
  0xbe41dbcdbe9107f2U, 0x3cbc8790be57e8dbU, 0xbe1b02fc3d7dfd89U, 0xbf152f293f07e4adU,
  0x3e12a07c3e95f733U, 0xbdb23692be391186U, 0xbe29b18a3dd59091U, 0xbd950bb43e2f488fU,
  0x3eaef883bdc7a058U, 0x3ea0c8443d3334bcU, 0xbdaf46663c677c95U, 0x3e5e1cb6bec57a3eU,
  0x3e72f17cbe477421U, 0xbd4d091ebf02bdb0U, 0x3da5029fbe1eed29U, 0xbe87b5823efaf43dU,
  0xbd313d853e4d24dcU, 0x3e2e390c3d675073U, 0x3e8f41303d499d69U, 0xbcf34dc3bad8ef33U,
  0xbe3ecdb1bdd31e2aU, 0x3e6ae1e93d305edfU, 0xbe4022c7bcd98530U, 0x3e122dfcbf17bb68U,
  0xbea4d4dabe0b52aaU, 0x3e375a52bee44fd5U, 0x3be4e1ffbe8b82a9U, 0x3c3195593ee3286bU,
  0x3ef0e1e1bd5382dfU, 0xbdc0891f3e5bf646U, 0x3e675dc83dc1edc6U, 0x3e65d365bedb9de0U,
  0xbcbd0f18be8b3d0cU, 0xbde3ed25be1aebc0U, 0xbf0876e8be0b9515U, 0xbe8119173e346488U,
  0xbee9474ebc6c4303U, 0x3e4fe8f7be7d8a4bU, 0x3e8d9517bd9120e5U, 0x3d6390de3d9a9a03U,
  0xbd1438cb3dc2bee2U, 0xbeb60a2cbe4b54b2U, 0x3e0270463d617702U, 0xbe0abae6bea0d761U,
  0x3f5fd00d3ea69882U, 0x3f72511a3f03173eU, 0xbf0dc5273d4fe61fU, 0xbf5a5b5ebe47f6d1U,
  0xbf0aacffbf345d49U, 0x3d8c3ef7be28ff4fU, 0xbf5d6b3f3e908b29U, 0xbf1b5935bf610488U,
  0x3ec5cc553eabef2dU, 0xbf22132b3d9e1b84U, 0xbdbf8e013e4b3be6U, 0x3efe628d3fb39f73U,
  0xbeb68b3ebf64191fU, 0xbeb8075b3e200ed0U, 0x3e120a67bf63fa4fU, 0x3e84378f3dc93171U,
  0x3d90da50bed6ae33U, 0xbf148aa4be2de5edU, 0x3f6154cfbee857f9U, 0xbcb260773f13fde5U,
  0x3f401b743efdfb0cU, 0x3e3ca2f03f094e2eU, 0x3f803d2fbe4dffccU, 0x3d6a8f73bf4e0b03U,
  0xbe23eca8bea0a8e7U, 0x3e813d203ef5b40eU, 0xbe9e2a01be1de69aU, 0x3eccf5a93ee91148U,
  0x3e87e2e93e56e6daU, 0x3d9b4844be8b8319U, 0x3da8ab49be97673eU, 0xbd52ce16bdc3fad8U,
  0x3f3447f7be9913e0U, 0xbcab35103e1ec129U, 0x3debfb3d3ecde312U, 0x3e31ade93ddd88f2U,
  0xbe378d51be2196d2U, 0xbec23de1bee48b8fU, 0xbf33f8603e6f319aU, 0xbdac0f1f3e97b74cU,
  0xbdd584913de3e98bU, 0x3e5d99c6be45e770U, 0x3ebbe1c4bcdf43a8U, 0xbe1204b3be1acec9U,
  0x3c13ec023ebea0faU, 0x3f11705fbd3364d8U, 0x3d36e70f3edde576U, 0x3deee884be3e74a7U,
  0xbe13f01b3ec8fd36U, 0x3d79fd2b3eded0f5U, 0xbf1443543e445adbU, 0x3c04a74b3f3094d9U,
  0xbf1c428d3e8c4317U, 0x3e9f6cfdbec43138U, 0xbd4d30ae3e519e74U, 0x3e2bc6993ec687d8U,
  0x3e331a16bec45f8cU, 0xbe81cab53eb2d90cU, 0x3e9df4143f0c37caU, 0x3d6340703eae3282U,
  0xbea7fd363c8c483bU, 0xbebefe9f3e208cf5U, 0xbec4eaefbe504f82U, 0xbeea8ec63e857315U,
  0xbea3d5023c606cb3U, 0xbed74ad7be9e4573U, 0x3e8569a2bec9d13bU, 0x3f095af13e923fb7U,
  0x3e2a8ae7bcced1baU, 0xbee1c595be35ed89U, 0x3e4f8cb7bdf8f45bU, 0xbf5504febe4ecc30U,
  0x3efe324d3dab64c4U, 0xbed667e6be668fa0U, 0x3ef93c6b3e93f28bU, 0xbe548563bd3f2854U,
  0x3e905391bcf9af16U, 0xbe03209dbd02cd9cU, 0x3c1f669cbd66ad65U, 0xbe3306513ec156a0U,
  0x3eb04d3e3e782dc2U, 0x3e201585be5918cfU, 0xbcfdb881be2622e0U, 0x3dfe002dbe923fe6U,
  0x3ee8c94b3e3e2af6U, 0xbe7ef9babd475a7aU, 0x3d8c9c09be3c0c20U, 0xba3c7f08bdd87adaU,
  0xbd97f98fbcc258deU, 0x3ec335a6be290a6bU, 0xbded9bc93e5ebdefU, 0xbc949fff3d315b18U,
  0x3e3edecbbd09c186U, 0xbe5947d4bd97e50bU, 0xbe0209dc3ea404e2U, 0xbda331943dff9191U,
  0xbfac98c3bf1a3b95U, 0x3fe66881bfdda30fU, 0xbfd28963bf217601U, 0xbf21c8bbbf41a7d3U,
  0xbd61dbfe3d3dfacbU, 0xbe5428493e97d732U, 0x3ecc94c8be31c170U, 0x3eb4bafbbcc54a80U,
  0xbd8eb1acbe449e22U, 0x3d569f703e101e5cU, 0x3d2d2f513cb3e6ebU, 0x3ecdfd903e6819b3U,
  0x3d48dff23dca1da4U, 0x3ddf1c5bbcf23e51U, 0xbea78ded3e1bc420U, 0x3d24be523e599827U,
  0x3cacaf293d4589c8U, 0x3d562db2bcbe8c75U, 0x3da4e5df3daa381fU, 0xbd1e9add3d57eec0U,
  0x3e524ba1be217ba9U, 0xbdf11310be8bc3c8U, 0x3d1207a13e01e11aU, 0x3e05176f3ddd5f15U,
  0x3c5775a83da7ad8cU, 0xbe9cd3333e1cd1c7U, 0x3e21db433ca5d1beU, 0xbe0326ed3de1df2aU,
  0x3d9059c43e381bfeU, 0x3c98521fbd980bffU, 0xbe10f2bf3d92d400U, 0xbe04d2523ea373c1U,
  0x3da06d3ebe2431d5U, 0x3e830412bde64552U, 0xbe196a523dbbfd63U, 0xbd1e558bbe338402U,
  0x3d05acf23e163ba4U, 0x3e1dbf4f3e9594f2U, 0x3e2a3deabaef7a1aU, 0xbebe38223d7ef2baU,
  0xbe85a2003db19e92U, 0x3e14440e3ec4f02cU, 0xbd0828e9bd8c3304U, 0xbdbbed92bdf2977dU,
  0xbd200a6c3d5cc70eU, 0x3d2c5f85bc69272dU, 0x3d0710b73d5726eaU, 0x3d68a2b23d2385d6U,
  0xbe7ad587bc763135U, 0xbdc0d8dc3d26d989U, 0x3cc647323d015b5cU, 0x3e97dc03bd998e9dU,
  0xbd83ad653e086ef9U, 0x3c46b324be2c8b1fU, 0x3e902c1c3e81376cU, 0xbde49d0dbd8fef44U,
  0xbe07b5c3be19a1b9U, 0xbe2976ee3d92e10dU, 0xbbf0e0083dc0fd91U, 0x3d816d9cbe9555ecU,
  0x3d9d42313dcc335fU, 0xbe09b75c3e1751d5U, 0x3ddbe587bd479820U, 0xbe0ab9523d97587eU,
  0x3eae5db7be33c1f7U, 0xbe926b413e5fa564U, 0xbbeeaf143cdc42ddU, 0x3e8113e1bd819c47U,
  0x3e18cba0be11be77U, 0x3d944e9f3df5a7bcU, 0x3d3bbabd3e7dbb8fU, 0x3cfb78f4bd977f13U,
  0xbbfbfedbbc9e8764U, 0xbd7535c7bc1f67deU, 0xbdf9c06ebc9bad03U, 0xbd85a79ebdaa38cbU,
  0xbe3045b33dac304cU, 0x3e30d1d33e259513U, 0xbe5435d83de29f76U, 0xbe8a5ae2bd9d8bcaU,
  0xbe722d9e3dd4c5b2U, 0x3e0573c03edaf833U, 0xbd874949bdcddb2cU, 0xbe0dff4bbdaa89eaU,
  0x3e91a9b3bd81c536U, 0x3e5a2a55bde892c9U, 0x3e35d9a03db91452U, 0x3df10884bd0f28f1U,
  0x3e2be909bd273628U, 0xbe835abfbd7d7cd3U, 0x3e4630843dcdc121U, 0xbdd683503dfa02c2U,
  0xbd920f1c3e44a589U, 0xbea7593e3dd485efU, 0x3e7d5f6dbd833093U, 0xbc0c5bea3e529b7aU,
  0xbe27f1bf3da38832U, 0x3e02a09ebea92564U, 0x3ca316813dac34a0U, 0xbec4b6973c01a5baU,
  0xbde7d964bd0bdaf6U, 0xbe94eee03c8b1964U, 0xbd8879233e193034U, 0xbc2401393d7a6c02U,
  0x3d55273c3e8eec68U, 0xbcef26bc3e0395f5U, 0x3dd212303ddf4e3aU, 0xbd4c5665be3c4404U,
  0x3e510eaabd82249fU, 0xbe2a9b08bdce8709U, 0xbd92dfbb3d81dcb4U, 0xbec043ebbe8570c7U,
  0x3e66d454be0dc337U, 0xbe1f812cbec3e9e2U, 0x3dc0efea3df9a7aeU, 0x3e39352b3dd2ee01U,
  0xbda6edaf3e9a1e07U, 0xbe02a58f3eb126f7U, 0x3d41873bbe105357U, 0xbd4a9587bd5873d6U,
  0x3d49c8bebed16ecaU, 0xbc94e2fbbdda25f9U, 0xbcfefe173d0d4aafU, 0x3d8fc6fb3e87f2c8U,
  0x3d8fd530be5ba982U, 0xbd12b2bf3daf99afU, 0x3d0d8d37bd810bb2U, 0x3dcc48ac3e73f09bU,
  0x3e1209cc3cbb8032U, 0x3e2f73873e6ffd7aU, 0xbd6808f63e23b325U, 0xbdb75d9cbeb02fa9U,
  0xbdc9197fbea66ae1U, 0xbd1189823d93549dU, 0x3e090a8d3e515b3eU, 0x3e41c57ebe1f4b01U,
  0xbe65951cbdbc2800U, 0x3d9f87debe0cba9fU, 0x3d8cc8ad3e125ccaU, 0x3cb5222d3e30605cU,
  0x3e03301ebd9720fbU, 0x3e0470d9bd8489d2U, 0x3e6073de3d53090cU, 0xbe81b85b3e76d0f3U,
  0x3e11a690bd35401fU, 0x3d8468ecbcc87811U, 0x3e35af463cc75c56U, 0xbe5f56a43e578ef4U,
  0x3e2e182fbd0a57d4U, 0x3d41ab87be1b5882U, 0xbe9f44903eaaadeeU, 0xbe575145be25db97U,
  0x3e17cf133d4b526fU, 0xbdc2c62abded68b7U, 0x3d44a903bded2e65U, 0xbe226beb3e3fa792U,
  0x3e4702bfbdad5b34U, 0xbe16a2debe80dae1U, 0xbb03e6e43d6cc4a3U, 0x3ded368dbda58aaaU,
  0xbe52909d3e228698U, 0xbeb97db23e233f68U, 0x3e37ded73d839ca6U, 0xbc1087c93e841d58U,
  0x3e465ae93e9773d9U, 0xbe6e09623d30db2cU, 0x3d3353983d9c7364U, 0xbd797028bcf1d1d7U,
  0xbde5ddc53e2f4ebdU, 0xbea4ccf63d9fde0bU, 0x3e479e5d3d8b4f1cU, 0xbd86303f3e81061cU,
  0xbe466d833e0cee9eU, 0x3d5e25fd3d7f333dU, 0x3e5c3fc83e00b913U, 0xbecc9c2d3d669ad1U,
  0xbe132896be8ba621U, 0xbdb08beebe8dec8fU, 0xbe1832c43cacd0e2U, 0x3c45d6fb3e909bccU,
  0xbe14635e3d3df98fU, 0x3d4fa9fabd00da3aU, 0xbccd6af33d6c7c87U, 0x3d0b54203dd59741U,
  0x3df4f777bdc4f1d6U, 0x3d58f8623e7e8f85U, 0xbea08b3f3e459f5aU, 0x3d2a490c3dbc6ba0U,
  0xbb82fe49bed29b29U, 0xbdb64f793d076c71U, 0x3e237ecf3da9d8d4U, 0xbd118459bce5c6b4U,
  0xbe1aa865bd8f183aU, 0xbd3802ddbdb937f6U, 0x3e9b7c9fbcb40187U, 0x3d4f0423be836edcU,
  0xbdaa10d1be4f1ff2U, 0x3f74320cbe3d2ed5U, 0xbf38f6513f32e870U, 0xbf0b7bef3dbab0e2U,
  0xbe9bd1cebefd6c5dU, 0x3f3c6facbe1e2cc3U, 0xbda8bbf63ea27292U, 0x3e1ad7f53f6bdf96U,
  0x3f7927b33f4281c7U, 0x3ea87d0fbf1d8110U, 0x3f34e4f93f1614beU, 0x3cf9034e3f2c5f58U,
  0xbf12678c3f4d6288U, 0xbe890e703e40330fU, 0x3e2e39bf3f3765c2U, 0x3e985cae3f20d129U,
  0x3f360dc13db20cb8U, 0x3f19ee7c3e540e66U, 0x3f3113c63f1d8e02U, 0xbeeb467e3f3f12e7U,
  0x3efef0ce3ee36260U, 0x3e1e61abbec870ffU, 0x3c125dfabeb7a75dU, 0x3ab589fc3ec40da7U,
  0x3e99e9693e810f37U, 0x3ebf2e413dbd0d34U, 0x3e02f5a73ed6222fU, 0x3e4c6dd23e476064U,
  0x3e8130473de1221aU, 0x3d9614fd3e98ed6bU, 0x3edd9e483eb77d41U, 0x3e32ddd63e096780U,
  0x3dc6edff3e6afe47U, 0xbe981959be9bb4abU, 0xbe9a93f3be614283U, 0xbe348bacbe965c53U,
  0xbe391203be1ca002U, 0xbf0104cabd41e309U, 0xbdb8f948bf14c927U, 0xbf1fdc9bbef68782U,
  0xbe584f51bbcc7760U, 0xbcc8cc06beae56cfU, 0xbe96a428bea4000dU, 0xbedc7e01be0f1fb3U,
  0xbe2c4fb2bebd4187U, 0xbddd54f3bdcae67aU, 0x3fb739ef3ac6c929U, 0x3e76af4c3fb98db1U,
  0x3f92dae23f9e5afeU, 0x3e9944ab3eec3fe1U, 0x3dd9344a3e9fbc10U, 0x3ea56d753e8e4906U,
  0x3ea230a93e029572U, 0x3da2f6983ea27e7fU, 0x3d47c0333d5f0b55U, 0x3f4bf0abbbd4645cU,
  0x3b0c0a713f5aa634U, 0x3f2515913f66a1f6U, 0x3ed2a9563cee04d0U, 0x3ea837473e029b76U,
  0x3f22f9033f126e70U, 0x3f2ae3fe3e62270bU, 0x3e81c7b33f415febU, 0x3e58147f3e838bcdU,
  0x3ed9d2f03da7bd7dU, 0x3e2437163edd3bf3U, 0x3f173bc03f1c5d60U, 0x3ec9e29b3e59a556U,
  0x3e262c713ee9a7a3U, 0x3ff32c5c3fe32c10U, 0x3ffbd79c3f4e003fU, 0x3f81535c401e59efU,
  0x3f916add3f08a35fU, 0xbe87c0433ecd0a36U, 0xbdaba4bcbeab42c0U, 0xbf07337cbeda452aU,
  0xbe2d2068bdf45c30U, 0xbd52b45bbe253be6U, 0x3ee4797f3e8cb61aU, 0x3e4afdbb3e373db4U,
  0x3d44305f3e96adb8U, 0xbe39aec1be0d78d2U, 0x3e8f712fbd6d8abcU, 0x3d5fd6c63e8e33b7U,
  0x3f012ecc3ef6f098U, 0xbf04c6b83e1a11a3U, 0xbf9df633bf34fa89U, 0xbecd98abbeb3d8ebU,
  0xbef6aa29bde48df5U, 0xbded789abf056c5dU, 0xbe43d278be549d08U, 0x3e92d0bcbb01661dU,
  0x3dcf645d3eadb25bU, 0x3ec5585b3ea04b5aU, 0x3db4e84c3e2148b2U, 0x3ddb267b3dfb4469U,
  0x3e4309863dc7dd4eU, 0x3e826b8d3dd820f4U, 0x3e73f0cd3ed58094U, 0x3e53b8863dea95c5U,
  0x3f541c323e09ac1fU, 0x3f105f1b3f927a38U, 0xbecd7e49bf0af381U, 0xbf501e8dbd1a26aeU,
  0xbed9d703bf227c9cU, 0xbee939b4bee44242U, 0xbf0dee91bdda76d0U, 0xbe670ed7bf156384U,
  0xbeb18394be950303U, 0xbe808dc4bde7e991U, 0xbd545593be9b7529U, 0xbeb51716be9ebb87U,
  0xbe0e01babdf36020U, 0xbd9a94b9be1074c8U, 0xbe2a4bf4be1a0190U, 0xbe3ccbdabd633fe3U,
  0xbd6e0eefbe3f0b0dU, 0xbda670ecbd9b67caU, 0xbe388f08bd6a450cU, 0xbd8409f1be74a9a0U,
  0xbebe586cbea22a59U, 0xbd8d06bebdc61753U, 0xbd098b46be1f9a18U, 0xbe94d047be866b19U,
  0xbeac4a37bd89eaf2U, 0xbd848b15bea136efU, 0xbdd28f80bde9f3d8U, 0x3e676986bca358efU,
  0x3e018a463ea6b494U, 0x3ee7c9f53eaf2943U, 0x3e19cb023e28dd93U, 0x3db105203e50852eU,
  0x3eabbe3c3e803343U, 0x3e9985133dfff78cU, 0x3e27f34f3ed70faeU, 0x3e21620a3dc3523bU,
  0x3ea0630e3da77726U, 0x3e8328a73ef25d7cU, 0x3f1aad243ee49f77U, 0x3e9cd2ab3eb908a4U,
  0x3e6089a43eb45ffeU, 0x3e868c133e92b0f8U, 0x3e9b90a23e3186b2U, 0x3e11b3be3e87025bU,
  0x3d873ec03db945e8U, 0x3ebd38693d939678U, 0x3e15753f3ed89250U, 0x3effcfe13ee9cd74U,
  0x3e4209ee3e323a43U, 0x3dad838d3e5e1defU, 0xbe31e2373f2943ceU, 0x3f3502babf035edfU,
  0xbf06c71fbe9a4b23U, 0xbde7bd8c3e7e7b7bU, 0x3e96040bbe3019acU, 0x3e305b033eca9684U,
  0x3ec130ea3e88281bU, 0x3d5d3bd13e352f99U, 0x3d5680c83d90d9e4U, 0x3dee1682bb3d85f6U,
  0xbea1da813cdce3a5U, 0xbe8cad67be9253d9U, 0xbeabde3ebeaab1b5U, 0xbeb2d2cfbe75a4daU,
  0xbe194670bebe273cU, 0xbec541cbbec617b8U, 0xbde47432be1e60c4U, 0xbd29d97bbdce6968U,
  0xbe87e739be718590U, 0xbe9a7d76bd720376U, 0xbdaf9981beae8df7U, 0xbe1be824bdf8a641U,
  0xbe77f7ccbd4f974eU, 0xbdae8402be4e83fdU, 0xbea79b86bea280f7U, 0xbe27ab34bde37c90U,
  0xbcdf3d44be473614U, 0x3e98cc9c3e79c2e4U, 0x3ecd2ac53e080c07U, 0x3e373add3ef4f580U,
  0x3e8f92523e5c1e5cU, 0xbe888e2d3e0360a8U, 0xbdd2a76cbe8a4013U, 0xbee7d06fbee3303fU,
  0xbe575f19be845801U, 0xbd6b7869be9732afU, 0xbe6301e7be421257U, 0xbe54f8b6bdc6075bU,
  0xbdc68642be7f5ee5U, 0xbdbff9b2bd6a58ffU, 0xbe81e48fbc8f1d6dU, 0xbe3977bbbe9dd065U,
  0xbeed8632beca165aU, 0xbe7c932dbe9779dfU, 0xbd2f725ebea0a04aU, 0xbea9655bbe73b467U,
  0xbe99fa2fbd1b0a53U, 0xbdbe28a0bee8b606U, 0xbe441481be1ad893U, 0x3e9e5445bd8e80e1U,
  0x3dcd981c3e9fd9bcU, 0x3eefdf5c3f026496U, 0x3eaa48563e12f991U, 0x3dbdfb723eb4db16U,
  0xbe4d44babe330557U, 0xbe79699cbd8e7b3bU, 0xbddd7da9be9cea83U, 0xbe191d72bdc46dd0U,
  0xbf12f9b3bd5d6c17U, 0x3eb098033d993179U, 0x3ebdcb72bf024331U, 0xbe824fe33f0340c1U,
  0x3e9c90623e0950dbU, 0x3df1e7243e1bd8d8U, 0x3ee556af3d1a1b79U, 0x3e4ba0953f05b9d3U,
  0x3ed62f2e3ec212c1U, 0xbee87a693e538c66U, 0xbe3342f3befb7a62U, 0xbf25d5bfbf0dd75bU,
  0xbe786b97be8b2ed8U, 0xbd8af823be7f1231U, 0x3fa692353f8b4440U, 0x3fee71c03f301191U,
  0x3faf3740402a8b1cU, 0x3fd4c8223f9c47e9U, 0xbe6781853f1e03e0U, 0xbdecb430be8870c9U,
  0xbe93db7cbe7df5beU, 0xbd88e168bddacfa0U, 0x3b575aa6bdac3a47U, 0x3e996f863e89bdbdU,
  0x3eabd9763e0780f8U, 0x3e292eef3eb67417U, 0x3e1f5fbe3dd7170eU, 0x3ea3deaa3d9a26ebU,
  0x3e283b263eaa8791U, 0x3ecb903d3edd6806U, 0x3e213bca3e300bf9U, 0x3d86eb943e162f05U,
  0x3e382e4cbe97d816U, 0x405f8f4c3fa290d2U, 0xbd98b1463fcda83cU, 0xbd0199883da33f40U,
  0xbfe21f82be244278U, 0x400508a1bb43fd00U, 0xbf54a6db3bddc200U, 0xbe7687dc40348118U,
  0x3e65b31bbf178017U, 0x400092ec3f871837U, 0x3fdd743e40109b56U, 0xbbe357803fe557faU,
  0xbe174023be123028U, 0xbd5c9990befd2d32U, 0xbe8056d43d909caaU, 0x3fbd120c3fc93525U,
  0x3fe4b782400cf3faU, 0x3fdb5f8fbf8697baU, 0x3fbbba4a4009e813U, 0xbd273d884000f466U,
  0xbeaaa3c13fd53076U, 0x3fa282c8bcaf5700U, 0x3fdf1b26bdc305faU, 0xbf0574e2bf2cffbcU,
  0xbeda5d593daf7af5U, 0x3eac7f55bd3e7501U, 0x3e013a4ebea6f67cU, 0x3cb5ac8ebe1eceffU,
  0xbd174421becfc38aU, 0x3eb145d0bea960bdU, 0xbe337e7dbdd45ef0U, 0xbed725b43b726600U,
  0xbe0f9074bea1347eU, 0x3d822fa9be00580dU, 0xbe7e32c93e714c64U, 0x3f1a04a9bd618393U,
  0xbe3c4eaebda6b02eU, 0x3ee445273e9f20a8U, 0x3f13799c3de8c1b4U, 0xbeb21849be97a0c9U,
  0xbdcb1c663dfe8fd5U, 0xbed944183ef8790eU, 0xbe17e3403ef35204U, 0x3db4cdcfbe8b98e6U,
  0x3d2777003eb2ab76U, 0xbe81d6c5bd3e14beU, 0x3eddc2803dc1eb7dU, 0x3e0ac9923f104ea5U,
  0xbe834e253de4ffb6U, 0x3c72a1e73e9739ebU, 0x3e0bd909be27143dU, 0xbd455791beb20b80U,
  0xbee4e52e3e32d828U, 0xbd8c524d3d029a3eU, 0x3e6ad1f93e39f8e4U, 0x3ea6bd97bdf7a5d3U,
  0xbdfd56833eaf07a4U, 0x3ed29add3e3a2ce9U, 0xbe90789a3e2d52a3U, 0xbe08808dbea22e58U,
  0x3ed25e1f3e0fdb02U, 0x3f1ffbe7bdc34109U, 0xbead57cbbd00efd2U, 0x3e16211b3e18e3b7U,
  0x3dcd7d96be3f463cU, 0x3ebcd465beea99f2U, 0xbc4ddf54be68b5ecU, 0x3df919e7bee80fcfU,
  0x3dbf0cecbf1f9361U, 0x3e83c4fc3e056760U, 0x3e34b5e0bee3884cU, 0x3eb403f9be644317U,
  0x3e6d562bbea13fefU, 0xbdd7bca5bed58888U, 0xbeba13a8be7388a6U, 0x3d84fe1e3e39649dU,
  0xbf3e6cd3be458d16U, 0xbe1580563eac4208U, 0xbe35adbebd9ec89bU, 0xbe9e0eea3ec1ed2cU,
  0xbd743ec73e332f64U, 0x3f463a253d18d566U, 0x3ec7aaa33e113866U, 0x3e77c71d3ef25f4fU,
  0xbddc12983ed2a522U, 0x3f088bfdbe8cece3U, 0x3e154c743d65947fU, 0x3c7de0433ce4fe32U,
  0xbd26b1923e25448eU, 0x3e44d8a8be59def1U, 0x3e1af352be539ed4U, 0xbf2b25913d10e095U,
  0xbe97cf403e77e16bU, 0xbbfa5adebe06905bU, 0x3dd0c9373e8d0c6dU, 0xbcdb7b06be234ab3U,
  0x3cbbdf823e1b84abU, 0xbe9c0a9f3e66b12eU, 0xbcd76801bd752904U, 0x3eac4973be5d6275U,
  0x3e3a39d23e1ba5c6U, 0x3e788fd03e70c254U, 0xbd8df65d3e46f491U, 0x3da369b73c253221U,
  0x3eb2356f3e6aec1aU, 0xbce940c43de8e62dU, 0x3d258137bf7a47d3U, 0xbdd041d13ec0ce90U,
  0x3db19275bf80a666U, 0x3c8b51ad3d60c9deU, 0xbe8556fc3d14cec4U, 0x3e2fd8ed3e1deb11U,
  0xbd357e37be96d5c8U, 0xbe65ca593e9e962fU, 0x3d9210eb3d50580eU, 0xbedd228f3e190aecU,
  0xbe26b5f2bdfcb5e6U, 0x3e3033c63d9aa957U, 0xbdda4aaebe85f743U, 0x3ec1a7a23dc09df0U,
  0x3f2bb2a23d8fabe6U, 0x3e1c5cf4bca25c56U, 0x3d7de146beb962d7U, 0xbc85671f3cc20fabU,
  0xbec33bd7bcd66d71U, 0x3d104f323db1ec7dU, 0xbe7e407dbe2127c2U, 0x3ec21cdcbe7e7f24U,
  0x3dd0dcc73e62e988U, 0x3eecae723e5dc727U, 0xba76bf92bef7f041U, 0xbf2d03733c8fedc7U,
  0xbe9d48393d68a2b2U, 0x3ead03afbebc1829U, 0x3e8a6a79bcb542b8U, 0xbc0297b8bebb5fbcU,
  0xbdf7e7e13e26f2e1U, 0x3e55eee0be36b007U, 0x3d48392a3f1ca88fU, 0x3e2b414fbe0c8054U,
  0x3d2db52e3e4736bbU, 0x3e54c9b7be8b90e5U, 0xbe25f03dbe33a077U, 0xbe29547a3e857d66U,
  0xbe9645383dde6f94U, 0x3f2ba34a3d82e846U, 0xbde2e6e5be82731aU, 0x3e7ac2d13e1d8944U,
  0x3d524451bb9741b3U, 0x3e0fa92abf03f4c2U, 0x3e4e9f5fbea963cfU, 0x3e34daec3e44b507U,
  0xbeaabf17be0490f6U, 0xbe8981adbe737cbfU, 0x3d7abee03e56ea77U, 0xbdea07e23e11a49aU,
  0x3e8b3f35bdf8f219U, 0xbe1b75003e1d0c1aU, 0x3eec45113d4ad119U, 0xbdb661a2beb0ee78U,
  0x3f06003d3e9b9b4eU, 0x3dbf9f28be6a73f1U, 0xbe03ae3fbe88217cU, 0xbe95f28cbee49a3bU,
  0xbded8392be1b0a33U, 0xbdfddd49be529bebU, 0x3e44da00bd8405ddU, 0xbdb0dd28be196dccU,
  0x3ea21b373ec6d1ccU, 0xbdba6e163e1b5837U, 0xbe1a99b5bde20f0bU, 0x3cb9490ebd8482abU,
  0xbdf4cd45be7e9318U, 0xbefee78f3ea971feU, 0xbe4e1655bd959f2aU, 0xbecc8e293eb884c5U,
  0x3d98b7ebbebb9cc7U, 0x3eafa3e8be821f98U, 0x3e6e7a153ec18b15U, 0xbea3c586becbe67eU,
  0x3edb482ebec45fffU, 0x3e27900ebe64fd10U, 0xbe498d103d7d7fcbU, 0xbea8ec60bdc66643U,
  0xbe882f0b3f5d6ad5U, 0x3d4d7047be2172d3U, 0x3ec01ae33ee2acf5U, 0xbd8ce1823e136c87U,
  0x3d468b38ba996a3fU, 0xbeb8638dbea0e41cU, 0x3f24006b3eb472cfU, 0x3e2873fdbe1ab7a3U,
  0xbe6d43a3beb85e90U, 0xbdef2099bdc8e89cU, 0x3e1f13bcbe890be9U, 0xbc91e0303f54be3bU,
  0x3dd4e19e3d5ec93dU, 0x3d50a3ea3ea8c6edU, 0xbec83b84be568e04U, 0xbe1ef8d9bf0574beU,
  0x3e0a74e0bc8d9c6aU, 0xbe4514fcbe82d65aU, 0xbe6d374f3d766c1cU, 0xbe41cfdfbdb17a84U,
  0x3ecf9d11bf09324dU, 0x3c048a23be45a236U, 0x3d94a00a3e03f1d3U, 0xbe593421bdcd1257U,
  0x3dfe7cf93eeee455U, 0xbee899723e91fb44U, 0xbf05dc0b3e34b215U, 0xbe105371bdfb06d4U,
  0x3e1e6110bd48023aU, 0xbe9c1d623dc86827U, 0xb8aa17613d16efb4U, 0xbf01548dbf1fe3c6U,
  0x3d1a1e93bfb2a50fU, 0x40145558c01dae49U, 0x3ec87943bf852c73U, 0x3ffabd4cbffbf31dU,
  0x3d339d37bd60981dU, 0xbcb6d7f23def78dfU, 0xbe03884dbe83eeb2U, 0x3e2a2a2fbc9c8323U,
  0x3e441d703d5b46ffU, 0xbdafec99be659a32U, 0xbdffd10bbd377f0cU, 0x3e67fc8cbe42d369U,
  0xbe1c0b573e881730U, 0x3dc78668bd3cf08cU, 0x3ea37b69bdd1726fU, 0x3e3d1ee73daec6f1U,
  0x3ce45dcbbdcc6e39U, 0xbcbe7ab43c131890U, 0x3da76595be0ad803U, 0xbd94cc2f3ca6b70bU,
  0x3d0c079cbcc32e64U, 0xbd22fa0f3cae3231U, 0xbe0c76b03d83ffa1U, 0x3be00eb23d980931U,
  0xbe21688cbdcf834cU, 0xbc12babfbe1c2da3U, 0x3e1a533a3d9907b7U, 0x3c3379db3cd2ce4eU,
  0x3d72b4a2be50c979U, 0x3dea8f31bcf610bbU, 0x3e34f34dbe782c0bU, 0xbdedb7a93cc6595aU,
  0x3c215827bdc14ccfU, 0x3ed5fb5b3e8145c4U, 0xbdeeeed7bdbd5c70U, 0xbd1019703e26dbdbU,
  0x3e72f543b99904adU, 0x3c72bdc43e15276dU, 0x3cd663d83c139c4dU, 0x3cca4c1fbe3074f4U,
  0x3e32dcbabe13f8c5U, 0xbda4d8983e1c3781U, 0x3ded164dbcc55ca4U, 0xbe8728cdbe818f9dU,
  0xbc9cdd043e0e96b3U, 0xbc945a3a3c307e6cU, 0xbbd0c18e3e629115U, 0x3e371adbbe60f68dU,
  0xbe70b36ebcef93fcU, 0x3ebb7fd73e6b62abU, 0x3d6ed51dbd40de31U, 0x3d8a1146be55dfccU,
  0xbdb1b8033dc7cd28U, 0xbd0828b53e03ea58U, 0xbe5128513e313520U, 0x3e147556bad20826U,
  0xbc73c734bca7eff6U, 0xbe1fb4503e6bc3f0U, 0xbe1952153db49b4eU, 0x3d64de8cbe868f09U,
  0xbcdca5febe4b2bbcU, 0xbd5c48463e4d5678U, 0xbe6d1e063bfa7d6aU, 0x3e41c3273d468833U,
  0xbdb9de49be6423a7U, 0xbdbb6735be028060U, 0x3e8642ae3ea86925U, 0xbc691d2d3d093985U,
  0x3c9c26763d499369U, 0x3cff8f783d1018b6U, 0x3d2ad3f7be304951U, 0xbdbc8131bd2baa18U,
  0x3e4db1153e6ba244U, 0x3de4319cbd32b416U, 0x3db7cd6d3de0a752U, 0xbdcb3ac83e8d50bcU,
  0x3dd92b7a3d6ce68eU, 0xbe695766bd08b4abU, 0xbdfe4e3dbcf58de7U, 0x3d425bab3d3778deU,
  0x3e2e46173e1efd49U, 0x3e0e67e43d1ddcd3U, 0xbe3618febdc49bb1U, 0x3df9ad2d3eb88ae6U,
  0xbd8705583d894e7dU, 0x3d7b6494be0963a7U, 0x3f061b78be1fc538U, 0x3d502c2e3e73605cU,
  0xbddaa2dc3da0b812U, 0xbedcc828bd49579eU, 0x3dd903c4bd49c8f8U, 0xbdac05c33e037525U,
  0xbe505514be8356cfU, 0xbc699cc8bdb05a34U, 0x3e4dad693de0f98fU, 0x3d5e07533e3679d1U,
  0xbdbad5e6be4d3c30U, 0xbdafd89bbe348dd5U, 0xbd74ebedbe6e2aa4U, 0xbdd4d8c43e41f82dU,
  0x3d25a8583e1866b0U, 0x3e01ce383d6d0108U, 0xbd6bb0413d837741U, 0x3d691ddbbcb17722U,
  0xbd2f1480be0910d0U, 0xbd950ead3cd9e072U, 0xbe04fb69bb5b1cc4U, 0xbb9911d5bed2830bU,
  0x3e55993dbd96b896U, 0x3d3cf1fbbe8bc622U, 0x3ec606dabd89ca57U, 0x3d0ce5b73e764b81U,
  0xbe81c8573c354eb4U, 0x3e7cbc693e348374U, 0x3e9b16afbdb721b1U, 0xbdc047ad3d90b002U,
  0x3acecb9cbcda3ed3U, 0x3e86116ebe601b48U, 0xbdb1a6a93e8d0c46U, 0xbe329e7e3eaba761U,
  0x3e0d79b53e66f635U, 0x3e096eedbd9ea989U, 0x3d85654dbeb01822U, 0xbcef52f43dc736d7U,
  0x3e6ca6623de90798U, 0x3db6f9bc3e7f8c7cU, 0xbe00b5603d9184c8U, 0x3e196384bd3a3152U,
  0x3cb84fc53e9af5e5U, 0x3d90c277be179640U, 0xbd561b683c1468a1U, 0xbe901a0a3e80f934U,
  0xbcd16f2e3db11cddU, 0xbd8880abbd8a1cd0U, 0x3e1f853b3eb34967U, 0xbd3e484c3d9fca79U,
  0xbe2027a53cd4dd9dU, 0xbe6ba4c93c9fac0bU, 0xbd8cd74a3a83dd88U, 0xbd8a74c73b8d2c16U,
  0xbe01d188bdcdeb66U, 0xbdadb462be0ba847U, 0x3d189a3dbd0cadbfU, 0xbd0d6d573d90081fU,
  0x3dc2e7d23ebab05cU, 0xbd4abf5abc46d173U, 0x3e9cfa433e3be847U, 0x3e68e9183bccae9cU,
  0x3db4ffbdbe9fa124U, 0x3e2acce33da42cdbU, 0xbef56f323d16b794U, 0xbe1183f0be7a10e9U,
  0xbe823ed43e137c76U, 0xbd823906bd0ce199U, 0xbd6ae0843e75e698U, 0xbe5dd6d9be7336a0U,
  0x3eef24fc3d9090f9U, 0x3c51f333bdc3aec0U, 0x3d987225bcb3f6caU, 0x3d801ebbbd16d77cU,
  0xbe20c9a13da9ec34U, 0x3e5b0f4bbe2af608U, 0xbb37c8d03eb32ac4U, 0x3d3c72dd3e4df643U,
  0xbe303d51bd49a883U, 0xbd9a90b13dbc9f36U, 0xbd8efd373e20a2d3U, 0xbd84ef6fbe207315U,
  0x3db40970be3fbea9U, 0xbd6a0da43ebaea0aU, 0xbde18631be95499eU, 0xbd2507a9bb9212acU,
  0x3de5f22f3ced4a4aU, 0xbdeb6cffbd9b2210U, 0xbe6b2fa53cd32531U, 0x3daa0184bbd96fe7U,
  0xbd754d3cbcc0019cU, 0x3b987988bd526b83U, 0x3cb92a8dbd8e7930U, 0xba63e7cb3c866d52U,
  0xbe0239d0bd3098e5U, 0xbcc90ffc3e0d4956U, 0xbde2b5cdbd0c4b85U, 0x3e0c117cbe93c4c5U,
  0x3e52c90bbd3aaebaU, 0xbd5fa9c93e0f2780U, 0xbd537ac83c94071dU, 0xbd64c6083ccbecb4U,
  0x3dfda5afbe20d67dU, 0x3cba31033debe553U, 0x3e3e5053be3bae2bU, 0x3e7491083d26da49U,
  0x3dd1aa043e90ba24U, 0x3eb08fac3d0f4bedU, 0xbda3fe26bd5450d1U, 0xbde14e85bbf7835eU,
  0x3f113e843f3cfb11U, 0x3f6438483efb2298U, 0x3f558d873f753916U, 0x3d8ec2873ee678c8U,
  0x3e95be3d3f589184U, 0x3ea939503f1f33f7U, 0x3f48de3e3f0d39fbU, 0x3e2f67c53ed335f0U,
  0x3f1a0c383f5e53b8U, 0x3ecb8bf33f58ee07U, 0xbefa3a193e002fa3U, 0x3f1c470c3f00a06dU,
  0x3f4e2f9b3f5f1bbdU, 0xbeae3a9cbe38ed2eU, 0x3df049db3eaf77fcU, 0x3ee3173f3f084946U,
  0x3f5bb3923f2dbcd6U, 0x3e8273e53f75f15dU, 0x3c8301423e39372aU, 0x3e3fae5b3e13a269U,
  0x3cef88553f50dd49U, 0x3f94fcb03f56b027U, 0x3f50fd2b3f47ecaaU, 0x3cd6d4013f10e078U,
  0x3fd010c53e41a918U, 0x3d9d932a3d29c462U, 0x3da312b4bfa36887U, 0xbe2210a2bdf546f9U,
  0xbd3fbfbcbbc2c0b8U, 0xbcd50e61be66e9c4U, 0xbf1c3f7abe7ac62aU, 0xbc99fe8c3d96ec6eU,
  0xbbb793bdbd65d710U, 0x3e75ee17bcd05f40U, 0x3ebd294abcf5a072U, 0x3ef913c1bea75699U,
  0x3e4f95443d60ac52U, 0xbe6750783e2886f2U, 0x3e4cce633e1050c0U, 0xbe5b4054bf8eb9a3U,
  0xbd8b945f3fa2deaeU, 0x3e493094bda0bd6eU, 0x3e01d344bf03296fU, 0xbdb57d06be34b71cU,
  0xbebedb1240245d5eU, 0xbd51e9c1bf81ff5cU, 0xbf00d886bf154048U, 0xbee5e2fabf7bd70bU,
  0x3f12baeb3d69d72cU, 0x3e3221eb3eb66481U, 0x3dfabf8b3f2c2d6eU, 0xbef66a5fbdaab9bdU,
  0x3e8b25adbe16706aU, 0x3e2309663f8947faU, 0x3ef6d596bc7c968fU, 0xbf07359bbe2ca826U,
  0xbef9d7963e6004c8U, 0xbf7595c33ec08473U, 0x3ebcb4f63f34248fU, 0x3f423641bfa521c8U,
  0xbf59d4f5bf0c5022U, 0x3ec5504bbf176f22U, 0x3f240e6fbf20c1d2U, 0x3edec2ed3d404436U,
  0x3d93a1e1bd17f562U, 0x3d1c0d35bf320a8aU, 0xbbcc2b61be8f2ca9U, 0xbdfa4ea6bde26a74U,
  0xbeab9a88be2dce37U, 0xbf01ebccbe486830U, 0xbf2510dfbe4d56d1U, 0xbf01f90bbdecf32bU,
  0xbf079fae3dc72c19U, 0xbec91b37bb916c48U, 0xbebbf2863bd5641fU, 0xbf582c0e3dc2adefU,
  0xbee949c4bd8c2ac8U, 0xbed04fa13d14ab8fU, 0xbf2a85c4be8a9beeU, 0x3d8c39f2be649761U,
  0x3dddc9e63f077209U, 0x3f1901193d487757U, 0xbe0581a73dcae84aU, 0xbddac6a9beb1302bU,
  0xbffe01b7bd7d9136U, 0x3e3cfcc03ee2e468U, 0x3c7df8b43f17989fU, 0x3eaf5a5f3e216d22U,
  0x3eda2af03e619c83U, 0x3eacf82dbf157b09U, 0x3f1554343e84ad2fU, 0x3dca1ec73e90a9adU,
  0x3d0cb82f3efe82baU, 0x3fc6f569bce97908U, 0x3d6d890bbed9d441U, 0x3de22407be2c3c0dU,
  0x3d8b22abbdaaf33dU, 0xbf542c36be346c51U, 0xbf27b0b2be2cb6aeU, 0x3ec41bda3d999ffcU,
  0xbec6d4913d009145U, 0xbeabf4f4beeb71ddU, 0xbf3fdc443ec12ce7U, 0xbd436af43eb161aeU,
  0xbbdf4873bf0571b0U, 0xbe8a91b63efe6760U, 0xbe5583eebe24b028U, 0x3e4f78893c9dcefbU,
  0xbe0451adbfb61352U, 0xbdf06bc53fb8e18fU, 0xbd1d9243be0fde49U, 0x3f927a183d73d204U,
  0x3d0525673dc8555aU, 0x3d9157d53e0857eeU, 0x3f1e13dd3e933abaU, 0x3e613edf3dc474a6U,
  0xbeb51f95bf8c8ba9U, 0xbdb2fbb33e747723U, 0x3f059f9abf4bf5aaU, 0x3ebbff073dcdab93U,
  0xc06a35b43f297501U, 0x3f13ea323f924d88U, 0xbe99a54e4013390eU, 0x3f005cd5bc266127U,
  0xbe36d5493d9bb361U, 0xbddbc0643f182a4aU, 0x3fa62aa6bea78152U, 0xbe93c4aebee93bafU,
  0xbe5189553e8330e9U, 0x3f362aa33ee6d189U, 0xbe358f213f046242U, 0xbe1c97ae3ef8e578U,
  0xbea883c33f747d3eU, 0xbb94c551beb315caU, 0x3cf83fbdbe664747U, 0x3decfd343f944455U,
  0xbe376799bf6b2885U, 0xbd3d38adbece047bU, 0xbf7233e5be92551aU, 0x3e5fcfbcbd41344cU,
  0x3e41f791befa6083U, 0x3e9a4adcbfb7f7f3U, 0xbf4bcb4d3c2658d4U, 0x3fc9641b3f14178aU,
  0x3f883297bf098b8cU, 0x3e885a12bec268aeU, 0x3e77cdf9bdbdaeb9U, 0x3feaa29ebe40ff69U,
  0x3d924228beb7b525U, 0xbdabe68fbea0a26fU, 0x3e33cb523c09eb09U, 0x3b573d603dbe02eaU,
  0xbdeb75653fae1e42U, 0x3d3c0448bcbf8780U, 0x3e99806ebdacf490U, 0x3e429bc1bebb7900U,
  0x3f6005183e78a915U, 0xbb811081bd04c0ceU, 0xbe0fe6833eeb4d35U, 0x3eff8f06beb9e0c8U,
  0xbde1ecb03e61efe8U, 0x3e8b389bbf812216U, 0x3f9b7025bf03d9fdU, 0x3e1500323eb153edU,
  0x3d956ff1bea0c416U, 0xbf11f914be215322U, 0xbe4f3d13be1c3351U, 0xbdadb4aebe966345U,
  0xbf10429abd4b789fU, 0xbf4fbbabbd90ea0fU, 0xbf05f7a7bf7a65a0U, 0x3fa541d13f867f71U,
  0xbebda55d3f30870bU, 0xbee38f73be66493aU, 0x3f8d3e04bef1720eU, 0xbf41b726bf18fe95U,
  0xbf071069bf02e552U, 0xbdaf4880bed60b1dU, 0xbdde1a0ebedd01f8U, 0xbe37b3983f92d269U,
  0xbe743e8dbec3be8dU, 0x3e9740f3beccfda6U, 0x3e4b5f8abedeae84U, 0xbf03f06c3fa66110U,
  0xbeb3bebfbf3f0d5eU, 0x3e3bdb853d2fedb7U, 0xbe46207c3b67f21bU, 0xbc6fb601bcc7a3b0U,
  0xbdc3aa673f5f87ddU, 0x3e72b2853e79ef21U, 0xbdda3bb03e3f4633U, 0x3dc31992be2565caU,
  0x3dd62be3bea06683U, 0xbe0f5f32bed029d6U, 0xbe5659d1be7eb5a3U, 0xbebc22f23e2a6a19U,
  0x3e1311573e28cbc8U, 0x3eb2b6433e4485f9U, 0xbfe74c0a3f573693U, 0x3f0ba88d3f354ac5U,
  0x3eff22bfbe423ba1U, 0x3d4e61ac3e5779a9U, 0xbe73757d3ea15d01U, 0x3dc917dbbf80dc51U,
  0xbdffccffbf080d84U, 0xbf289b873b03515aU, 0x3da7b9bf3e2d1091U, 0xbcdfa5f5becbbf51U,
  0xbe92f43a3e23e5caU, 0xbe6c3a043ea9a07eU, 0x3f4c80dd3e576e34U, 0x3c49c7753df6e7adU,
  0xbdc6f3f03e8e7324U, 0x3eeb50153ccb4d0cU, 0xbe89bde1beb59739U, 0xbec97a593fc72d98U,
  0xbf0f60a0bef0343dU, 0x3e02f144be946101U, 0x3c80ed39bfccaaddU, 0x3eaa966bbf58dd94U,
  0xbd85dddabf342861U, 0xbea16662bfb08a4eU, 0xbdd444acbe0a3fddU, 0x3e5696fdbe5e601cU,
  0xbf1bc47140042a5cU, 0xbf0fe5f7bed4a681U, 0x3ecc7928bf265a8fU, 0xbec3562f3d8d8c87U,
  0xbf024e343f690bceU, 0x3eeed190bf1ce9f4U, 0xbef687c63e29874dU, 0xbe6336f2be02e3c5U,
  0xbd20395dbd5f29acU, 0xbe968cf04009db5cU, 0xbf574918be613b52U, 0xbdb3f7a4bcea51e0U,
  0x3f123a92bf5227d4U, 0xbed80c58bf22a1eeU, 0x3e33e5fb3f92213cU, 0x3e304485bede8980U,
  0x3fb0f60cbe5c742aU, 0xbe3027cd3eaa9720U, 0x3d4e2e72bec05c36U, 0x3c8c2de0be9701d3U,
  0x3fa26ce23f40ee26U, 0x3f5786d83f985563U, 0x3f605d683ecd9d0cU, 0xbf778117bf1fa6e2U,
  0x3f944d1c3fde7844U, 0xbf250c23be53fad0U, 0x3c0a39f0bc781860U, 0xbfc679a6bfc2658cU,
  0x3ff42c0ebea46fb9U, 0x3ebba69abf1b55a4U, 0xbf11c20fbf22df8eU, 0x3f9e786ebce0a9f0U,
  0x3f960566bebafe52U, 0xbe4e93a44023e109U, 0x3f86fbf6becc627aU, 0xbe63f77fbe69bdf2U,
  0xbe0380423fad0022U, 0x406e8a613eaa171fU, 0xbddf7de5bf536ee8U, 0xbe2095a5bf5b78f4U,
  0xbd4d5c2bbe448f21U, 0x3e259c17beca698cU, 0x3ebc2b8fbe59fd30U, 0x3d17049bbcf6fe9cU,
  0xbd9ec693bc059a56U, 0x3d6665f2bd7afc90U, 0x3d834f1a3c290a93U, 0xbe7dc0e3be8a0fd8U,
  0x3e04c89abd9ee2adU, 0x3e0e42b1bdbf2bccU, 0xbe03a68cbe28adaaU, 0xbbb3fef6bebadc1cU,
  0x3cb59f51be70bd1cU, 0xbd49382dbc56e7a1U, 0x3e7f474bbce3d3fcU, 0xbe695be3bddaf79cU,
  0x3c62c6653cdbe9faU, 0x3db59599bf1c08f6U, 0x3cedd4143d8604e9U, 0x3c8c8f293d2fc695U,
  0x3e0345c2be40b227U, 0xbe9cff5f3e29701cU, 0xbd92d7b73d2e8998U, 0x3b84b661be005deeU,
  0xbe692bfdbc87ff1aU, 0xbe632779be0d9e18U, 0x3e11f5b9b74bf64fU, 0xbdfcd92b3d27c827U,
  0x3dffaad7be990dc6U, 0xbe2b76eebddef94eU, 0x3da9236a3dccc2dcU, 0xbdeb3b0ebe118bf1U,
  0xbe4ab59d3ea4a063U, 0xbdeffd86bde70093U, 0x3d553f593d9bec24U, 0x3d75cab63c4a9a3dU,
  0x3df4fb36bd9559c1U, 0xbe63c969be00e78eU, 0xbe10d073bd005abeU, 0x3c8d38c6bd89c900U,
  0xbe1ec120bc77c6c9U, 0xbe2ea172bf545fa2U, 0xbd52ae9bbd5ce286U, 0x3dc61034be0b4b63U,
  0xbd1eed5d3e103733U, 0xbe9afe693e16b7e2U, 0xbeb9faffbddbd208U, 0x3aeaf8143d79702fU,
  0x3ea9f4963e3e485dU, 0xbd48ccdf3dca1805U, 0x3e6416223e03b0f7U, 0xbd2873093e426bf6U,
  0x3c875088bdfe2ce9U, 0x3d498e5b3e4d5202U, 0xbe8eb419beaaf7e1U, 0xbc62b0943ed5d06dU,
  0xbe69d9273e2bb44eU, 0x3d9527e7bd11bd48U, 0xbd5ab76dbe07d862U, 0x3db8155e3d36ad22U,
  0xbe15d9b8be352534U, 0x3ea95fa93e060a29U, 0x3df1c42dbe1700d9U, 0xbda1ee53be7f10baU,
  0x3e30eb6e3df7abb7U, 0x3dd2dbd4becb3c21U, 0x3ddb67743e039ccaU, 0xbd9f53b6bcf84c21U,
  0xbc903c98be155e89U, 0xbeb0e53abe47f9dfU, 0xbe2476de3e468230U, 0xbbbf71d13d4ad103U,
  0xbd8250f1bde5620aU, 0x3d97ade1bdcc97fbU, 0x3d70cd073dad7934U, 0xbd84057cbe1b9d2cU,
  0x3d6386f4bd866af5U, 0x3e18a698bcd354a0U, 0x3e81e67d3e7dd173U, 0x3c21b9bcbe2e4007U,
  0x3dd7aff4bd8ab816U, 0x3dd41f1d3e842e89U, 0x3e62a4073e539187U, 0xbe2bb5653d261702U,
  0x3e35e1cd3c6516beU, 0x3dc723fcbd50a4c7U, 0x3cea10bd3e2b4e63U, 0x3cdae9b93c48c1d1U,
  0xbeec97f4bb7dc699U, 0xbd5c77bbbf03b0cdU, 0xbcc07fbc3bbde0f3U, 0xbdd25a13bd8eddd3U,
  0xbc9917cebde68f54U, 0x3dbca4fcbcdba61eU, 0x3dd5f966be17b93cU, 0xbc16a99ebc0c525dU,
  0x3ba3e562bde08812U, 0x3ed96f773c957ecbU, 0xbe3039cf3e3a1cbfU, 0x3e0b4720be8a0675U,
  0xbd425c3dbdba5460U, 0x3d44fb07befdd0abU, 0xbe76f17a3d896975U, 0x3ecbd0c43e651512U,
  0x3db5e834be4f3f73U, 0xbeb9c84b3ce801cdU, 0x3d1121363dbba06aU, 0xbe8cf3403eaf96dbU,
  0xbcebc72e3e6e67a4U, 0x3e04bf9c3ddd1dc0U, 0x3e16694d3ebbbdaeU, 0x3e9b526e3dd94ca1U,
  0x3cc0530cbe65e7e3U, 0x3d364e2b3dae7a45U, 0x3e3850cb3d4d7618U, 0xbb9f1b043e23e0e6U,
  0xbe498599be8f6cbfU, 0xbe786f343b6f4b86U, 0x3e10910c3d1e0cabU, 0xbd878bc83d9b5a53U,
  0xbcaec235be74758dU, 0xbdcb98d0be94d673U, 0xbe6fc9c7beab2be1U, 0x3e00a557be276b2fU,
  0xbdc38dbfbd501013U, 0xbe41d5a0bed15eb4U, 0x3e967e2d3d46454fU, 0x3dcc1bd0be4e6f9aU,
  0x3da9af2cbe45ed70U, 0xbe373eb63d5dc30bU, 0xbda7b632be71da56U, 0xbe250bcbbddb6bd7U,
  0x3e57e6a03e093883U, 0xbca253cdbe300174U, 0xbd8deaedbe28f4e2U, 0xbe91492a3e5f778bU,
  0x3e204112be43387eU, 0x3d80c6293e8dd769U, 0xbe64a47ebec3d265U, 0x3e9264a13dbe6f8aU,
  0x3e6b18e73e56a328U, 0x3e44ec6dbe923548U, 0x3e2a6d15bd7fc7a3U, 0xbe06ccafbd1b9699U,
  0x3e654e71be97d95eU, 0xba70510abdf09d42U, 0xbcb0be633e0d3021U, 0x3db97ba2beb766fcU,
  0xbceead843e56ce01U, 0xbde3720d3e764023U, 0x3e3db8693e6ee276U, 0x3e1180703e2b5367U,
  0x3e839f51be9072c7U, 0x3d1b0093ba940f86U, 0xbd073b7abdefc2c9U, 0xbe8832533e0840b7U,
  0x3ee243d6be2d2ff7U, 0xbeb7f324be0d2fd7U, 0x3e85a49dbdd2ff32U, 0x3a86f3babd67a7e0U,
  0x3e1d00c0beac9416U, 0xbd75bcad3e9ec660U, 0x3e9ffd11be4a4f3cU, 0xbd295dad3d17b1d6U,
  0xba177ace3ce75b8aU, 0xbe1feb0fbe0f812dU, 0xbdcf6cccbefbd060U, 0xbe1e6907bec33ac2U,
  0x3d84c1d83d8b0359U, 0x3e6c643ebea29f7aU, 0xbe205f23be042e28U, 0x3c7688783e499bceU,
  0xbe799bedbdbef761U, 0x3e50f6d6bc146d6eU, 0x3d1919d7bdd04bcfU, 0x3dbd0fda3e4bb830U,
  0xbdb949d8bd963e42U, 0x3e56906ebdb70873U, 0x3ca5df68be26aef1U, 0xbe9a89c53c81a510U,
  0xbcab243cbdb010abU, 0x3cb6ba31bcfd65d5U, 0x3e5212ad3e8024eeU, 0x3e122f97bda51dd3U,
  0xbe7131263c8426e0U, 0x3e0cc4c5be821596U, 0xbd8cca9a3d6160caU, 0xbe268756be317d79U,
  0xbe764a92bdad14ddU, 0xbe8b593f3e379603U, 0x3dc0f4333e727285U, 0x3d370cd73eaaa0c6U,
  0x4017b409400aa40eU, 0x3f590b8e3eb525acU, 0x3f572e16bed72914U, 0x3f4c1453bf01dee0U,
  0xbe6055f5bc916dd5U, 0x3d3325febdbc9e8bU, 0x3d249a013da0de62U, 0x3e1dabd7bd149ff5U,
  0x3e730b15be356271U, 0xbdc544143dcc46afU, 0x3de0091cbce010c0U, 0xbe0399823e072673U,
  0xbd9376e93d1e146cU, 0xbeb33003be133a28U, 0x3bd41154bd9d735dU, 0x3d98b9ad3d28aa84U,
  0x3cd2e5023e346040U, 0xbd87f2583dad19bbU, 0xbe5fb280be5a3e57U, 0x3db92a3a3e15f2beU,
  0xbe3c79d73ca2a4e8U, 0xbd881eb3bb18893fU, 0xbdd4024a3e6db82eU, 0xbdbc129c3cf807b5U,
  0xbcbdb4833e3d4a3fU, 0xbd66ee2c3d8160b7U, 0xbd45c7c5bb3a5fbcU, 0x3e90f628bce3dbdeU,
  0x3e2d7b06bd7abc27U, 0x3c19f5493a487fa7U, 0x3d1e405dbe97f968U, 0xbdd11b283d754ffeU,
  0x3b709d113e35c268U, 0x3d91b6173b82c64eU, 0xbd9c698b3cd46d8cU, 0xbea477cabe2ec0b4U,
  0x3cc87c4a3c349b27U, 0xbdcff467bec06e38U, 0xbd84e262be1eec4dU, 0x3d60f56f3bf5a979U,
  0x3da73d46bd676aecU, 0xbdc02c293e08ce5fU, 0xbda078673d174442U, 0x3e83fa8b3c153ab1U,
  0x3df858cdbea4caa6U, 0x3d48e0d63db95103U, 0xbe41bdb5bd7a4290U, 0xbe62e302bea81f50U,
  0xbd5b56a93e3fb8bbU, 0xbdf592ee3e35f69cU, 0xbe8ec4e93e1806cbU, 0x3da80778bd9c15ffU,
  0xbe1d5ba7be0e4251U, 0xbd2ca6ccbdaf9dbfU, 0xbcc3c3fb3e10bea0U, 0xbdb41f593e3cb46fU,
  0xbe9f7b66bdd215c9U, 0x3ddd6f6abe47c9cfU, 0xbe8524c6bca23910U, 0xbc604c5b3e52fb5cU,
  0x3ea991ea3dadd37cU, 0x3db2a8063d9e3ad7U, 0x3d7e59fd3e11fc9dU, 0x3d5f81c5be67490aU,
  0x3dedccecbe3396d2U, 0x3df81248be56cad8U, 0x3e963f13be266efaU, 0x3c2737d63e47f5b5U,
  0xbe1f91a33e357672U, 0xbd91c5673e16798dU, 0xbe9423533d7c49d2U, 0x3e17c8e73e2e1a54U,
  0x3e1cadb63d4e04d0U, 0x3ddd2dd63cb464aeU, 0x3e43ce123cc5ca67U, 0xbdfd36713d772decU,
  0xbc9c2ac7be4d107bU, 0xbcdee658be2b35abU, 0xbac30087bc3b4eb8U, 0xbeb59e553db5005bU,
  0x3de80cdb3d8d6c25U, 0x3e2da9953d0c1d5cU, 0xbd109407bc29464bU, 0xbd8f9ff93e0501e7U,
  0x3de783b83dcd5809U, 0xbead9fcfbe45be7aU, 0xbe254a093be7e24bU, 0x3d55e1ab3bf9d6a2U,
  0xbd90a224be5cb343U, 0xbdbdfd4bbe028790U, 0x3d43b6ef3cef6630U, 0x3dddae423e9b19acU,
  0xbba33af03e44fb14U, 0xbdffc80cbe700c31U, 0xbe1227843d0ca907U, 0xbd1422ccbe55daa6U,
  0xbe28de40bbb5a381U, 0xbe1c308a3c99362aU, 0xbe09d17d3e95b9cbU, 0x3cde8f49bcaf070dU,
  0xbd95fa293e193bf5U, 0x3e82881ebc965fb7U, 0xbd823203bdcf04adU, 0xbcd779cabe48aaf9U,
  0x3e099824be0591baU, 0x3da6bc20be1def60U, 0x3e941a33be543574U, 0xbd021cd43e3c701eU,
  0x3ebbc31b3dcd885eU, 0x3e45bd223db32b5fU, 0x3aa7c71e3e1b76aeU, 0xbd3fbb09bda64771U,
  0xbd5f62babddd7109U, 0xbbec28ba3d8d5da6U, 0xbea547683dc62793U, 0xbec2a9463dce9daeU,
  0x3cd848bdbc23db70U, 0x3d16fa8b3c2368abU, 0x3e61896fbe607385U, 0xbadbaf75bc390f95U,
  0xbddbce033e639e94U, 0xbdb57f7a3db1f9efU, 0xbdcf1b273e6be46cU, 0x3e2916bfbde8e889U,
  0x3e37f51ebe74efe2U, 0x3c10d4023e1a7e75U, 0xbe77dd39bdf4bd24U, 0x3e2034d7bdbe753cU,
  0xbe5658edbe049164U, 0xbdf0938dbde823c7U, 0xbd9ab0ad3e727feeU, 0xbdaa11c73d81e341U,
  0x3e13cfda3e35f517U, 0xbe163a5b3e62a1c1U, 0xbe53cb2d3e3bde3dU, 0x3d7bfbbd3d286a03U,
  0x38c9a3a73e9e5429U, 0xbd82afb53c4b4336U, 0x3e2d1829bdb3994bU, 0x3e7fa3dfbd9fdf9cU,
  0x3d933e57bc84f615U, 0xbe75d136beaa1c3aU, 0xbe6e349c3c3867edU, 0x3c848bfa3d9ff3edU,
  0xbc476fa7be32fbedU, 0xbd48ac2d3e7f3c31U, 0xbe31efdc3dd28488U, 0x3e0faceebcb9a7f3U,
  0x3cae7a1cbdad3c21U, 0xbdc89af83e0cf6b5U, 0xbd6851b53dcda184U, 0x3e812aa5bd3a65d7U,
  0xbe52dc173d36a4feU, 0x3c6dc081be40d485U, 0x3dc06141bdabadb6U, 0xbc553657be0782faU,
  0x3e11b8e93cf5f9d1U, 0xbd824be23e1fa0beU, 0x3ce0b2dc3e03ea65U, 0x3d2e56bdbd17fbbbU,
  0xbdbd22d63d9eea73U, 0x3e263c3a3d46991cU, 0x3c94a0e53eb02988U, 0xbcca5369bd3f9cd1U,
  0xbcf0741c3e36933fU, 0x3e53a67a3a1485b9U, 0xbc3f2165be68559cU, 0xbd0083b7bcdd68c2U,
  0x3d529b493e9fbeeeU, 0x3e462cca3c4a647cU, 0x3d1d7c75bd86977cU, 0xbc8e602cbda4bf9eU,
  0xbe32f748be0626b9U, 0x3d184b75be3e5080U, 0xbcddf7f1be5acb93U, 0x3e5bb2f0be690eecU,
  0xbd9a15983e15ef50U, 0x3df287febe2f55fbU, 0xbe4cf4bebe26f5deU, 0xbde9b9d03d8cfe52U,
  0xbe321796be5e6aa7U, 0xbd221b31be128135U, 0xbd989be9bde88ac7U, 0xbdb061b6bdc54010U,
  0x3d905f65bcce03afU, 0x3dda739dbdca5456U, 0x3e36a0543c0f9870U, 0xbdc792bcbd6d82ddU,
  0x3c0051e23cf0c6ccU, 0x3b872a673ce51ea5U, 0x3d11cb473ca82911U, 0xbdc6b3323c5c4263U,
  0xbcb7079abe1a9634U, 0xbd9eba2cbb5052bdU, 0x3e6b9e603e5453f1U, 0x3e4bad17be30d2f0U,
  0xbeae811f3f315919U, 0x3ed3a17f3f241a8bU, 0x3f2653083f25b72aU, 0x3eb81ce9be40ee69U,
  0x3f14e91f3ed0dd5fU, 0x3ec6a0373e0509dcU, 0x3d59902a3f2b6d98U, 0xbe58e1063edffdaeU,
  0x3f412c82bd241e4aU, 0x3f578de0be7ad34fU, 0x3ee49db63f017134U, 0x3e38ff573e80b9aeU,
  0xbd819797bee8aef0U, 0x3e43acf93e15af0fU, 0x3e7f596c3f2178e8U, 0x3e9975883df96387U,
  0x3ec6d945bd2bd8e5U, 0xbd7f6a923eacc1e3U, 0x3f0f50373f088e14U, 0xbd3dc7263f53bf5dU,
  0xbe980baa3ebf0b8eU, 0x3eda8092bca10305U, 0x3f515661bf1efe75U, 0xbdcca7d53f89208aU,
  0xbf2c59debe0763f7U, 0x3e795a9b3ef372dbU, 0x3f128ef6bfb05621U, 0x3f9abe4dbe32d6aaU,
  0x3ec61917beb11f5eU, 0x3f552ab1c037f33dU, 0xbe9c060a3f16cf9eU, 0x3ed8fc913f4c9cbeU,
  0x3f1195a03e810131U, 0x3a6546a2bea8b7adU, 0x3d30dcbfbe826fd9U, 0xbe44cf43bf2349b9U,
  0xbe0d2b00be97a046U, 0x3f5db285be788ed4U, 0xbf00012bbe3f9c4fU, 0x3ce5a6b33eef0f25U,
  0x3f0bf4f6bf066aeeU, 0xbdf43556bea07871U, 0x3dd0c3b83de1d46aU, 0x3edb56933ca4166eU,
  0x3ede16f23f88ed6dU, 0x3e219ebcbe332bc6U, 0x3e234451be7860b3U, 0x3e38a1443ede1154U,
  0xbf7db08c3f023278U, 0x3d61718c3ef65205U, 0x3e1458f73ed47e34U, 0x3e9665a33e1e463eU,
  0x3f89cc803d9f29aeU, 0x3f948366c04b9084U, 0x3f53ce1a3cd1c6a4U, 0xbecf0d433e42cd62U,
  0xbe4489423f589adfU, 0x3fa71a073df2b551U, 0xbf25aad1bf34ee52U, 0xbea6e713bc0b6ea7U,
  0x3ecd8b77be9af244U, 0x3f93cc9abe094a54U, 0xbf96c403bddeeb06U, 0xbe08c6383d42f599U,
  0x3e7049c7bd7c1064U, 0x3e98e6a0bdfaf8f5U, 0xbf1bfc9d3edaab1eU, 0x3ef532eb3ecaeaeeU,
  0x3e9e1ffb3e4e66e7U, 0x3ee606eb3e38d801U, 0x3f11add83e80be2dU, 0x3ef14d0bbf1b50a4U,
  0x3e8309c73e253036U, 0x3ea04c893e89208bU, 0xbebc3ba2bd85208bU, 0xbf858d033f4a6a07U,
  0x3f20fa31be23d403U, 0xbf29e3dc3d8c029cU, 0x3f838f633e1c10b8U, 0x3d02ed8f3e2b27b1U,
  0xbbcbc6193ed4be6eU, 0x3d2b8784bd6b76eaU, 0xbe6ff84ebd6d0075U, 0xbe18d1c23e1b61f8U,
  0x3e56ee09be4068e3U, 0xbe246aeabeb261c0U, 0xbdfa4757beb0af06U, 0x3e1893e23e73b275U,
  0x3d0181103ea1701aU, 0xbd1d32bb3f1710cdU, 0x3e4171333ea7e323U, 0xbd99a0c03eb7b0d5U,
  0xbe548009bf9b3ed2U, 0x3fcd3bc6bf7bda7cU, 0xbe9a31fe3f2c36c5U, 0x3e7af79f3edc91c4U,
  0xbf54059e3e36ef89U, 0xbefb19af3c8ae8f8U, 0xbf09b759be10faf8U, 0xbf3497433d994345U,
  0xbfa2bca3bcbee83eU, 0xbf19e0313ec6620bU, 0x3f939e24bdc4d769U, 0xbe5dfb66bd5834fdU,
  0xbea56221bf386880U, 0x3f3e92083de5204eU, 0x3f1b9c7c3e187c4bU, 0x3f3252c93f05ddabU,
  0x3f8b0565bdb7f487U, 0x3edea95ebd9dc964U, 0x3eba44663e02006aU, 0xbfa7af273ede1035U,
  0x3ee7281c3f093165U, 0x3ea3c4ce3f1a8329U, 0x3e4d7a063e872a11U, 0x3e972ce23e966a0eU,
  0x3eb50f50be9f801fU, 0x3ed4cc4e3e60db35U, 0xbe95d4663eadf6f5U, 0xbe2f9441be552020U,
  0x3e910438be99917dU, 0xbeeadc49bf0fcb55U, 0xbeac305cbddfdf15U, 0x3e2c541bbd1a7ec5U,
  0x3dc1fff2bdbdd91fU, 0x3e6478733f6feddaU, 0x3e33ed66bdd279bfU, 0x3e440305bc677474U,
  0x3e3b3bd33e088beeU, 0xbf580c9fbf381bd3U, 0x3cd7dd65bf3423a7U, 0xbdbea0fdbe71b3d6U,
  0x3f426e0e3eb06229U, 0x3fc81072bfaa867cU, 0xbff509a83e5303beU, 0x3f129931bdd0fb68U,
  0x3de5917abee850efU, 0x3e8e74963f93b878U, 0xbff1e6c43f9b10eeU, 0x3f17240ebf0f9acaU,
  0x3da75c82be32b8e1U, 0xbe9395aabe7ab885U, 0xbe44cba3be6b1717U, 0xbe29f197bf50a8aaU,
  0xbea84617be6fd4baU, 0xbed6e971be784c0cU, 0xbf08be8dbdf46a5aU, 0xbec9b7d1bd7d3247U,
  0xbea4ccb1be18aa07U, 0xbeef29e5be9800edU, 0xbf75ffb1bf00715aU, 0x3d702f6cbedc9f64U,
  0x3d826d4a3e5740c1U, 0x3f894eb53dc693e1U, 0x3e6befc33db292beU, 0x3def73003f162262U,
  0x3ee641923eaade0cU, 0xbe1d85373dd0cd4fU, 0xbe1afd023c3de957U, 0x3f894dcf3e3973a5U,
  0x3e89f9983e38135aU, 0x3e56cd14bee980cdU, 0xbc2109c73ce9266eU, 0xbed7e55f3cb39cc7U,
  0xbe9815bfbefe4ecfU, 0xbdb1764ebe2cd3dfU, 0xbbf2ec35be4a74a0U, 0xbcd3c2f0be1d0eb6U,
  0xbf3fae07bf27c33fU, 0xbd4c705abf37d452U, 0x3e1ce6d33f314c04U, 0x3e9dc9f13e91f1c4U,
  0x3deba7fa3ec53318U, 0x3e0265403dce1d02U, 0x3f7277aa3e4180edU, 0x3d9168c13de78549U,
  0x3e1d90d9bd7e5e4bU, 0x3e7ce7aebde6f595U, 0x3e02587ebd8472f7U, 0xbe0b6f42bf6c8fb5U,
  0x3d4dbf11bd1ce73dU, 0xbf2a42a4be267b96U, 0xbf1d5fe9bf011a32U, 0x3f55002e3e2cc182U,
  0xbef8b2533d8cce7dU, 0xbefecd01be7e5fbfU, 0xbfe493ffbd24dea2U, 0x3ea35e103f62e6a4U,
  0xbea4e1e43f1c686dU, 0x3f8a9a84ba9d4116U, 0xbe90b018bf0723a5U, 0xbe89c255bde9e00fU,
  0xbe9f9aeabe2ab9e0U, 0xbdfdec22be1fd045U, 0xbe2faed5be9206ddU, 0xbf561461bf26e174U,
  0x3ec8ec92bf018337U, 0x3e3be64c3f99fcd6U, 0x3e12c0dbbe0b123aU, 0xbbd319f8bdba25adU,
  0x3d8c3aed3eb80286U, 0x3f2fef1c3c8d9578U, 0xbd1e2d103e38e4b9U, 0xbd1042ae3ee59b47U,
  0x3e11d491be62e64dU, 0xbefbc819be9478c2U, 0xbf01aa983d9eee95U, 0xbf1c39653e29bcdbU,
  0x3ed8d7de3e0e95c9U, 0x3eae370cbee3ec54U, 0x3f6d0e2d3e6e4226U, 0x3ec53dbb3e32cb57U,
  0x3eb1da05bd5b779dU, 0x3f076fa9bdfb29b9U, 0x3f255ec33e092c85U, 0x3d1cadddbf3e5eaaU,
  0x3fc486c7be91ee0fU, 0x3dbbbf7abd557d79U, 0xbd95c1393e60f3b3U, 0xbf2638adbebef12aU,
  0xbd462db5bebdf58fU, 0xbd6f8ea83f7821c1U, 0x3ed57a023ebe1d96U, 0x3f61e0523e3ec05aU,
  0x3f8996373fd24a45U, 0x3e97be4d3e6c3d3aU, 0xbe39d38e3e281358U, 0xbd09288d3f94a09eU,
  0xbe526fe6beaf0dc2U, 0xbd4e610bbeece021U, 0x3e34d4383f8b15e9U, 0xbf2b5344bec30670U,
  0xbed8eda0bed8f196U, 0xbef8f3b3bf0edaafU, 0xbf0d761bbf1878e3U, 0x3e0cdff4bf0885e3U,
  0x3dc59a94be5c55cfU, 0x3ff4f9f1bde89531U, 0xbf01c33ebd3fb654U, 0xbe71bde0bfa0b869U,
  0xbe694b4abe1f1a3aU, 0xbeb2ca7c3fb8c165U, 0x3f184fecbf739a51U, 0xbe9c5081bc005760U,
  0xbd9f23d8bcd72e60U, 0xbdb8b5c8bf51d07eU, 0x3fa7ad55bf949352U, 0xbe91d7d3bf5fcd8fU,
  0xbef9cf223f84efe0U, 0xbf1b6c8abf981bf8U, 0x3facfadebe9542caU, 0x3f97779dbf92d8d4U,
  0xbe2bc2acbd0a43a0U, 0x3f936b1b3f249a68U, 0xbdbc07f0bd393252U, 0x3fa25fb0bea9e769U,
  0xbfb7da00b8fbe600U, 0x3f8bdbd43fb84984U, 0x3fc34a18bdce587eU, 0xbe4c909ebf2ef2a0U,
  0xbdf4c2a83f94c016U, 0x3f27fc98be259938U, 0xbe96493ebf89ea12U, 0xbd22e0534070305cU,
  0x3e648c76be2dbf3dU, 0xbdfdc1d33d465cedU, 0x3ecc48de3df8fdf0U, 0x3e34033e3e3ac7caU,
  0xbe265b56bcc50a88U, 0x3d7c0fbdbe495b10U, 0x3ee5d78d3e575492U, 0xbd9d1e453e2b8777U,
  0x3d496099bdfe0153U, 0x3e1f4e03bddcbffaU, 0x3dc3959b3e2f3011U, 0x3b012097be94d90fU,
  0x3e25fa583da87b48U, 0x3dab1c493d6f5f16U, 0x3c6d418abd9d7024U, 0x3e38eea6be8e6b78U,
  0xbeaeb4a43e46b6c3U, 0xbdf67343be12ea60U, 0x3e7217a43dfb5183U, 0xbe2868bbbeba7895U,
  0xbe6b0a993d4616bbU, 0x3e32a215bc961165U, 0xbe230d68be7c1594U, 0x3e06d1553e7a0266U,
  0xbe374e52ba85ee8aU, 0xbe24069d3d02ca98U, 0x3ec441aabdee3b87U, 0xbd1e274fbe28acb3U,
  0x3eacef29be202961U, 0x3de1ea50bd7cf634U, 0xbd359e793e68da7aU, 0x3e4db9213e24d07cU,
  0x3ec1220b3e201e07U, 0x3e471b513dfdbac7U, 0x3de493cf3d8bf741U, 0x3e3e32bcbe452ed5U,
  0xbe2ac734be25c394U, 0xbde4b1203ec4c57eU, 0xbc191894be6590a7U, 0x3d7f48343cdbf5aeU,
  0x3df53a8bbdc84ebcU, 0xbe0ba62d3d6e8a0eU, 0xbea4e88abc198d99U, 0x3e5992bebd200e14U,
  0x3e115962be0088ddU, 0x3df2ec373d08da04U, 0xbdd94c063cc8897aU, 0x3c5b12d93dcba14bU,
  0xbdb300f6bdc60c7aU, 0x3dd29ef43ab3de62U, 0x3eaf87973ea57c4cU, 0x3d021f3bbd9bc23cU,
  0x3cd8866a3dbf27ddU, 0xbe6b5e31be78064eU, 0x3d6b58afbe44d4dfU, 0xbddfc4fd3e11e815U,
  0xbd6233e33d17f2cbU, 0xbe1435b0be788cd0U, 0xbcad7130bee3eaddU, 0x3d6c44a03eae094dU,
  0x3e2fdea1bd2d9ddcU, 0xbdb27628bd83b54fU, 0xbe862b943d163f60U, 0xbd15cffd3d57e29cU,
  0xbe1c21f7bd84daf3U, 0x3e49553e3e3b3864U, 0x3b2329abbdef41c7U, 0xbd7af9453e2aa3b4U,
  0xbdb520cc3dfe1214U, 0xbe388ce0bd8a1343U, 0xbe159d2cbe80d19eU, 0x3c334e253e9fa52bU,
  0x3e1d6ec1bd8324faU, 0x3aaa4a9bbdd612b7U, 0xbe5cabe8bc9a04f6U, 0x3cbe0cfcbc168cebU,
  0x3da1c4733cd27903U, 0x3bcfb6563cd61f22U, 0x3d991e093dfac580U, 0x3e3b5d75bd9297dfU,
  0xbd7a4dfb3d88a749U, 0x3eae81173d76e4e2U, 0xbc2a693dbedb22baU, 0x3b198d933d923047U,
  0xbdaad42e3d3f7808U, 0x3bf6fbb6bc93ba76U, 0x3e1002ce3d426b85U, 0x3dc2d1103dc01091U,
  0xbd9c63be3d290c95U, 0x3d1919703eccb899U, 0xbcdca20b3bc110b5U, 0xbc83ed86bd83d30dU,
  0xbd6848653ccf9cfdU, 0x3dc9f3d23d2b046bU, 0xbd2365bc3d73471bU, 0x3c6b23cabd527e84U,
  0xbd7dbc88be0ff146U, 0x3e366841bc868758U, 0x3e16ed44bd9905c8U, 0x3dfad5003ea0f3b2U,
  0xbef633913d8aa48aU, 0xbdcf3514be45f682U, 0xbe256d81be544041U, 0xbe9ee642bc7892ecU,
  0xbd8ed657be3067d2U, 0xbddd4d26be84d1a3U, 0xbbf36ad23dc2227eU, 0xbed14b57b9d75863U,
  0x3e2876ef3c4cd69cU, 0xbc9593053d8d7415U, 0xbdefd7473eb1b420U, 0xbd15565dbc140182U,
  0xbe2de5b5bb44a73eU, 0x3e638167bd589276U, 0xbbc2dc193df6203dU, 0xbe9868803d3a9cdbU,
  0xbdee47de3d254806U, 0xbe1ec889be63f9f7U, 0x3e59fc81bd9f5d02U, 0x3e428feb3e36d8c5U,
  0xbd93161a3e578266U, 0xbddf9a3ebe9b29eeU, 0x3ee00147beecff8fU, 0x3d16ef3f3df23111U,
  0x3cdbb3dcbcd3d262U, 0x3eb36c433d85483eU, 0x3d3c676d3ca7a052U, 0x3e6ec9923c9e4725U,
  0x3ef379413d90799dU, 0xbd9308963dfa0ab6U, 0x3de36272be7185c4U, 0xbdab76a43e062290U,
  0xbdb778bfbda123b2U, 0xbe2d396f3e197c4cU, 0x3e84dcfdbe5469bcU, 0xbe115cb5be9e71f9U,
  0xbd36c5613d90c483U, 0xbe9bc8bfbc77e40fU, 0xbd9502b43e74273cU, 0x3e14c743be790fdcU,
  0x3ded3ab5be7f3005U, 0xbcae67b8bda716bcU, 0xbdf9e3fa3e176498U, 0x3c1888903e39fa84U,
  0xbd8dc1d1bc82d206U, 0xbe5993ffbd95b4dcU, 0x3c6e5210be2252b4U, 0xbe14afd53e4382a8U,
  0xbe1a2b76bdd6b654U, 0x3ea9537e3c2b875cU, 0xbdde9793be006e1fU, 0x3eeb7ac7bd405682U,
  0x3e357df7be78d562U, 0x3e75075e3d8984cdU, 0x3eac96e53de062ccU, 0xbdc2e5843e362f15U,
  0xbdaf2234be02432aU, 0xbe1493afbe07100dU, 0x3db2116b3d5b7e0fU, 0xbd00fc7a3d5b88acU,
  0xbdc21bc63e729fbeU, 0xbc4384053e103220U, 0xbe54384d3e427bf5U, 0x3e024e85be80890fU,
  0x3d83da023cfe188eU, 0x3dcbe596be1b420dU, 0x3cfe50913e8281b9U, 0x3e5ba8e13e23af1bU,
  0x3d702419bc97d6bbU, 0x3be7c6423d9ffec5U, 0x3ea420bcbc12265aU, 0xbe839014bdaf8e96U,
  0x3e8639443d0a258fU, 0x3d91fc303cef10b6U, 0x3d72f919be24a397U, 0x3e2f65473ea707a5U,
  0xbee14a0f3c9a8181U, 0xbcac70e9be152eb0U, 0x3e4c40343d7fe9cdU, 0x3d661d763d128d3dU,
  0x3d99198f3c339ecfU, 0xbd86c342be6b6a47U, 0xbe8ef8d3be3d25ecU, 0x3e7159903d5fc196U,
  0x3e2ccee33cc5593fU, 0xbc2fa062bda17e01U, 0xbd0d8911bd04e80eU, 0x3e6b5261bbc7dca2U,
  0x3e3540d53e4cf813U, 0xbdea8afa3e2ee889U, 0xbea07cbfbbce09ecU, 0x3cc48edbbebba356U,
  0xbf6a4511bfa0c362U, 0xbef12981be4cd252U, 0x3daac2ee3f4795dcU, 0xbf382682be996a3cU,
  0xbde034f23e38faccU, 0x3d3bdb90bdaff927U, 0xbbf179923e4e448eU, 0xbe6b87e43d5ec54cU,
  0xbd9d25663db4a998U, 0x3e397a113deafc1bU, 0xbcdf89e7bce2165cU, 0x3e23bc60be3f1e7fU,
  0x3d9cf88abdad8d44U, 0xbdc198943cbc9c3cU, 0x3dbae05bbd491a1cU, 0xbe019a00bc961a44U,
  0x3eacef183d6bc102U, 0x3e29c31c3da25afbU, 0x3d1e34373d2f36d1U, 0xbdcdb0653e3cee74U,
  0x3e2f70cb3d81121fU, 0xbd8a83fcbe328869U, 0xbdbf45fd3da777f4U, 0xbd364aa0bcd5160cU,
  0x3dce881a3de87461U, 0xbe152f7c3d856191U, 0xbd0591583cb94237U, 0x3dafafb03c4faec7U,
  0xbc3c618d3b9854f7U, 0xbdd32ccc3e421790U, 0xbe6e09cebdf894fdU, 0x3e6102fcbd21dc2cU,
  0x3e412b5b3dea0aadU, 0xbe5fb1a6be644c24U, 0xbe3f179cba8a2ad9U, 0xbb3d6c353db0513bU,
  0xbdaa2c343dc19ab9U, 0xbc87cb44bd426631U, 0x3e459b4e3e59ae73U, 0xbe738405bda9ca90U,
  0xbd4533edbd41aaabU, 0x3db53ee9bdb0d07cU, 0xbde509023e37fb02U, 0x3cd00586bc03ca4eU,
  0x3be08c3a3e5214aaU, 0x3e1d8c483db56398U, 0xbda376f43e1aa62fU, 0x3de2c9cfbda03aa0U,
  0x3e7db6983e597f64U, 0xbce413cbbe58a5acU, 0xbe0566753da21754U, 0x3d0173823c501295U,
  0xbdbb2836bc560577U, 0x3d1797c13db88442U, 0xbde34acb3dc163f1U, 0x3e2fed303cf1d3c3U,
  0x3dd0903a3e64e567U, 0x3e365398be03e191U, 0xbd1f36ce3d67ce78U, 0xbe1419eb3e3b42b4U,
  0x3e0800d43ada9d67U, 0x3e0840a23c43c8cfU, 0xbe31e0103de55e96U, 0x3beb9a133da9802bU,
  0xbcb0e6fc3c8664efU, 0xb9b40e653e3b1adeU, 0x3c9aa9b3be7c5693U, 0xbe220ea9be0e1042U,
  0xbe6693373d98944fU, 0x3d922a28be276949U, 0x3e087aba3e2a0d6dU, 0x3da5b9cd3e6f27bfU,
  0x3ea4818dbbdda696U, 0xbd0404f9bda64042U, 0xbe3000a03e4b0e11U, 0xbd9aaef4be1b25adU,
  0xbc5bed7a3e38e7f7U, 0xbe1b8be2bcae8280U, 0xbe2471a73dace835U, 0x3e3b72f1be217abeU,
  0x3d9908943dfeaaccU, 0xbdd2c8493e51eb49U, 0xbda3ed1d3d2b3237U, 0x3d7c49b1bdabbab4U,
  0xbe12f1cc3e53097dU, 0x3e3e068d3e0a55a9U, 0xbe529638bbe3cef9U, 0x3d3b3f86be1c748dU,
  0x3d409d2b3e902f88U, 0x3e285f2dbdf1c65cU, 0xbc332fb9be12bdf3U, 0x3c1dffbebe6758aaU,
  0x3e71efb3be7c6dd9U, 0x3ddac0b2bdf673b2U, 0x3dac8c3fbe4ac7e8U, 0x3e51060fbb629cd9U,
  0xbca77a3c3dcac538U, 0x3a91fe413d08f704U, 0xbe3b50393d82c609U, 0x3e83f647bd92e6f3U,
  0xbe1035143d9266ccU, 0x3e1fd56ebb27fdd4U, 0xbd316b513e7a33c0U, 0x3d526726bbb37a10U,
  0xbd253902bca5e518U, 0x3e9c389d3c5c66d1U, 0x3e9316a0bda27c1bU, 0xbd3e34573da64e10U,
  0x3ca0b5103e19942aU, 0xbd0966733da2a783U, 0xbe10f309be29b249U, 0x3d57e43b3c473e0cU,
  0xbe249660be0f296aU, 0x3e310df03dd831f2U, 0x3e1b23073dbfadedU, 0xbdab3e7fbd81656fU,
  0x3e47452c3d621b83U, 0x3dd9355b3e58777eU, 0xbe769f4e3e0f20a6U, 0xbceb6864be780e0aU,
  0xbe3fc9b4bd51703fU, 0xbb55ea473e5c90f7U, 0xbe88b30b3dd73593U, 0xba2db0d33b113645U,
  0xbe0fe1083e1b2c04U, 0xbdab83f9be8bbe43U, 0x3e71f7a2bd9a02a3U, 0x3c0d58fe3e171666U,
  0x3b69b919be43098aU, 0x3ca785db3d0b277aU, 0x3d4ebf67bdec2c55U, 0xbe531c073d2fbe5fU,
  0x3e07e5523e044b3fU, 0xbe899ee9bdfeba12U, 0xbe39f243bd2fe4adU, 0xbc7a76aebc283ec9U,
  0xbcfbd6b63c71c17aU, 0x3ea0dc903e74fc52U, 0x3e821a4f3b8201f0U, 0x3b0f90d8bdce1d96U,
  0x3cfa9e76bc9898b2U, 0xbc7604e93d0960daU, 0xbc3a5c0abe0715a1U, 0x3d281fe83d51d787U,
  0xbcaaafcc3e6b09ccU, 0x3e2f1251be2ca314U, 0x3e18eff13e16a746U, 0x3d6d43383bccc7adU,
  0x3cca1aa0bd6f5942U, 0x3d4a93363e439393U, 0xbe23c25dbd9d1911U, 0xbd4b36ddbd61103aU,
  0x3d57f9fe3e356d68U, 0xbd8f788a3e30a404U, 0xbdb2e900bde77dd2U, 0x3e824fbc3d14179aU,
  0x3db4c771bd56afceU, 0xbcfa3fd13e112b87U, 0xbe15fcb6be539e10U, 0x3e74cf403c5c8cedU,
  0x3e8ea9ce3d93ba54U, 0x3dc01f133d138641U, 0xbe556ce13dfac01fU, 0xbe7036e63e35a6edU,
  0xbb483867bded33c0U, 0xbd9112073df450d0U, 0xbe572b80be332b7eU, 0x3dd589a33d21373cU,
  0x3e1620743dbb1829U, 0xbb99b4d03d4416feU, 0x3c5ae6da3d4b03adU, 0x3e3764e5bd847a2fU,
  0xbe3cae123d021407U, 0x3e1f77633e8ae49bU, 0x3e0bf6b2bdf50063U, 0x3dcba815bd3fc732U,
  0xbd12c8d13dc6ce28U, 0xbe189a313ce21c6eU, 0xbe7512303d96d947U, 0x3d91a989bd8f302aU,
  0xbda1f63c3e915276U, 0xbdaad194bd9bd079U, 0xbbdc40f8bcb87cf4U, 0x3e38510fbc8c7db0U,
  0xbd9bc0a3bca4d8b4U, 0xbdbd759c3dff4720U, 0xbdba0afd3e227eb0U, 0x3e3d5b9a3e086cfeU,
  0x3e86d7bb3dbc024bU, 0x3dfece153e12e98eU, 0x3dc1dfe83e234cf5U, 0x3d991bee3d231076U,
  0xbd12092abcc207faU, 0xbe6de873bb3a84beU, 0x3e46a6cbbdcd91e7U, 0xbe1069673cefa63bU,
  0x3f334a7a3f0923cbU, 0x3e480c043f58a896U, 0x3f5476d53f44746fU, 0x3ea2207e3ed7a013U,
  0x3f3df004beb30c06U, 0xbe3d76523f015807U, 0x3f0f49113f2e55b1U, 0x3e7e8b243f372b89U,
  0x3eb67562bed749f3U, 0x3f4144e03eae91c4U, 0x3c293d7f3ecf018fU, 0x3ebb5c3f3d6c949bU,
  0xbddd00543ef008b7U, 0x3f0fb3b13f4741efU, 0x3e72d2ffbd21cdb0U, 0x3f0f9f1b3e250726U,
  0x3cc9da1e3eff27fdU, 0x3ee1d52c3f72923dU, 0x3ec1a8b93f4c89c9U, 0x3e2cebad3ed5f80bU,
  0x3f44d27b3f291ad4U, 0x3f22f5283efaa518U, 0x3ec8b58c3f11fb2eU, 0xbedc4e7b3ecda13eU,
  0x3ef0342c3e51ddf0U, 0x3e9b25783e7b0133U, 0x3e594e313d55e30bU, 0x3e2f9c7e3e7e069bU,
  0xbdc8e4d43e9695f3U, 0xbd90f2dabc051919U, 0xbeded1bdbe15d718U, 0x3f09472d3d34fc67U,
