/**
  ******************************************************************************
  * @file    network_data_params.c
  * @author  AST Embedded Analytics Research Platform
  * @date    Thu Apr  6 16:14:23 2023
  * @brief   AI Tool Automatic Code Generator for Embedded NN computing
  ******************************************************************************
  * Copyright (c) 2023 STMicroelectronics.
  * All rights reserved.
  *
  * This software is licensed under terms that can be found in the LICENSE file
  * in the root directory of this software component.
  * If no LICENSE file comes with this software, it is provided AS-IS.
  ******************************************************************************
  */

#include "network_data_params.h"


/**  Activations Section  ****************************************************/
ai_handle g_network_activations_table[1 + 2] = {
  AI_HANDLE_PTR(AI_MAGIC_MARKER),
  AI_HANDLE_PTR(NULL),
  AI_HANDLE_PTR(AI_MAGIC_MARKER),
};




/**  Weights Section  ********************************************************/
AI_ALIGNED(32)
const ai_u64 s_network_weights_array_u64[105425] = {
  0x3dd1b437bf2acfdcU, 0xbe8369abbef73da8U, 0xbec2f7b8be6c147aU, 0xbe58b591be36b857U,
  0x3cc5a9513ea0e9a5U, 0x3e542b6f3f37d938U, 0x3ed9ba0c3eee2ed3U, 0xbe8e28663eada9f0U,
  0xbe7359503eb1d0b5U, 0x3fd82cee40020bdbU, 0x40041a663f9ed83dU, 0x3fad841b3fe53452U,
  0x3f82d55e3e732b8bU, 0xbc19e260bf2dfaf1U, 0xbd9cfb503db4ff9bU, 0x3dde6d9dbd8b1fc6U,
  0xbd7ad650bd1fefa3U, 0xbb975a0c3d878102U, 0x3e04b5dcbcea1393U, 0xbdf0c108bdc86d68U,
  0xbd0b837e3e1ba04fU, 0x3daca8f5bdd69d1dU, 0xbcdff0cc3c90e410U, 0xbd78d76b3db594eeU,
  0x3db483c3bd9cd8fdU, 0xbd82fc6fbc4d6b90U, 0x3c57ff8d3d4216ecU, 0x3d827b563dfd18deU,
  0x3e7f4e7ebe42a59bU, 0xbe904e0e3d04dfcbU, 0xbce5931d3e513890U, 0x3e6e01babe342e61U,
  0xbe8975693d1ef616U, 0x3c3217f43eb87fb8U, 0x3e875197bebd55d7U, 0xbe5b7c79bd5dc8adU,
  0xbd02afda3e14a042U, 0x3e4b5f29bdeedd02U, 0xbe1dcc60bd3ede40U, 0xbd8ea24e3e14fa95U,
  0xac15d585bda86185U, 0xabcb5957aaf5c079U, 0xaa0bdaddac002d7dU, 0xabea2dd3ab97c05bU,
  0xabc9136dab65ed70U, 0xaab74b93abdc87c3U, 0xab8a3b72abcdb2f5U, 0xab93a264aa5f8d77U,
  0xab9c0c5eabe6a4bfU, 0xab5e50e9abb6f022U, 0xaba3da772ab4a1ecU, 0x2978806fab7395a2U,
  0xaba1391baba4cbb7U, 0xab87116faabbe0c2U, 0xbda81bebbdd9cde3U, 0x3ea59460bd4f1e83U,
  0x3dbd1de73ea1ffc3U, 0x3ef8bb1c3e24fd19U, 0xbdc9b46f3e740134U, 0xbd19fba2bdc50b97U,
  0x3e201e573ee4644dU, 0x3ea3a675bcb6aeeeU, 0xba6cbfa33e833135U, 0xbb33f42abe22465aU,
  0x3e1569bb3d12f0deU, 0x3c8efa12bb8762ffU, 0x3df0bbbcbe1b3589U, 0x3d6027333da10394U,
  0x3cd553963e10bb75U, 0x3e5e6bd13d8ca2a2U, 0xbc87207e3da898b2U, 0x3d14001b3d8fc094U,
  0x3e6f78bb3e61c485U, 0x3e2471a93cf07f7aU, 0x3dcd1b6c3e9c25beU, 0x3daea19a3c086931U,
  0x3e37e6953d7d849eU, 0xbd078e9f3d810eb3U, 0x3df6ed4c3da52583U, 0xbac116f33d121e01U,
  0x3cf164df3c8e6cdeU, 0xbf407b0bbf38c9f8U, 0xbf544bdbbf3614adU, 0xbf9ea562bf382da3U,
  0xbe2c4ef0be294bd1U, 0xbf1479773ee7f92aU, 0xbf05cc97bf60cea4U, 0xbf37bdc5bf0dce69U,
  0xbc70baf9bf93b33eU, 0x3e0fde8fbebcc65aU, 0xbee8c4edbe8ca1bfU, 0xbeaf4c373f116786U,
  0x3ea536c7be859500U, 0xbe332202bd3813daU, 0xab6c95a23edda6a8U, 0xabce62ffac4e2744U,
  0xac671389ac81ff50U, 0xac7a0601ac6f73b0U, 0xac6987e9ac4cabeaU, 0xac17075eab3177e2U,
  0xac42e8d3abbf8b5bU, 0xac69595aac5fa169U, 0xac0f309f2abee899U, 0x2be8085aab95b98cU,
  0xab1c123babb2466dU, 0xabe387322bbecff2U, 0x2b88a60cab0fea8cU, 0xabf6d7edac1a48f6U,
  0x407ba2094158cbe9U, 0xbfa092303fcdd312U, 0x4033dd5a40335553U, 0xbdba0a6841522729U,
  0xc005976ebe0568e5U, 0x3dedc7a83deb4d59U, 0x3e757c7fbf339093U, 0xb97ab21e3cd36d3aU,
  0xbdd034e6bdfe7a25U, 0xbe04674b3e66d09cU, 0x3fce78823eb1c189U, 0xbe7ca4ddbea8cb01U,
  0xbe16b2bcbe0684d4U, 0x3f5f73903d91eed5U, 0x3c275d66bec3a628U, 0xbe810f253f251afaU,
  0xbe7083a5bdb0b64bU, 0x42825fd13e2ca67dU, 0x428d8e54428c320eU, 0x4230bb6b427ebb4cU,
  0x422726dc419e9c92U, 0x411dfd6641284bdfU, 0x3e9aff783ee2292eU, 0xbf6624763d80dee2U,
  0x3d7adab5bd5767afU, 0x3ac60381bd54515cU, 0x3d8a12343d46c0c6U, 0xbceb41ce3d4e786aU,
  0xbfb4bb2e3d44a37dU, 0x3d6813f03ebd5519U, 0xbdaab52a3e46f1a7U, 0xbd30b2d5be5bf892U,
  0x3e7770bebd30ab1aU, 0xbde9a10a3fe9363bU, 0x3d938ae0bdff5246U, 0xc00759193e0df36eU,
  0xc0217191c0a70e1cU, 0xc0b6d437c0c1e068U, 0xc08848e5c09aaeecU, 0xc0431d20bfe4905fU,
  0xbfedd04641296a59U, 0x3f91cd283f25d56eU, 0x40ab1c743f1abef0U, 0xbf2e2a89bff4a1d8U,
  0xbe00af13bd5c0e74U, 0x361eb94aba1470fdU, 0xbf21e2fbbe6657ffU, 0x2955f858bdb870edU,
  0xaab9ad272b437403U, 0x2bcb66bd2b89a68bU, 0xaa2760502c1ece23U, 0xabf11dcc2bd96380U,
  0xbd0f40473d8b8074U, 0xb598bb463ca3a752U, 0x3f5a53cf3e89e8a3U, 0x28dde94b3dedc5aeU,
  0x2b1e52742b2c3857U, 0xaabb64812bb9c989U, 0x2aa506dcab03ad46U, 0x2b60f20ca665bce3U,
  0xabc15ab5aaacae9bU, 0xab65393c2b4bb24aU, 0x2ad28c6f299f091fU, 0x2b0632422b0ee583U,
  0xbe95ba24bdc11ab5U, 0x339b9a03bd808f2fU, 0xbf6133a9bec02d7bU, 0x29809f6fbe0bd02fU,
  0x3ec3ba93bade67a3U, 0xb59c8d7cbb1f0d56U, 0x3bc56ae03a578bb5U, 0xa887ff03bab9649fU,
  0x3d8c005ababc8133U, 0x34e83ca7bf02ce3dU, 0xbb9629233bea799bU, 0x28807c4b3b16bae8U,
  0x2c6a48c72c238f2bU, 0xac59468ead31301dU, 0xac1cf0beac862e4bU, 0x2bae96d72c1d7bc3U,
  0xbe1945cbbd7be19aU, 0xb4baed42ba90ed35U, 0xbf8216dcbe1efcffU, 0x29648161be2e7f0bU,
  0x2bd09bf22c1ca177U, 0xac6d42792ca26d05U, 0xaa8b09462ba9fac2U, 0x2bd4ab8c2c4abc60U,
  0x2c85855d2c83df4eU, 0x2ce6b5b1aba1ce28U, 0xabd006b22ccbdae3U, 0x2a706b5fac8669acU,
  0x3f156f9dbb535e62U, 0xb51270d53d9a216dU, 0x370c4076bb06b827U, 0xa83ad77dbb95fea7U,
  0x3dc424613d97c943U, 0x363d97203cc52d35U, 0x3f5c87a13e83ac23U, 0xa814a9b03dede283U,
  0x2c1bd019ab860712U, 0x2bb38e43ac2ddad0U, 0x29cdeb402a889423U, 0xaafb1fb9ab2ee840U,
  0x2c848b4a2ae19e45U, 0xab816c912c68ebf9U, 0xab5b596b2bd32f97U, 0x2b4e90efaa9caf4aU,
  0xbeb836a840e12a7eU, 0xbfcedbf1bf71fda4U, 0x40f2d9d4bfed0c18U, 0x40a6bc47404f35d2U,
  0x40ef8632bf805dc5U, 0x3e81ed39bf13b668U, 0xbf9e8e164007a6caU, 0xbfd0f3adbfe02fd2U,
  0xbf08a4493f0e8a6fU, 0x3f6ea801bd9d99b5U, 0xbe11f2afbf38c603U, 0xbde006643d3a016cU,
  0xc10a40a43d671c9dU, 0xc11b8da03f7c7b47U, 0xc1132f7bbef1fce8U, 0xc1274f6fc15188abU,
  0xc12874c3409e4f32U, 0xbc5b6d5b3f82f7b2U, 0xbebaa4703dcee4c4U, 0xbd8a12c4bd3fec2cU,
  0x3b3818c63db6962aU, 0xc19510e9bc8f0ff5U, 0xc1892abdc0c70bbaU, 0xc089e460c16fe34cU,
  0xc1c10421414e9640U, 0x41c37fdec148f8e0U, 0xc213fd58c20debbcU, 0xc12caccfc1fdf4d6U,
  0xc20841a8c241b11eU, 0x4168aeac421b669cU, 0x3d429a06c211d7beU, 0x3d6c284b3f5e9022U,
  0xbf5bbde4bdd99e01U, 0x3d0b2c10bdeb94efU, 0x3d7d06733c7341b4U, 0xbf2fbb4bc08a9abdU,
  0xbfaae0d9bf0ab4fcU, 0x3ea0a51cbea9087cU, 0xbddbf928bdf7a7b4U, 0xbe41b03bbc7d56fdU,
  0xbd892147bda4db78U, 0x3fa1a6e23fa6cf1bU, 0x3c3e95da3de4d74cU, 0xbddf52ba3de9b918U,
  0xc1573b71c10effd2U, 0xc184c712bfa03183U, 0x41186a3f3fc9ef4bU, 0xc16e1145c13f0d3cU,
  0xbe3a6634c0904dfbU, 0xbf4d1b6c3f8509a0U, 0x3f3d90c5be1f215eU, 0x3d15bfa9bf374eb6U,
  0xbd9618bf3d6d46f0U, 0x3f0206423f9b764fU, 0x3f8bf3ecbee169b6U, 0xbef7e4533cad7253U,
  0x3f81a0af3f608532U, 0x3f52712e3f4911e7U, 0xbf07b6773edd2fdaU, 0x3e43a0e03f458fafU,
  0x3f5604d8bdebc6d4U, 0x3d5650c73f382852U, 0xbf6b856f3d9f7237U, 0xbfad521cbd132a4eU,
  0xbec4ee43bfd30536U, 0xbd457ea5befb67caU, 0xbe7c505dbf1d313cU, 0xbd2026e93dc9840dU,
  0x3e55af063f4f557aU, 0xbd88ab213d1b848fU, 0x3bf64772bd2f9a31U, 0xc0dffc97c1204a07U,
  0xc16fd4e7c123cf95U, 0xc166ee20c15b0891U, 0xc092bd7ac08dce68U, 0xc18234cdc09778fcU,
  0xc1f2a026c1b2a68cU, 0xc07aa52d408c3621U, 0x412bcbbdc1c1ec44U, 0xc1aab4b4c1c90199U,
  0xbf1eb2264025c03fU, 0x3f01c8503f8049bdU, 0x4059444e3f5e9d2aU, 0xc0bf9fad41f115fdU,
  0x4068d3cabf47b7a2U, 0xbfc84bccbf812731U, 0x3f3f2bc841ceac6aU, 0x3fb7fe153fbbd351U,
  0xa7be01c1be030f5cU, 0x35457bb83fa76af0U, 0x3dc9019735d999d2U, 0x3c984b1fbe4e8c76U,
  0x3db8c88caa3c07dcU, 0x29e89442a9671427U, 0x3ec9101e3d787ba0U, 0x362626293647be71U,
  0xab2db255c19a80bcU, 0xb7c3a96b400b7d17U, 0x3ff18a55b70600a2U, 0xbcb1fa31bdd391bbU,
  0x3f9d738e2bcbc236U, 0x2ba18a7fa8462ce6U, 0xbffe2ef1bd8a9017U, 0xb7ce482937adbe90U,
  0x28ac16b5be39fbf3U, 0xb57e1c59bf838587U, 0x3efa1724b4cfb349U, 0xbb4036c93aa4cb65U,
  0x3cd484282a02018eU, 0xa94f9d41a8822adaU, 0x3f6e0a613d4d6741U, 0xb50ce258367f963cU,
  0xaa281f7fbf34e229U, 0xb59effe7c0022e4bU, 0xbe36a22cb667e244U, 0xbb0e30003d37e71eU,
  0x3d6c184daadad72aU, 0x2a6f209fa8d6cdafU, 0x402e57933dd4652bU, 0xb730768ab645ece1U,
  0xa9f859aabf0b94b0U, 0x36fc398cbf59a935U, 0x3e8156b83638c5f2U, 0xbf455e96bd2765c0U,
  0xbdd5d4e8290c61e6U, 0xa8edb316a9b9ac6dU, 0xbfd2c419bfa3ab64U, 0x37a35aa035b9eb33U,
  0xa9da013f3ca134bdU, 0x3430ebf03d6397d4U, 0xbc698776359779acU, 0x3f0d1cab3f97728aU,
  0xbb782cf12ab14fa2U, 0xa98f2b5da92224c5U, 0x3dadb5a4bfa91240U, 0x3426bd99348a417dU,
  0x2a2338c13c10ebb5U, 0xb7105b2b3d032fd8U, 0xb9cb329a36166c0cU, 0x402d36b63ecee8cfU,
  0xbd25b4382a9d7a98U, 0x2a0553aca89d8b1bU, 0x3d24e5fbbe90d0d5U, 0xb796e120374d89bfU,
  0x2b08d865aab3e2d0U, 0xaaba9586ac396d2aU, 0xaa9991fa2bf70238U, 0xab5ca6352b716f3dU,
  0x2c98a1a4ab36db2cU, 0xac69748a299a1318U, 0xab0aa6a9abf9b75eU, 0xaaf7343d2b6ee9cfU,
  0x28425e453de9551dU, 0xb2b41b5dbda66dceU, 0xbd4bd06034027f96U, 0x3bff5096bd10a671U,
  0x3dea4ad5a90a0a33U, 0xa670c45f288c341aU, 0xbd5585773d66292cU, 0x3447ed2634e7bd1cU,
  0xa9026fdcbbd59079U, 0xb3b08acdbd5bd8a5U, 0x3c194222b490c6f8U, 0x3f9b510cbe32f831U,
  0x3c5f665429ccb4b0U, 0x29778970a82b9478U, 0xbd84caf33ed47aa9U, 0xb5581a2fb3b087beU,
  0xa911461cabb0901eU, 0x2a06f91a2c1f90e0U, 0xab943a5c2c1b9e68U, 0x2c5e1aa72a10b935U,
  0xabe2ae602b9f90deU, 0x2bd96bc72ad0dd75U, 0x2ca77e9c2ba48aebU, 0x2c109cc8aa20de25U,
  0xa8af9d923c02068fU, 0x34549671bc9fe732U, 0xbc636af234d8bc20U, 0x3f71772dbf05f212U,
  0xbadd4a5caa159cc5U, 0x28d187b229d0486aU, 0xbc9404a43efd2dfdU, 0x34d9be1a35399753U,
  0x281185613dcf9159U, 0x358d2c043f7bcbf9U, 0xbd9a2a393602ccbcU, 0xbd10e4ddbe811680U,
  0xbc97ea9da94d2f5cU, 0x29b9e2b1293bfb4aU, 0x3f04979abc883632U, 0x367b4bba365156a6U,
  0x287da7a83f20786aU, 0xb52f26c83f3568a6U, 0x3f12db90b53175a4U, 0xbd74bdf2be3d3d24U,
  0xbd160f4d2a89d30bU, 0xa9b7abafa908d162U, 0x3f88e7e73dd34b2cU, 0xb5ad8f33b59a41cbU,
  0x27d306e4be967f9bU, 0x345ce7a8bf4b48dbU, 0xbc1d2f00b5721ef4U, 0x3db671db3ec0e1c0U,
  0xbdabe2c52a30f251U, 0xa6811103a9a6807aU, 0xbf6492983e93c31aU, 0x34b2b43cb63efd0cU,
  0xa91e213b3f4c9b86U, 0x3418f0dfbe51c12cU, 0x3ef42a9f356c5c79U, 0xbd6cc77c3e12dec2U,
  0x3e86b1f4aa7251bcU, 0xa9a4413da9aeeacfU, 0xbee5cee4bb15eb59U, 0xb3e236a835d972c8U,
  0x27e8a97a3d18f66cU, 0xb5cfd1843edba8e4U, 0x3d4ce438b627c59cU, 0xbc14ba81bd895dcbU,
  0x3c07d2ce291ede6bU, 0x281a402ea831a885U, 0x3f98da38bc04ca27U, 0xb697641db68b3490U,
  0x28e417f83e46f82eU, 0x34e79d7b3ed8fa2fU, 0xbd8c980e3544ec53U, 0xbd0f6435bd9e6ef6U,
  0x3c71d45029f5bd1dU, 0xa96e648328b4ccd7U, 0x3f285afcbd239cfaU, 0x35a24aec359ac495U,
  0xa884ae6b3dc94262U, 0x33aa52e13e9c24a0U, 0xbf72fa39b58c524cU, 0x3c0b102b39f8bb8bU,
  0xbc72cf4329950e61U, 0x2806e948a913f215U, 0xbe88d75f3c294171U, 0x3594606835229dcdU,
  0xa9b53abd402e1c7fU, 0xb4b9c9b7bf89cf04U, 0xbfa3cde7362bd083U, 0x3d354c363d15fb40U,
  0x40fd6e8caac47f26U, 0xaa438131aa653dc8U, 0x3e5030313d48cec5U, 0xb6c9d101b790ee61U,
  0xa9a2b6c7bcc0c269U, 0xb4b57542bd14d0b9U, 0x3c18d76cb5a6db3eU, 0xbfc7194abf99b784U,
  0xbcb0ed7a291d8206U, 0x2997a50828c0b41fU, 0xbceea4c13f36a70dU, 0xb616862735ed8ef4U,
  0x29c3f7a43f012207U, 0xb60e353a3fe0d244U, 0x40021c0c35876c13U, 0xbc6582a2bd9f99cdU,
  0xbe0026352b364ef3U, 0x2a17b6f0a9b57f4bU, 0xbfc71e693c9e98b8U, 0x3759e7c33652ad7cU,
  0x2721e3043fce17e0U, 0xb45d10d7be35c9e8U, 0xbe26060a360c9bc6U, 0x3d7dc5923dc27cbaU,
  0xbe6747fe29c40902U, 0x2a38eba0a94b5345U, 0x3eb2a805bd91cb2dU, 0x3625a14ab60db04eU,
  0xa8a51448bee0d662U, 0xb706a9283fc9c08cU, 0xc0e471bb371baedcU, 0xbd988a2dbe037e97U,
  0x3cbcf97028956fd3U, 0xaa803241aa1582cfU, 0xbfa897a5be1735cfU, 0xb6e59850b64429c0U,
  0xa655673b3f2eee46U, 0x348f0c433f1a934eU, 0xbbfcc42e358cdaf5U, 0xbd492066bdc85e49U,
  0x3cd1509528a9e804U, 0xa91b2a35a956d669U, 0x3f573dde3cd4878aU, 0x353ca3dc35b60ba1U,
  0x29c94c08c08cbe2cU, 0x35944368bd8ae8e4U, 0xbf39bd24b625bba7U, 0xbda76ef2bd7013ffU,
  0x4081ab59ab8a8eeeU, 0x27d843272a232bf9U, 0xbe343e033e19904fU, 0x371612c83517bcb7U,
  0x298a79023f33a58fU, 0xb45ebd403e99ce46U, 0xbfc74fefb304c4f7U, 0xbe009859be86da0fU,
  0xbe047a7e28d39075U, 0xa93f03b9293934feU, 0x3f559b773c6748c5U, 0x3308e7fb353cb3c0U,
  0x277b7edebe746017U, 0xb3b0c472bea36468U, 0x3de53bb5b38d2092U, 0x3db564783d9c4054U,
  0x3c8853e9a906b0ebU, 0xa8a701c229c5c276U, 0xbf260cdfbb5f5550U, 0xb452d71eb4a81a3fU,
  0xa67ba3bcbbe02161U, 0x34423e173cdeafc4U, 0x3cd303de3502597aU, 0xbfaf94e53f4b262fU,
  0xbd18952e2966e7c2U, 0xaa25b5eca8b7d156U, 0x3be83f5cbf3863c8U, 0xb586687cb64102b3U,
  0x2842ab153f678b58U, 0x355be5453ecab8e1U, 0x3e4901ad35163936U, 0x3cd31e0dbe04af02U,
  0xbeb8e0dd28a8ccd0U, 0x29708ce5a723bfa4U, 0x3f8754b93e26a679U, 0x36483c01361da10eU,
  0x29f31c9d3ef7d4bdU, 0x36995fb03f654373U, 0xbe6e87a0b74fa36eU, 0x3f72bd353ea38820U,
  0x3c92e947a90a254cU, 0x27c5185c2a4ab7f5U, 0x3fee5daa3fb567beU, 0x37ad33bc368c0850U,
  0x28cf2545bf9bb0d4U, 0xb578d6693e11d12bU, 0x3e0bc04bb4d2ca5eU, 0xbb2b95a93c982a7dU,
  0x3e9e51632924acf0U, 0x269fc770a9535dbcU, 0xbe27e7b43c0e8b45U, 0xb60c822d36130edeU,
  0x422ba6d9c015a54bU, 0x402405423f4deb4aU, 0x40ad5e0d41972eb2U, 0x3f41c51ec118b862U,
  0xc066221d40a5173aU, 0xc025af4c3d8ee233U, 0xc0b96ab2bf8b7302U, 0x3e0593d040c90466U,
  0x3f657af4bff75dd0U, 0xc1ca573940952f73U, 0xc0e6963e405ff6a2U, 0x41e46be3c014c753U,
  0x40325a5ec03e35c8U, 0x40b4ee0a4077ec76U, 0xc08135024124b240U, 0x40591e34c1a6f9c4U,
  0x3e44894ebde7f321U, 0xbeaac9c4bbcf2938U, 0xc05004a54043a824U, 0xbefc1c983cff5725U,
  0xbce573443f0ce073U, 0x3d1d616ebcf28a4fU, 0xbf02ba6cbd7a3e41U, 0x3ba558163db41238U,
  0x3d72e516bbd90720U, 0x3afe31bebd33f570U, 0xbe0f0b10bbf25198U, 0xbe0d37c93fc03463U,
  0xbd4f39343b3df4f4U, 0xbdee8326bcbe215fU, 0xbe91902d3f45170dU, 0xbe5f5048bd9ee3c4U,
  0xbb347b7a3d831102U, 0x3d8996cdbe155ec0U, 0x3e4b5d193da27b9aU, 0xbe24dcc6be5d0333U,
  0xbe28eadc3f6b5752U, 0xbeb01150bc7a0e77U, 0xbeaed1203c996e22U, 0x3c8e02c5bea6f8b4U,
  0x4049b19bbf9993cbU, 0x3f220b17bf501de4U, 0x3f1817d5bfd3142dU, 0xbefb620abdda42b4U,
  0xbea88bce3ec6ee71U, 0x3e381f39bf25c9dbU, 0x3db4ccc73ed161c5U, 0x3dde88553cfa3ddbU,
  0x3d97d0953d0af6d6U, 0x3dc66deb3d768953U, 0x3d0f2ddabbf11b9bU, 0x3e2205463e48bfa9U,
  0x3d823fb6be4a92d4U, 0xbed221bbbea421edU, 0xbda35531bf106120U, 0xbe8e48e1be7567b7U,
  0xbfa0e871beb76094U, 0x3f34b06f4071be26U, 0xc0e43f063fd93c50U, 0xbf146d38bf7d2dbaU,
  0x3e97ab024065c4f6U, 0x3ef23ed83c7daa6eU, 0x3e05137b3ec9a031U, 0xbe3b04663dfd3458U,
  0x3d369db2be865bf8U, 0xbe9de5dc3e5f9cccU, 0x3fde7eddbfc2d232U, 0x412374f4c0fbaaceU,
  0xbe8d03b9c0092619U, 0x3eb01b56bd747b2aU, 0xbe2f43a63d4b91f4U, 0xbd30fdf03f36236aU,
  0xbe952c05c128bf9dU, 0x4138a2e0beafe0feU, 0x3fef2d82bf2854e9U, 0xbd94a00ebfe32109U,
  0xbea88b923f3203aaU, 0xbe6d6e48be28504aU, 0xbd4d36183e076c55U, 0x3f02a377be4495b7U,
  0x3e9c4e70be10289bU, 0x3eb7745ebfc4327dU, 0x3e5d17f23d532642U, 0xbf05cb4f3c7b8677U,
  0xbd36e0213fc4b4f1U, 0xbf9341f23f04fb1cU, 0xbd7897e9bd9bff2bU, 0x3cadbb5dbc461d4dU,
  0x411769cc3f01a28bU, 0xbf461abc3f384f5bU, 0xbf9c28e9c10b3718U, 0xbeb6ce183e6c01d5U,
  0xbf66a1553e84c1feU, 0x3f1e4f0c3e1fd15cU, 0x3f3c6757c040939cU, 0xbee4d5bf401d10c9U,
  0x3e3fa2fc3e7a7ec4U, 0x3f9e2ce1bb9a3e28U, 0x3cb559fa3dd0e384U, 0xbd476d8f3fbc2defU,
  0x3ea13512bdff0d96U, 0x3d2bb2bfbd14bf32U, 0xbd2355b5bd099526U, 0x3d6384e33f20d9dfU,
  0xbac5f7e6bcf36704U, 0xbcd4da15bd07bf68U, 0xbf1716e3beb96dd3U, 0xbfa4ca1f3e8d3156U,
  0x3ead32584006621bU, 0x3f61cca5be8d2e71U, 0xbe1a64a2bf7d0e83U, 0xbe07098b3d8e6539U,
  0x3fc3aed13dd4ec30U, 0xbe9410433da1102eU, 0xbe464117be46c6c9U, 0x3e547952be85cb38U,
  0xbfa22780bc02813eU, 0x3d9dfd063fab963aU, 0xbaad91f6be05c9cfU, 0x3c5ac245bcc59360U,
  0xbd9bdda4bc1577ddU, 0x3f5283c6bdc4488cU, 0x3c8852f93cb8959aU, 0xbd473210bd7dede8U,
  0xc00f4395be43467cU, 0x3f0083243db5fe56U, 0x3d95efe83fb4ccd7U, 0x3eca9599be11b6eeU,
  0xbef988c5bd87d428U, 0x3d8af6abbe952854U, 0x3e9c1b243f25ab78U, 0xbe5299c33d105a65U,
  0xbca53ef2bd2d2290U, 0xbe5aa92bbd590d98U, 0x3f7dd2253c71470dU, 0xbe0cb8a4bef43509U,
  0xbd6c1d5ebe1be0ccU, 0xc01267c43d67d314U, 0xbfb5e99c408a72a6U, 0x417cc00cbfa7938bU,
  0xbffe5907c17725c3U, 0xbefd8248403050beU, 0xbeb3595abe6dc814U, 0xbe8fca2a3ead583cU,
  0x3dc6de0abf2ae6a0U, 0x3e3082313eb81379U, 0xbf98ed113daf4dedU, 0x3e2539ca3f3ba516U,
  0xbf393b4f3faf07b2U, 0x3db8ff8bbe33c820U, 0x3cf70687bdf48cc3U, 0xbe8b7ff6bd84d09aU,
  0x3cdf413c3e63cff1U, 0x3d92956bbf33a7dbU, 0x3e3095843de62c1aU, 0x3d9bb18f3da1a2cfU,
  0x3cb745ccbb75b4a8U, 0x3f9efc233f0b560bU, 0x3c2c9b3f3e742da2U, 0x3c7d4f1abd2c2a03U,
  0x409b3c7c409b6508U, 0x405256d7c00f088dU, 0xbd5817da40341556U, 0xbf68feba40c4370eU,
  0xbe995011413ec07fU, 0xbef2bf60be9f1581U, 0x3fbc9a4c3ffae9dfU, 0x3fa95218408fed5eU,
  0x3d9c1518403d8fa0U, 0x3ebbc17cc06c69eeU, 0xbf864ff0bd6f7b90U, 0xbe868ac03db28cd3U,
  0x3e998c7e407f2635U, 0x40600e5a3ff769aaU, 0x3ff48f3840b2352fU, 0xbf8ed600409a377bU,
  0x3b34a8f7be187f29U, 0xbe60ef67bd21a494U, 0xbcd760133da68623U, 0x28ba0cbbbd24a39bU,
  0x3c3f3c4f3c7ee0a7U, 0x3b57c3f2a8f18630U, 0x3c3c3abd3d6f2d94U, 0x3d83cbabbea08779U,
  0xbe1a0fb03d0978e3U, 0xbdaa8b33bed2edaaU, 0xbdaf4b16bd04b818U, 0x3d207e713d9cdc7eU,
  0x3dac12eebede85f8U, 0x3d26ac94beb25b59U, 0x3ecb4cff3c3cfba5U, 0xbe32fdb33dce148bU,
  0x3e999b39be2b6e27U, 0xbd96bc7cbe703524U, 0xbd29f5cd3d4734afU, 0xa84cc1093d045ac9U,
  0x3bf1c9903e70e2bcU, 0xbc7b064ba89d83d1U, 0xbe13508d3e4dc90aU, 0x3da6a5c33dc5284fU,
  0xbcb827bfbe44c9eaU, 0x3ec0e50b3ca982e9U, 0xbd820c2dbc934e84U, 0xbeacd9a6be221fe8U,
  0xbc72382e3e918b78U, 0x3e057199becdc843U, 0x3ded0f3fbd2137d7U, 0xbdd5f1813ccd5eccU,
  0x3d16fd0c3c475280U, 0xbebaa0adbea5d5a9U, 0xbdb5658f3cf94543U, 0x26f851bd3cb3d8cdU,
  0x3db1307f3ee02bc9U, 0xbcb4636ba93e9d3aU, 0xbdc11b7fbdbc4e0dU, 0x3dca9ed03e76653fU,
  0xbc14eb62bd9c5891U, 0xbd264bc33f52961fU, 0x3c9b2ba93c9c6bf4U, 0x3d3f08b53d9ed4aaU,
  0x3c71abc53f1abc85U, 0x3c6d1c503e4598cfU, 0x3dc6970c3dafcd63U, 0x3da74cffbd394febU,
  0x3b94d7e83a819aaaU, 0x3d56ad5c3d7a2d5cU, 0x3d43cf3abe9d6d3bU, 0xa7f65bdbbf4389bdU,
  0xbd277e8a3e3b7ba0U, 0xbe202505289b0087U, 0x3d3751063bf62bb2U, 0x3d1ec56ebeccdd37U,
  0x3d4fb67cbb010cd4U, 0xbbc1cf303d3ed01eU, 0x3d7647573dc412d5U, 0xbc08e10e3cc3ec42U,
  0x3cc287753d93e77aU, 0x3c602f6e3da36b79U, 0x3d4fab083f959be1U, 0x3d133603bf2551b0U,
  0xbdf15d7ebdbbce95U, 0xbddc55a33de1b0feU, 0x3c7072323c6353dcU, 0x290b6c7bbcbc78c2U,
  0xbc9e5c63be060c0dU, 0x3b0340412895dacaU, 0x3d17de573d1ee74bU, 0x3d38b52b3dbd33b0U,
  0x3c8625e8bd343344U, 0xbd0da669bcc2a145U, 0xbcb8d567bc196500U, 0xbd0b1a24bda21fb0U,
  0xbcd4b411be5f3878U, 0x3b0d60713e755b6dU, 0x3d557c893caeb130U, 0x3e4c15b63cd6e1a3U,
  0xbcd2ecad3db92b11U, 0x3d1c8b313dbe22d8U, 0xbdba0254beff1895U, 0x29625f2dbd3c2669U,
  0x3c9a73f5bbfd14e7U, 0x3e1c71a8a8df64eeU, 0xbbd94b503c991304U, 0xbbee78f13ec91e78U,
  0xbdbbc4773c883267U, 0xbb35105d3ca3c6aaU, 0x3d5374bb3c763228U, 0x3cd875d73cd8cdd2U,
  0x3d196a6f3d6f11a7U, 0xbd214b86bc8805a3U, 0x3d86b87a3edf81f9U, 0x3dec817cbe9608d3U,
  0x3dea46b93e6c3fe9U, 0x3b1ead08bda95553U, 0xbd6877023d08f5ceU, 0xa88dccabbcf18d71U,
  0x3cf99a863d9f0e54U, 0xbb8ca4eca858b7b9U, 0x3da61204bdd5f9e7U, 0xbd79a25d3e722fc3U,
  0xbcfae3b73b83682fU, 0x3db52dd0bcfc2cf6U, 0x3bcaa744bc40357dU, 0xbe07df853d5060cbU,
  0x3cd0425b3db3bd51U, 0xbd26dc603a092aa4U, 0xbdd10097bc3fea5fU, 0xbd2142c83cb3ac76U,
  0xbe4c4a203e1ebeccU, 0x3cda5c983c65e3f9U, 0x3c8e71893b73ce43U, 0x2970ddffbcb70845U,
  0x3da70bb23e215a0cU, 0xbbf8d4e2a8a14225U, 0x3dbf0e513e0c0e38U, 0x3e92ed2d3e407c73U,
  0xbd3ec6fbbe694714U, 0xbe66f65e3e379d62U, 0xbd962286bcf35633U, 0xbeafeb05be16f1edU,
  0x3c66d17e3ef17c72U, 0xbd93aede3dd102d7U, 0x3daed0fabd314c9dU, 0x3d53420ebd891e50U,
  0xbd18514f3d382873U, 0xbdf4772cbea90b84U, 0xbc7e6cd93cfa7aafU, 0x28e9b86ebc173eceU,
  0xbc9d29aebddf4441U, 0x3cc7574828e08332U, 0x3da19a35bd0fbd75U, 0x3e636e6e3d8a15fcU,
  0xbc9ba89bbcfb1f4fU, 0x3d4fb2f6bda49897U, 0x3f22a55bbcbfe845U, 0xbd8620a8be478603U,
  0x3ee8851bbdf2faecU, 0x3d276c1bbedc8e79U, 0x3d21008d3c47bfd0U, 0x3e0e55e93d29912aU,
  0x3d2db0be3cc5e81fU, 0x3d99955f3d478760U, 0x3e85a4fabd84efbbU, 0xa7abdb743e2ccb61U,
  0x3d95787dbe851bdcU, 0x3de62e5c27185257U, 0x3dceaf0e3ce74b27U, 0x3d8b9ca13e0546c8U,
  0x3e8c40d6bce0450eU, 0x3db03aef3db8b067U, 0x3a18a1293e826072U, 0xbdbffab93e828c5dU,
  0xbd2fe938bdeaaaf1U, 0xbd6a006e3eac1da7U, 0x3953bd9b3e5d8ec8U, 0x3d77f703be09f8abU,
  0x3a2e651dbc342143U, 0xbb407b1bbd94de12U, 0xbe00d27dbe2a68c4U, 0xa831715b3db9bd88U,
  0xbd101dd03eae20cdU, 0xbcb41ce528ad2794U, 0x3cb9d3ec3901429fU, 0x3b81ec083f6a7551U,
  0xbccc382cbc104be1U, 0xbcc451f2bd25b55fU, 0xbd78e2c7bd4fe45dU, 0xbba694f33d352ab8U,
  0xba67ffdebdae8537U, 0xbc1fad3f3d04ca11U, 0xbb67ef9d3dd63aaeU, 0xbdaa0998bc24543eU,
  0xbbca79fabc477824U, 0x3cf8fc1b3deb7450U, 0x3dd36c61befab95aU, 0x2916cde43ef016cbU,
  0x3c6f37a1bbac8d59U, 0x3bef924d2929e63aU, 0x3d37cd0b3ad9dd31U, 0x3d0fd8f9be8a4464U,
  0x3d0ead143b2e7559U, 0xbccb3ef33d16f17fU, 0x3d9ea48fbd09d5cbU, 0x3afb3db93cf85017U,
  0x3cd1f12e3d3d9ee3U, 0x3bcac71c3db397e4U, 0x3d584f05bf63cd19U, 0x3d21f637bf70ace4U,
  0x3d4a7c07be264bffU, 0xbed515953d5b311cU, 0xbba616f6bd27c3d5U, 0xa8c6a3c03bb014bcU,
  0xbc4710373d8cf568U, 0xbc28035727b31909U, 0x3ddef5203d16b01aU, 0x3ebb911b3d2f880cU,
  0xbe0e3166bbc1f99bU, 0xbc1fd53d3d4ab0aaU, 0xbdf3b1ffbb33dd26U, 0x3c84fe683d8f8e74U,
  0x3d8bf95c3d84f94cU, 0xbce9aeefbe6004cbU, 0xbeebd8bebc813d7fU, 0xbe9fe814bd0b84b9U,
  0xbe65c7f73dae8129U, 0x3e263a1ebcf68a72U, 0xbd768b993c70e0e8U, 0xa86445c03ce8ecb4U,
  0xbc371cc33e6234b7U, 0x3be3b76528b48f51U, 0xbea2e5833b9770deU, 0xbe634cf13e55329aU,
  0xbdea76aa3ced94aaU, 0x3ea57a703c2a153cU, 0x3d629706bc7526d2U, 0x38f7f7733ed05a89U,
  0xbd20c01b3e1f8935U, 0xbcbb8806bec29dc4U, 0xbe43d4d73cbaa9f3U, 0x3f5ac9f9bcc10879U,
  0x3bdd4a013cf9dee5U, 0xbcb9797f3e343aebU, 0xbf8417adbd140c36U, 0x22e6418c3f00f889U,
  0xbe0bb59c3eca4df8U, 0xbde55b2ca856d8c2U, 0x3bc45901bb0a06ebU, 0x3d9fc55abd69bc92U,
  0x3d99b112bcbda148U, 0x3cbd63533d9abdd9U, 0x3da0b6c4bf07b7bdU, 0xbc25dd683d27ebcbU,
  0xbd2b869cb99b2a66U, 0xbcfe38a23dea1290U, 0xbd65f3223e20d078U, 0x3ca5ee31bd50c8deU,
  0xbcf9f3f7bc5f0728U, 0xbcc0a7f93bb8617cU, 0xbde6a68c3ea1470eU, 0xa7e4a3a3be443134U,
  0xbd5a0d48bf1158feU, 0xbd86a9df28404500U, 0xbdd3203abb84236eU, 0x3da5ffcabe315543U,
  0x3e6ecef5bcb24bddU, 0xbd41dcccbd82bb47U, 0xbc25b02cbde660bcU, 0x3cb6d4203b683d4fU,
  0x3ccf29ba3e3c6edeU, 0xbcc78001be214ef8U, 0xbc3b3cc6be102976U, 0xbd5442253ea99178U,
  0x3bf245c8bdd5ed8fU, 0x3ebedd0d3e2d6f7cU, 0xbc9fb76c3cdac203U, 0x274205b3bd20ab4dU,
  0xbd2f1c2c3d41f466U, 0xbc0e9caca82b85c2U, 0x3e195a113d77f5f2U, 0xbd972782bca5e95aU,
  0xbd6f75eebc967544U, 0x3d051a773f448422U, 0xbe0164343c88e4c4U, 0x3e968fa4bcf4d480U,
  0xbd5e64093f02a007U, 0xbc864014be9df407U, 0xbe054eeabd2e2b06U, 0xbe01c5823c928b4dU,
  0xb85ca7e23d1944cdU, 0x3cfafe063da76712U, 0xbe0e1552beaddbb2U, 0xa9122284be9177b2U,
  0x3c62f7b8bdcc1618U, 0x3dc9141a2823d0a7U, 0xbcf29fe83be818ceU, 0xbcd5d4ea3e99e0e8U,
  0xbd0a34693cbd5b96U, 0x3cd571403cde528bU, 0x3d7fb19ebd2236dcU, 0x3c9bd759be243ed5U,
  0x3c1ffe093b781edeU, 0xbc571fd1bd3ed0deU, 0x3cbe77933ebc9528U, 0xbe384c21be976d03U,
  0xbbb202a8bd65e4f9U, 0x3f0857cd3ea68e29U, 0x3c1393863ca7fd28U, 0x26a4b60fbd41a84dU,
  0xbd6ab369bdc0d3d2U, 0xbc0fe07ca8dfe2c2U, 0x3c9499ed3d18f732U, 0xbde8f9e5be83a6b0U,
  0xbd13a2a13db0ba9fU, 0xbb4d4600bf6379b5U, 0xbd9cc1033ca63f33U, 0xbe397b813cd92417U,
  0xb9ff1b4bbf1e6488U, 0xbaa543963d29158eU, 0x3d176d02bc8d9a0bU, 0xbd6cd6f73c551044U,
  0x2b9fc1d72c045430U, 0xaa32507dab55eb7eU, 0x2c15d420ab9f6468U, 0x2bc194ec2ac451d0U,
  0xaa2413e02b6b92eeU, 0x2ab6284f2be27d9fU, 0xab1373d32a891e0eU, 0x2be70c13a9be257cU,
  0xa9424c2faabeadc3U, 0xab394eb029d92f34U, 0xaa1edd60ab1a8872U, 0xab7ea2beabbfa806U,
  0xab3fa18e2aa990f7U, 0xab7fdc252c2e6da0U, 0x2baf6f63ab0dce18U, 0x2bae85742b391d22U,
  0xbd64a4463ddb033dU, 0x3da594d6be4313f4U, 0xbc8d7a4fbc9a0659U, 0xa7711d123c260fdfU,
  0xbc6f6fe3bd2736e0U, 0x3acbae2828db65b2U, 0xbe64624fbd5f6824U, 0x3ee10ad03e0cf63dU,
  0xbb479ef6bd4690a3U, 0x3d2641853d3c463bU, 0x3d7f31493c585df0U, 0x3e2fc288bcd4a779U,
  0x3c71e0f23d56cedcU, 0xbd4850b2be56c88bU, 0x3ebdb51b3c43f152U, 0x3e3072abbcfe04c6U,
  0xbf0feec83e9aaeecU, 0x3d2e3e76be221a83U, 0x3df2ff0cbda0e355U, 0xa92ef0dd3cb81439U,
  0xbd2c29f03deafc70U, 0xbd6543f727d7a390U, 0x3e7f6acbbd09f203U, 0xbe76c78f3d301219U,
  0xbfa9054f3dd19fa1U, 0xbed9436cbde525e9U, 0xbceda1c03d58fe30U, 0x3dd424afbe3464abU,
  0x39f21ac2bce1e8ebU, 0xbe7d1d8d3cf6932bU, 0xbdc9072b3bca3453U, 0xbd855ee7be426573U,
  0x3cd488e5bcf2c3d8U, 0xbd91cee9be1e81bcU, 0xbb976b1dbdfc1d9cU, 0x25ebb9773b4d4cbeU,
  0xbd94bf01be89707dU, 0x3b1ecae8a8151ed8U, 0xbd8b8d0abdb34c06U, 0x3e75ae413dbf412aU,
  0x3d5a2280bdbda8deU, 0xbda7443a3efebe95U, 0x3c74a3c93ca85c66U, 0x3c9f1a143ddc4cf6U,
  0x3cc1d7c43efa66d4U, 0x3ce0ef6e3e1472fbU, 0x3d9b9bc93c07b173U, 0x3d9f7183bde4fdb0U,
  0xbd3c98253b8d9285U, 0xbdca3a95bed404beU, 0xbba6b6d63dc31bc1U, 0x27943f813c4bb106U,
  0x3980275abd3c5b1cU, 0xbaff8487284ca65aU, 0x3e2d7be3bd99f3ffU, 0xbebf9fc8be8efd81U,
  0x3d00d98f3ea02703U, 0xbd4200d6bd259e3aU, 0xbe3e279a3da2ae9eU, 0xbd5da47ebe3033e7U,
  0x3cf83943bf64861aU, 0xbcb0be46bcbce1d4U, 0xbe3189833ce9817eU, 0xbd97f0db3d2fcb46U,
  0xbf16aa3b3debd65eU, 0xbd0b507e3ec17d7bU, 0xbd6304bb3d62999dU, 0xa86063bf3cb5991bU,
  0x3b021e553e163623U, 0x3d0dd72928b82426U, 0x3ec46f653e6d16f9U, 0x3ea1f7043e146758U,
  0xbd96bff7be59b364U, 0xbf185d683e54d739U, 0x3e070b1b3a5ca2d5U, 0xbe893b2b3da69115U,
  0x3c94aec43e01a348U, 0xbddb2d2e3e3578dcU, 0x3e8a365c3e17473dU, 0x3e4eb0a73e084385U,
  0xbc3f05b53ce1d2c9U, 0xbe5a16a73e76f93aU, 0xbd05d4e43ce0edb6U, 0x282fd6193d7a955bU,
  0x3d816d213e6917c0U, 0x3c9b2018273a8766U, 0x3d2a33a53d876118U, 0xbdf485da3dfe0c68U,
  0xbcb9f473bd0f0fe2U, 0x3cd9c942bd402ba5U, 0x3c8d57f5bdbeae64U, 0xbe1f2d9ebcd0cf18U,
  0xbcafba49bcfbf67dU, 0x3c626a90beaf379bU, 0x3dbc90eb3d54f512U, 0xbb9a31c13d03ef19U,
  0x3dbb96ec3c99badcU, 0x3dd9f0ff3e0c194aU, 0xbdfbb9adbe871422U, 0x28a2ea903c8d8089U,
  0xbf9f7249bd37c4fcU, 0x3e41f4c02959ef2dU, 0xbda2e87fbe08d0e6U, 0x3e8880bf3e8e57e8U,
  0xbcef38aabd7b8e51U, 0x3dd76fbb3ad8118aU, 0x3c89f196bdc0b2a0U, 0xbc04e9583d2602daU,
  0xbd1ed5953e3b1f68U, 0xbd3b9ab3bd5c42b7U, 0xbe2be46d3e12e7b4U, 0xbd6977c2be7ef5eaU,
  0x3d8135b1bd0d3b00U, 0x3e80b359bf24cbdfU, 0xbdd3c362bd2a4e5fU, 0x28e52467bc43b089U,
  0xbe9ad1e33b271e7fU, 0xbced7b91a792eb76U, 0x3e118cef3d535861U, 0x3e10ca86bd632820U,
  0x3e568923bcb718e1U, 0x3dacbc2cbd91cb1aU, 0xbea810563daeba4dU, 0xbdf7843e3e68b7ddU,
  0x3d0fa6a3be21e33eU, 0xbdaafa093dc56ce8U, 0x3d9e33f6bde26a69U, 0xbd8ea00abc96d7d2U,
  0x3d3e4a00bcbd892fU, 0x3db83023bd3b1df5U, 0x3c621919bcbf33aaU, 0x2927f0413d39eaa4U,
  0x3bbb459dbe15a458U, 0x3b939883285c49fdU, 0xbd99f1513c7ca311U, 0xbc636f56be5f9ff6U,
  0xbc5272fd3d0cc0d8U, 0xbcfd49993c8c6ba4U, 0x3aa41b943c687455U, 0x3db153893d37900bU,
  0x3cacc78e3de18db6U, 0x3c343fb4be769256U, 0x3c982dec3dc3d674U, 0xbe6d94ce3cacb679U,
  0xbbfa72d2ba068110U, 0x3b9be0183e66e3c5U, 0xbc4a0f80bccacd9fU, 0xa960d4a3bce12324U,
  0xbd546f65be974feeU, 0x3c8d08c328fc5660U, 0x3c38628a3d5ea2ecU, 0xb9ee04d83d9de382U,
  0x3d5836efbd8fbcbbU, 0xbbd6f5dfbe2b4f85U, 0x3c827fe7bd864e0cU, 0xbddd93f63b76b43eU,
  0xbc356db73dc6d72aU, 0x3c7d0410be8bdce0U, 0x3d9e44b9bd0c83bcU, 0x3c499062bd253c8eU,
  0x3ea59cfa3c13e176U, 0xbd1f7f65bd97eae4U, 0xbcec3e7abd7308a1U, 0x289149893d31e66bU,
  0xbc58f8d8be160058U, 0xbc30e82ca785f1f8U, 0x3d1548ccbc54e911U, 0x3c7fb8b7be0f3cc1U,
  0xbe8476fc3c6532ddU, 0xbeb6f835bdc33418U, 0x3e55c1893c85260cU, 0xbc5daab73e028ef0U,
  0xbe03baa9bc45a78fU, 0xbd750d52bdfe8e0aU, 0x3e7d4e71bcc94883U, 0xbf8e40f7bdd705d3U,
  0xbde9199dbe159ce9U, 0xbd91414c3d50b58fU, 0xbe05067a3d747dc3U, 0xa8db7ad4bd37cc83U,
  0xbb4d30e9bd47f9edU, 0x3e5ccc4aa7d5465cU, 0x3e820d5bbd2e6eadU, 0xbe6a9bf8be1022afU,
  0xbe2e6331bc54c85cU, 0xbe8d51cd3c46e814U, 0xbb6db754bdd0f0a2U, 0x3cf6323c3e858b32U,
  0x3c22c4a13c9e068dU, 0x3e83074d3e6cdb46U, 0x3d76390a3d12b239U, 0x3e6a29ba3e14ad70U,
  0xbfa875194074216cU, 0x4087e1b5bfc4d8eaU, 0x3f83b5244039a843U, 0xbfb27d4d3f723cccU,
  0xbfcf3f443dce8c0fU, 0x41074c013dcb2020U, 0xc017726f404cac81U, 0x40a8c00c3ecdc7c0U,
  0x4073073cc04296feU, 0x3d96b5954050c896U, 0x407e2466c018dabbU, 0x409482e73f8e68b6U,
  0x4010b3224067b334U, 0x40727398be894337U, 0x407c5e964026952aU, 0xbef9ef1e406dc44fU,
  0x3edb32063e8ece1eU, 0x3ef43b733e3c418aU, 0x3eac54313f1d7587U, 0x3eb917df3e5adfecU,
  0x3e3b7d513e15f682U, 0x3e2e221d3e9b72eaU, 0x3ed2df333e8d038cU, 0x3dfb7e4e3e65599dU,
  0x3dc2f22f3e4e8a0eU, 0xbcad990fbcf67ebdU, 0xbe59d5c1bceeb261U, 0xbe296e60bebe13daU,
  0x3f2bb5203edba760U, 0x3da039c03e8a1967U, 0x3dc333a13e155f40U, 0x3e805eb83e199795U,
  0x3db34cad3e29858fU, 0x3dc4a6363e188561U, 0xbf57a9033f0b4323U, 0xbf3589ca3e85823eU,
  0xbed9cd253f98409fU, 0xbeaf26b33e2f7a7bU, 0xbdf06f2f3e2c8339U, 0xbe4a0c363ebb017cU,
  0x3f0d7a7fbe531a5bU, 0xbde311f5beb70160U, 0xbe3651183e73a6b8U, 0xbf1eea073f0e1e14U,
  0xbeed36da3e05e86eU, 0xbe5e58e93f53c1afU, 0xbda0800c3cf9a152U, 0x3e68d6a43de4d861U,
  0x3e1fbad73e9e481fU, 0x3ed3420e3e88aebaU, 0x3db49b2d3e5cc4a2U, 0x3dc526a83e38d2c0U,
  0xbec19d94be68580aU, 0xbeaff1cbbe2047b5U, 0xbe853d37bf105b59U, 0xbe663bb2be14aeb5U,
  0xbe7d0accbdd60c5aU, 0xbe0f9693beb0198aU, 0xbed871e9be9170fbU, 0xbd963c7abe3509a9U,
  0xbd0b88c9bde9bac9U, 0xbe99a708be5bf097U, 0xbea31c06bdbc43f3U, 0xbe200662bedffd66U,
  0xbe24ff2cbdd2e594U, 0x3deff533bd6562ffU, 0x3decd0183e50e437U, 0x3e9a90e93e3e5658U,
  0x3d9be6643e2620bbU, 0x3dc844b73e21ade7U, 0xbeb26418be5cf979U, 0xbee51185be22b713U,
  0xbe8f3057bf269f12U, 0xbebe9f04be8fb8faU, 0xbe10ff6fbe098d62U, 0xbe524105beb3db8aU,
  0xbeea6098be553d6eU, 0xbdb2a39cbe8a41a6U, 0xbde889c1be3c6a35U, 0x3e4429f03dc2c2f8U,
  0x3e38d8d83ddad0daU, 0x3e2c57f73ea84befU, 0x3e35506e3dd3a509U, 0x3edd03513dab61bdU,
  0x3dcda0b53ee329dfU, 0x3e9204fe3edc2091U, 0x3d8f696abdd64452U, 0xbe8406febdf68800U,
  0xbeaccbafbe858e33U, 0xbedad2e7bdef9253U, 0xbe55f111bf0dfa23U, 0xbe7b7e4dbe2b2e1eU,
  0x3ef2bb5abdaa543aU, 0xbc724f4fbeeba10dU, 0xbf2e27e63f474217U, 0x3eac2c50bd54a24bU,
  0xbdb9447ebeb472c7U, 0xbe8a9a7cbe444683U, 0xbec4a179bde6e797U, 0xbe84701cbf12d454U,
  0xbe9c270bbe4f17eeU, 0xbe6224bdbe01ab0dU, 0xbda84910bea4e03eU, 0x3eef1d36be17ef7fU,
  0x3f1b91903e1987beU, 0x3ec8526c3e13430eU, 0xbed97463be86f95bU, 0xbeda4b2ebe446ecdU,
  0xbe9f60babf279b59U, 0xbe9e9686be4d7163U, 0x3de516d2be0858a2U, 0x3e2c01d93e81808fU,
  0x3eb461a33e3fac44U, 0x3db0cb853e6be691U, 0x3d91b5263e19b109U, 0xbeccfa74be757ebfU,
  0x3ec881e9be4eaf55U, 0x3e82972a3f2c3f98U, 0xbe09a4bcbd3c90e7U, 0xbdf31b02bda7b681U,
  0xbd969ec5be35b93cU, 0xbecc8a84be9798dcU, 0xbe4384cdbe237169U, 0xbdea32fabe8ad6b6U,
  0xbe66a08dbe28e91bU, 0xbe616729bdad4025U, 0xbe10f06fbe9c9097U, 0xbdfc450cbdabeff8U,
  0xbec03186bd2b7d50U, 0xbf0263a2bf63447eU, 0x3f18bb1f3eb3f9ccU, 0x3bb304783eb2cb5bU,
  0x3d91577bbcd1f2fbU, 0x3e98a8833e435d4cU, 0x3e9561593e1389d8U, 0x3e89e89a3f0a8c4dU,
  0x3e8b31e63e05f6c8U, 0xbe62eb903e1aa49bU, 0xbe082990be9a64cfU, 0xbed14f0ebe914650U,
  0xbdba5653be2d0c55U, 0xbd653718be15bd12U, 0xbf73c41e3f291b1eU, 0xbf5ff8d63e8f2c00U,
  0xbefa548a3fa1ad9aU, 0xbebbd0283e3db54fU, 0x3e52350d3e5f75cbU, 0x3e8d87463edc8253U,
  0xbf738ca1bf01b4b6U, 0x3e2a1649bef34abbU, 0x3e518d3e3ec47eb9U, 0x3e901d1b3e594311U,
  0x3e8e83c33de306bbU, 0x3e0e8b493ec1ea98U, 0x3e149f6d3dddfca6U, 0x3e4dea483d390e70U,
  0x3e2bcc3d3eadcec3U, 0x3ef490803e9fe438U, 0x3e0e29523e512633U, 0x3d58f7673e43ea30U,
  0x3e9b96903f7881d2U, 0x3ec5b470bfad4114U, 0x3c9e98a4bd1577ffU, 0x3e410220bf336521U,
  0x40d5057240ba3badU, 0x3f8e446b40fd0617U, 0x40bd53d640b741f0U, 0xc017d64abf52d2f0U,
  0x3e31e1cc40bbaffbU, 0xbebc1ae140bb4575U, 0x3ee1722240b8f755U, 0x40b40021bf35422eU,
  0x3f5fca9b41090265U, 0x4106c37a3f7d3a8aU, 0x3f5922793e4d304dU, 0x3e7935643dec60a0U,
  0xbe9211a13bdadf07U, 0xbd0f9c6e3c2945ecU, 0xbc9375c9be2374ccU, 0x3f2fba94be1b2315U,
  0x3e2d6999bc5ba48aU, 0xbd3d2a37bb86d61eU, 0xbd2c9a75be1a60a1U, 0xbe58349cbc035efbU,
  0xbc37b1e83b071b67U, 0x28b4fc133cf1df20U, 0x3ec6d97abd1c6895U, 0x3ed68e363cd83d70U,
  0xbd0ede00bea9cd2fU, 0x3d02a8003dac0bdaU, 0xbde3f4cfbe3c964cU, 0xbd2132e4bc767cc4U,
  0xbd85f7643c0983bbU, 0x3b1544d7bb6ad560U, 0xbd3d1bff3d8a30a9U, 0xbe408a5e3dd39713U,
  0xbe58b3583cd77700U, 0x3cfad402bd0fff10U, 0x3f11ec193dc9e4d2U, 0x3dc568693dfc8c0bU,
  0xbc7b3730bf39c383U, 0xa8509b87bf399062U, 0x3e288b6dbd88ee7aU, 0x3ec067233cdeb969U,
  0xbc1f53c83d2f6222U, 0x3e6d1006bca2a713U, 0x3ae95d213da2d884U, 0x3ca41e2abf0bdf27U,
  0x3c3fbf553e0751c3U, 0x3db296d43ebe3093U, 0x3d035e423dabd02fU, 0x3d6b0c63bbef3c11U,
  0xbdd297133e0db9c3U, 0x3e015389bdbeb2c4U, 0xbe11629a3edbf407U, 0x3e9a90263d28bb90U,
  0x3d985a45400a34f2U, 0xa8e2cb6fbf6e81a1U, 0xbdc80f633f06aec2U, 0xbe3306783ef0c936U,
  0x3f16e907be4a7517U, 0x3e06def73d82f98fU, 0x3f2b49683d116cd9U, 0xbcc2e8f73dd50a60U,
  0x3eedc209bc4380bfU, 0x3d2e907a3d4f8b68U, 0xbdbc175fbcffecbfU, 0xbea84a00bc2255e4U,
  0xbd79d0a5bd50577bU, 0x3d11aa9bbd0717fdU, 0x3c16d4503d950efeU, 0x3d4d456c3d03a1c2U,
  0xbd8cfdb9bd046bbdU, 0xa889c986bc2350d9U, 0xbf46d0a93c5218a7U, 0x3d98ba793d512ec8U,
  0xbda700aa3ef7a3f0U, 0x3df670723d88a1e6U, 0xbde48280bb3b48c4U, 0x3c1f02063b2c9ebfU,
  0xbd54959cbd527f9aU, 0xbf1bd76fbc091bfdU, 0xbd54d2ecbc86edccU, 0xbd25f107bbfc548aU,
  0x3db09244bc057d9fU, 0x3f03c4dfbe78777eU, 0x3c4c0b6d3cbf91bdU, 0xbc4ce8cbbd4bfbddU,
  0xbcac6527bb3af449U, 0x270273c43ad84b5aU, 0x3d7ebbfc3c86d62dU, 0xbc2532b1bc375176U,
  0xbbda80403bced7e4U, 0xbd3936bd3ba96ebeU, 0xbb3943f2bc8a52d7U, 0xbdef142abc9016a3U,
  0xbd475e243e3bc42fU, 0xbe6479debe1d364dU, 0x3f32384c3ced52c3U, 0xbdd8d77bbcb8e6e0U,
  0x3ee38896bd9b3d04U, 0xbdd36ebe3c10cef1U, 0x3d921c51bdb5c672U, 0xbe996c2dbd6d0905U,
  0x3f21866abe0cc198U, 0xa6764f943d1cfa0bU, 0x3e145444bd9cd678U, 0x3cb4923fbe4829b8U,
  0xbcd228d7be49ba8eU, 0xbda7878f4009d6b9U, 0x3cb789813d0c2ba6U, 0xbf426bc8bd6d981aU,
  0x3d4310c3be0540e3U, 0xbf0a34873b3c3f5cU, 0xbc8a35acbd246ef4U, 0x3e0e0176bbeb4959U,
  0x3e5d70b33d842030U, 0xbda62cd9bf468c79U, 0xbd9236293b74551eU, 0x3e7872e3be8c170aU,
  0x3cf3d46c3dfb944fU, 0xa563ed003dd525a5U, 0xbe1bf29d3d2c76b8U, 0x3eeede81ba37025bU,
  0xbe3bf377be349e83U, 0xbdb967b0bdc9f459U, 0xbe5b403fbd553829U, 0x3c89706ebc8e75fcU,
  0x3d8b0d953d7fcb09U, 0xbd43206d3daaf9b7U, 0xbdbbe0173d104c1aU, 0x3debc32e3d21b162U,
  0xbd8bf933bdc06d92U, 0xbd0d7764bca59f65U, 0x3ca8ae0ebc8b162eU, 0xbd2d634c3e2515d3U,
  0xbda15360becbbe4aU, 0x28a8cf52bebfabb5U, 0xbdb9c059be01ccaaU, 0xbd5e5ab83e10af2cU,
  0x3e04b0a5bcd06e0eU, 0x3ef5205ebc44d690U, 0x3dc808f43d39450bU, 0xbe0b425c3d8af88fU,
  0xbd27e4c2bdb36f33U, 0xbb1edac2bdcebb76U, 0xbe0ee3223f37e8feU, 0x3c8b4a633f2f064dU,
  0x3e4db981bf69a899U, 0xbcefa8083d056339U, 0x3eab03ddbe5c0862U, 0xbe36cfa8bc91e2d3U,
  0xbdfd449e3dd9880dU, 0x2817c8b83d9085aaU, 0xbdd46421be80c084U, 0xbb0cb3debe222773U,
  0xbddecb10bdbbfc8dU, 0x3c9874903cdd8103U, 0xbd7fab7a3f310aabU, 0xbe1c9b2ebe1fa7e5U,
  0xbd96bb77bec07de2U, 0x3c4567ff3e1b6f13U, 0x3d4d4bcbbdb4237fU, 0xbe4b2151bc842c0dU,
  0x3d59db9e3d6ef311U, 0xbbc8acffbd87d944U, 0x3c1c31b2bc132638U, 0xbb910947bdfca69fU,
  0x3d92c45cbee81a6eU, 0xa86833023fd6a3cdU, 0xbd75eb1cbdc6a641U, 0xbd6c03f13f8b67e2U,
  0x3f73d2613bb22b1fU, 0xbde3b8c4be11b33dU, 0x3f0439d6bdb44c6aU, 0x3c9b44983d8f2664U,
  0x3d592931bb5ce375U, 0xbdca979ebc3e5f1bU, 0xbcc5a14f3bfef09bU, 0x3d6462e43bcc078bU,
  0x3d8766c33c2c3c71U, 0xbea215853f1c38a0U, 0x3b7780843c23ba5aU, 0x3e23ef69bcb8e89cU,
  0xbcae30b4bc7935b5U, 0xa8006b3cbd21d6fcU, 0x3c8f0f123b83ce00U, 0x3d4b7c833c107f9bU,
  0xbc0ebe7e3cc7e558U, 0xbd931b11bc66566eU, 0xbc2e7fbd3c061f21U, 0xbc964b8b3ba060feU,
  0xbcca9f743d3b907dU, 0x3f57d717bbaf5da1U, 0x3b33f5cf399fe4d8U, 0x3c3a3e30bc607d21U,
  0x3c08f115bd05f242U, 0xbf42756b3d184a14U, 0xbc1d662dbbcabfe1U, 0x3d07e3803d2150dcU,
  0xbbc9fc73bcc67388U, 0x2742b16cbd139ec5U, 0xbca65bacb9e8ee94U, 0x3cc6806bbbd48044U,
  0x3ba119b3bbb0d41bU, 0xbc908be03d9ef348U, 0x3c145680bb66ab28U, 0x3c3608fd3bdd95b1U,
  0x3e454900bf1df894U, 0xbc0a221abe0b8f77U, 0xbd090aebbf384687U, 0x3df138b4bf212eb1U,
  0xbe3114debfaf60efU, 0xbc807d25bd84f5adU, 0xbe3e433b3f3ce344U, 0x3e7fb0223dda83edU,
  0xbd340d64bf6364f7U, 0x293916f6bf17c2c8U, 0x3e03b2a83f400613U, 0xbd81b595bdb41f0dU,
  0xbd8f25213d7c1c22U, 0x3dfbadb3bdc3bec7U, 0xbdfd4b8ebf303c58U, 0xbe0688823f32557dU,
  0x3ecf5ed8bda29401U, 0xbcacff89bda2fa98U, 0x3d6be273bc881c6cU, 0x3ec1beda3934b982U,
  0x3dc835613c3b992dU, 0x3d3b685e3d8def8bU, 0xbc97d3033d9e1e2bU, 0xbe30fb77b9d687ffU,
  0x3d62f4a2be256e2bU, 0x2886bd7ebd7d393dU, 0xbdc986cc3cb8393cU, 0x3f97ea0abd61f2f2U,
  0xbe782d5cbe464325U, 0x3c4f290d3e57db54U, 0xbe8e59dfbcd93f96U, 0x3d372edd3e2a2522U,
  0xbefe5f503f53c277U, 0xbb99e7ddbdbedb4aU, 0xbc955cfc3e9ab9e6U, 0x3f01ce933e4a544fU,
  0xbea1021cbea66f74U, 0x3d1fe012bda421ffU, 0xbda9e2be3fa98c9bU, 0x3e19416d3d923b00U,
  0xbd107ef6bef34088U, 0x29166ff83ecce55eU, 0xbe20ae4b3fb85d0cU, 0x3eafd863be01e557U,
  0xbdc8ac103eb1d500U, 0x3d1e489d3db4e994U, 0xbddc66a43e9a3d4cU, 0xbe8fa8a13d512dcdU,
  0xbbc4b67ebcfcf2eeU, 0xbe4174e43c90af9dU, 0xbc939dbbbc1a0fc8U, 0x3d3eb3e5bbb99c55U,
  0xbec7cab7bc5ccc2cU, 0xbd189bc5bdb68a3bU, 0x3d6550e93cc71fa5U, 0x3cc43001bf8201cdU,
  0xbc9d2dee3ad92748U, 0x281af87c3c9a484eU, 0xbcf32a8c3cbbbc54U, 0x3caaeeee3c8dbe46U,
  0x3cb1d73bbcde9415U, 0x3e2e4891bd36d6bcU, 0x3ccec1c8bc257800U, 0xbc83f00dbc80e208U,
  0xbccca8bdbcc8890cU, 0xbcb466023f2418cdU, 0x3d637a773c285240U, 0xba8c842a3ca85dbbU,
  0x3c091ff43d71311aU, 0x3ad41da93db68574U, 0x3ddb8ffe3b4ea237U, 0xbe0613673c168fa6U,
  0xbb5ed3edbdf4218dU, 0x2888878c3ea8dd89U, 0x3cab2ddabd19e271U, 0x3dbeb4313e4e8621U,
  0xbd994c323d185991U, 0xbe57b680bde1b2ffU, 0x3ed2996fbc6b16a1U, 0x3c1701fd3c4558daU,
  0x3e5ded58bee4e33eU, 0x3bbf8c1dbd1ce600U, 0x3c257fedbe382491U, 0xbea026dfbe0ce24aU,
  0x3d264522bcbd6858U, 0x3c5035083d8e2b94U, 0x3dd6558fbe6fbb7cU, 0xbd136b1abd57026bU,
  0xbbbb0d083dec6805U, 0xa823f9ccbdd689aaU, 0x3d44763bbe909a26U, 0xbda85b20bd0db935U,
  0xbcd6b0cebe775b93U, 0x3c99eb36bcf4b140U, 0xbca64b6ebe38922bU, 0x3d1902db3d3b52eaU,
  0x3e2aa5f6bcc2cc97U, 0x3f2d6993bcc52c27U, 0xbc4c2652bcc9f8f9U, 0x3d8f4742bcc02853U,
  0x3e2444233dd6a3e4U, 0x3f673e553f801746U, 0xbc69f70b3cfceeeaU, 0xbea6839abe5f89bfU,
  0xbd3053d93c2c68efU, 0x27c14e3d3afade4eU, 0x3ba42d58bcd65579U, 0x3dd370873d78731eU,
  0xbbb75abf3dfd93c7U, 0xbe2458603ce3234bU, 0xbd2c255cbcdd4677U, 0xbdab32e83d2faf7bU,
  0x3dc43af73c30a47dU, 0xbfca4a373c40243bU, 0xbaa561bdbdc19f2fU, 0xbd67ee69bdc61b5fU,
  0xbede95903ce8752eU, 0xbe28c7613d8a0128U, 0x3c7036583e00c5ceU, 0xbeb07b6dbd358286U,
  0x3d8dca2b3cfd123aU, 0x27fff0013daf68d9U, 0x3d5da0203d8be894U, 0x3d97c99abc3b5b53U,
  0xbd85c9263cb9ec0fU, 0x3ef9d7573ec48b5dU, 0xbd889134bdc97c8dU, 0xb96f44083da99926U,
  0x3d2f0d603d2c552dU, 0x3e0ab59c3e31e73aU, 0x3d5a4bdcbc882b99U, 0x3dc63936bca35114U,
  0xbe7587db3d8d5f02U, 0x3ef79a7fbe8efe07U, 0xbe0a64063d2a6860U, 0x3fc24969bd33c8a5U,
  0xbd81a9e4bd068d9aU, 0x285157f83d8ee1ffU, 0xbec7f3d83d8c10f3U, 0x3e8361d33d92c3d7U,
  0x3d096652bc963c68U, 0x3e9af9c03db40f0eU, 0x3c55297cbccbb0f2U, 0xbe00b6d83c9d1557U,
  0x3bbed6f1ba98e291U, 0x3d7a159a3c25092aU, 0xbdbe59fa3dd011fdU, 0x3d68b2c63dd9840bU,
  0xbe24616dbe66d77cU, 0x3e586697bc3f1bf2U, 0x3d97258ebd786c18U, 0xbcb846a83e49440dU,
  0xbd8b1a9ebeea9ae3U, 0x26da794bbef10034U, 0xbd97ae16be4a90d9U, 0xbd3bf28f3d7ebf06U,
  0x3d11cace3a811d7fU, 0x3edf667b3cbe6d35U, 0x3d85f7e03de6da0aU, 0xbd8693fb3da1ea0aU,
  0xbcc68ddcbc39312dU, 0x3f2d0f8ebbe1bc0aU, 0xbb0c6508ba15a03bU, 0xbc217569bb08488aU,
  0x3d4c15b13aea0faeU, 0xbeece096bd8ff849U, 0xbc572ee7bb89bc93U, 0x3cd6df0f3d894304U,
  0xbc63bf1f3bee9e70U, 0xa7a31f5dbc3571eaU, 0xbb1f986c3b84e988U, 0xbb4fbd82bc804b16U,
  0x3a3b60843a3e0a59U, 0xbc942e443d93f110U, 0x3c1dad48bb1a8f5dU, 0x3c7cf54e3c178ae7U,
  0x3ce61f633e97fd0cU, 0x3e31de073d639688U, 0x3d32704b3d835c96U, 0x3db7adb73d1726fdU,
  0xbec3c5a1bd386b44U, 0x3e783a1e3e055e24U, 0xbd9b106cbc9c5f22U, 0x3dc82f783dc0819aU,
  0x3db2f2fcbe399c73U, 0xa8aeb94bbd8542a2U, 0x3c6f280ebd5a593bU, 0xbdb9bf253d95cf5aU,
  0x3d973ea23d56cdb8U, 0x3e8f6c2f3de27246U, 0x3d930e2a3d946064U, 0x3d786db23c8ecc85U,
  0xbc16a6b43badfdf8U, 0x3d7408d13cc2e161U, 0x3d668c86bbb94666U, 0xbd914e14bc0cba65U,
  0xbe4ae82a3c8c8144U, 0x3f0b73e9bedc19e7U, 0xbcfd04b93c0392b6U, 0x3e33c24ebd260ffdU,
  0x3d6a72df3cc78bfcU, 0xa83f03af3d18c7f7U, 0x3ca490933b0eca5aU, 0xbe0360663c75f8dbU,
  0x3ca607fc3d4d25faU, 0x3dc0894b3b5c3a2eU, 0x3d73b06a3b2ee867U, 0x3cefc6373b543e2dU,
  0x3eba9096bee3343aU, 0x3cca83c43dad781eU, 0xbe41996dbd27f948U, 0xbe245a08bc4d1285U,
  0x3e5cd5793dd637daU, 0x3d84b16e3dde50baU, 0x3ed9ecdf3d143eafU, 0xbe6d86e03d016527U,
  0xbe3a7e3bb80b2d35U, 0x27eb095abe6a0f07U, 0xbe0c84a7beaa2881U, 0xbec2bf2e3e0cfd87U,
  0x3dd80129bef597fcU, 0x3ea53d2a3d0bfbeeU, 0x3e106755bd63d418U, 0xbeb548e5be4cc52bU,
  0xbd688efbbe610376U, 0xbc0315cebe1236daU, 0xbb65c218bbf4e5b3U, 0xbf145b2a3db3c379U,
  0xbf547131bd6c54a5U, 0x3eb96de7bed46160U, 0x3d0bb2663df900e7U, 0x3e1930d33e4b83edU,
  0xbd93c1c93c84f382U, 0xa8b20a053d21d304U, 0xbee738703e05dee3U, 0xbf6f2743be07e8d7U,
  0xbd1137dd3f6ac93eU, 0x3bd8fde43d93c04dU, 0xbdc3a055bcccb16aU, 0xbe563d583ddc42ebU,
  0x3de7deb4be6d1b04U, 0xbcf4cc89be0af591U, 0x3da2090dbe4d2b16U, 0xbd2ee8ffbe2710bcU,
  0xbe18b0c03ec6ae26U, 0xbcd5fe72bae50d5dU, 0x3f53322b3e426560U, 0x3da551a63cf16aefU,
  0x3ddf42c0be8c1727U, 0xa88e2fcfbe09f4d5U, 0x3db21ac13e7a9be2U, 0x3d8b4107be2a095eU,
  0xbe0a6a5f3e3722efU, 0xbbebd031bd0e0d18U, 0xbe02a8b2be591466U, 0x3e443b163fc6833bU,
  0x3d9713dd3b2fd10fU, 0x3f2b9415bc9d640fU, 0xbd6378e93d18b67fU, 0x3d0c44f83d717904U,
  0xbe7affc4bd66fb93U, 0xbf24d98c3d618fd8U, 0xbc94bf9a3c05bb56U, 0x3d566cb5be9fed9fU,
  0xbcc54ca3bd9627abU, 0x281cd3d5bd26a737U, 0xbd976f40bc99a25fU, 0x3daaf3cabc93ee99U,
  0xbc6cf8223c4045acU, 0x3ddbce80be12307dU, 0xbc25f95f3d2d6685U, 0xbca0391e3d6c352eU,
  0x3f44090ebf80e265U, 0xbdb445af3d2e21c6U, 0x3d0c4a2fbdf95785U, 0xbf36bddbbce7fa10U,
  0xbe47d6993e133527U, 0xbdffecf83e4c080eU, 0x3ded1e8bbf6c91dcU, 0xbd564422be82c16eU,
  0x3b4b48de3eb46e4fU, 0x28f835b2beb573ceU, 0x3ee14d7ebf8eea9aU, 0xbedba8ee3d899128U,
  0x3df1d220bedae162U, 0x3e537de3bc3cee08U, 0x3d9298b9be12b0ffU, 0x3e9b423a3e4488e2U,
  0x3b3ba5b63d442d86U, 0x3d0a7f6cbc0f903bU, 0x3dbcecf43be7d045U, 0xbc52d339baeaf788U,
  0xbe4c6961bcdd3494U, 0x3d2e84b0bd163206U, 0xbee922b5bde8a906U, 0x3d61d786bca405ceU,
  0x3dde1dde3c16d9afU, 0x2813546a3c515009U, 0x3d9477e5bd2c618fU, 0x3d85e9b0bc69447fU,
  0xbc8118803db8d62eU, 0xbda884aebcef52e0U, 0xbbb3c3fa3bc767f6U, 0x3e817bfa3ec5bea7U,
  0x3eff96693e00fde1U, 0xbb5a525a3d05683dU, 0x3d6beca43ca9767dU, 0x3ebf67193c8d5287U,
  0xbdcbe52f3db21e44U, 0xbd09f0fbbdfffab6U, 0x3dddf45dbd98cb20U, 0x3dcca8a43de2962eU,
  0x3db080b33d4e2752U, 0xa6a3fcfa3d08f12dU, 0x3ec83d8cbe396f17U, 0xbe7097713d30f372U,
  0x3ce304e93ee37efaU, 0xbd9ef893bda21ae9U, 0xbcbafb423cb11b7aU, 0x3ea470afbe25d5f0U,
  0xbcd9664b3ae76a2dU, 0x3f5273633c547188U, 0x3cb26f7bbd163966U, 0xbb094e96bd0b77afU,
  0x3d40f6833d5c17a8U, 0xbee10c54be16ba09U, 0x3c799e1ebcbc1875U, 0x3b45088c3d9b17c5U,
  0x3d34c88a3d59f0a9U, 0xa70c238b3ca6f681U, 0x3c09f94ebc72d5afU, 0xbd36e63c3c82ecbdU,
  0x3c759849ba161ff1U, 0x3c5bd46abdbc1cd2U, 0x3c1e6595bd0b8894U, 0xbd1fde92bd283658U,
  0x3d25e3413a80a488U, 0x3e61598a3d80a6b4U, 0x3cdc51523cb76eb7U, 0x3d8bc6423c98f323U,
  0xbee37c42bd320866U, 0x3e4c8d5d3e459b8fU, 0xbc6413e8be1963e9U, 0x3ce2a188bd050fd5U,
  0x3d5ec302bdf6e4acU, 0xa8c9cf3dbe2bec32U, 0x3d008b4fbe471e6eU, 0xbe25ecb03da523a2U,
  0x3d991b853cf63169U, 0x3e84df893dcbc998U, 0x3d8aeeb53d024201U, 0x3d6487633d76aa35U,
  0x3c26c6c2bdff1b47U, 0xbcca7622bd8d7fa5U, 0x3e01c7033db1d7f5U, 0xbe34c4e63da51cb9U,
  0xbe3decd7bdeaa71eU, 0xba9fdd343d7e3187U, 0xbf043889be818203U, 0x3d95b61bbdb4593aU,
  0x3e2676023da9a5f9U, 0x29004e1737d6c485U, 0x3d363bb8be07f162U, 0x3dcd2b08bdf14083U,
  0xbd62c4f2bc4f3203U, 0xbe7bdadbbdb75d98U, 0xbd0611743d966253U, 0x3ebcea313f0e7608U,
  0x3e24017bbe4c29edU, 0xbd0ed226bd804544U, 0xbebed1f2be113bccU, 0xbddd0fc0bddec2d1U,
  0xbe663d38be5621afU, 0x3dbdde2fbc711369U, 0x3fbc18b13eba1a29U, 0x3df4ecf83de53e6aU,
  0xbea0bd04bf462537U, 0x28348205bf349a7fU, 0x3ebf1fe93e0ec21cU, 0x3e9d64dfbd97602bU,
  0xbdfe89063e486580U, 0x3f02eb843d097063U, 0xbdefdbe3be003678U, 0xbcbcd1d3bf945375U,
  0xbed89153be17a90fU, 0x3e0e9a483cb0414dU, 0x3e57db023c9c4706U, 0x3ebfe7d53d245656U,
  0x3dd5b7063ce45b7aU, 0x3eaf2679bed2f34eU, 0xbd400e5b3d95182cU, 0xbe3a9fd23d4d8ef6U,
  0x3e41534c3d07f164U, 0x28314d6e3d158b7aU, 0x3f52527f3da41cebU, 0x3e09b7503cacdb83U,
  0xbc333c8cbe1b0fb1U, 0xbd29b8033ddc8566U, 0x3c04a0fabbb068cdU, 0xbe4fe9223e1c50bcU,
  0x3edb84973cf89c30U, 0xbd23c5a23d0c77efU, 0xbc680ef03df2a7ebU, 0x3ea558e73db87e1bU,
  0x3c1c043ebc99a3a7U, 0xbd9549363ca683a6U, 0x3bf868343d3bae43U, 0xbdc5603abd6d69e0U,
  0xbcada5b93d63306fU, 0xa7ecdbea3dba77c5U, 0xbe1285143d5d7158U, 0x3db537b23e018a85U,
  0x3dded96cbf1d2b0dU, 0xbea5d4e13c4bb522U, 0x3cec29223dbc9314U, 0xbe27386cbda4f18eU,
  0x3d1881623db77eafU, 0x3d314d633c5e547bU, 0x3d0bbc6b3d12d2e0U, 0x3dd59fb93d23e56cU,
  0xbeac92a8bddab2aeU, 0x3e1deb0b3e2f3e0bU, 0xbe3c7992bda673bfU, 0x3d301ef33e0083b2U,
  0x3d79d78dbe12b124U, 0xa84b7a8bbddd59e2U, 0x3d54bd33be09c9d3U, 0xbc74aadd3cdbbff9U,
  0x3cbf0aef3de80f2bU, 0x3e4e34c3bd3643beU, 0x3c6912463d29eec2U, 0x3de9bd273e4bc4ebU,
  0x3c738e9c3e3156f3U, 0xbceaf5ff3e3436e0U, 0xbe22d9743e454151U, 0x3df3d0c23e2122b8U,
  0x3e451b09bdc852b4U, 0xbd98f0313d3a3d51U, 0x3f3b7f84be6bd75cU, 0xbe9c1ed23b83a315U,
  0xbe205b5a3ebb0015U, 0x27ef02693e682678U, 0xbdd70b49be7ae9a1U, 0xbd56a6673e6328edU,
  0x3e0309ad3d9e6b06U, 0xbd1197093dc51713U, 0x3de9a6c03e2c493dU, 0xbc876d173e7aaa5dU,
  0x3f8aebf4bda05dd3U, 0xbdbdcbba3d96b7c5U, 0x3c333466bd6da45aU, 0x3ce0f36abc179721U,
  0xbe76e6f53d0195aaU, 0x3cc752183f11e565U, 0x3da01863be2c3a1cU, 0xbd188f803e997943U,
  0xbcda04873b97812aU, 0x297e692cbda875c4U, 0xbf28d311be6e5957U, 0x3eabe4f43e36fd18U,
  0x3c8c2edd3e196bc5U, 0xbadf90703d71afdaU, 0xbdff14f1bccf91c6U, 0x3e8cef92bcc2fed8U,
  0xbe6515a73d3f89daU, 0x3e1f05523c717cdeU, 0x3daa2b41bc9e5961U, 0xbde4aefbbd152908U,
  0xbf4f41c5bd8f1c93U, 0x3de4da933f185cd3U, 0x3dfdbb61bc387243U, 0x3e7175683e8e48dcU,
  0x3da2d10e3e259c33U, 0x275959b33e2c838bU, 0xbe2532f73d68e576U, 0xbe40ade33c1a22dbU,
  0x3c945cc2be562245U, 0x3d8eb205bc3014a1U, 0x3d817265bc7eab8cU, 0x3dc8bfebbd111b0eU,
  0x3cace8fb3cd6fd24U, 0x3ea7eb7b3c904a53U, 0x3e08372a3c48ae1cU, 0x3d375e873c483fe6U,
  0xbe270849bbaaab8fU, 0x3f02b0f6bedf678aU, 0xbdcab150bd840994U, 0x3e5bc3efbc0b58e0U,
  0x3d270edfbc4aea05U, 0xa86e8c813c84e285U, 0x3daafdf2bd63adf0U, 0xbda77e413ca03823U,
  0x3aba8efe3daad4cbU, 0x3e449a023d9468d2U, 0x3a99c1b23c25be1dU, 0x3dd563e83d91c551U,
  0x3dfb09d7bec0e923U, 0xbdeaf50c3ddd3788U, 0xbf4eaec3be3d9998U, 0x3ea55480be16c19eU,
  0x3f306815bf3b1dd5U, 0xbd967b87bca8478bU, 0xbe198b193ed1d483U, 0xbed694e9bdc3aff2U,
  0xbf4d9fb9bdaddba3U, 0xa7f0312dbdd3a45bU, 0xbe8cf3703e0c0851U, 0xbeee50cb3e2a4270U,
  0x3e6f7998be714dd4U, 0x3f17baac3c35a3d0U, 0x3e5b907cbe510c1cU, 0xbf8dcfe33f050b6bU,
  0xbe35829fbe5a5716U, 0x3dd15feebe17804dU, 0x3f26a1ecbec768c9U, 0xbefae800beb06b63U,
  0xbf02706e3cab075bU, 0xbda9c4bbbd88bf12U, 0xbee617433eb0fdf6U, 0x3efd632bbdbc2385U,
  0x3f32cceebe76b873U, 0x28871c02be128569U, 0x3ed157aa3f1fbbabU, 0x3f4383afbe3fec7bU,
  0xbe593a693e9e00f8U, 0xbfbaff2abd719fc7U, 0xbe89c455bec44515U, 0x3f81872f3ebbd71bU,
  0x3d601389bd911936U, 0x3d583f773c1f1fa1U, 0xbd174b3b3c971ffdU, 0x3e765cafbd1253fbU,
  0xbd8d49273e94824aU, 0x3dab33ff3d4553e4U, 0x39cd21173ebe9b1cU, 0x3e1bd8453c2be63aU,
  0x3cf2d82a3f56ad0cU, 0xa9653e58bf70b4d0U, 0xbe3144663eae67b3U, 0xbeaac081bdcaac56U,
  0xbd94d50fbe141236U, 0xbbe813493df925c0U, 0xbdcfe067bb195b8eU, 0xbccc6f6a3d3aac53U,
  0x3d900b4e3db508b7U, 0xbdcad0053d02bcb0U, 0x3d869a55bb10135dU, 0x3d8556febbe3a95dU,
  0xbe65d3813c453ea7U, 0xbca307cd3f494b7aU, 0xbc9ffb4fbd1972a2U, 0xbc6e8db63dc0b74bU,
  0x3d95f471bc3b8c71U, 0x28240ffebbca94f1U, 0x3dad9cfdbcaa96bcU, 0x3d271c3f3d3e243aU,
  0x3d99d8db3cb562b8U, 0xbca5771c3cc7f82aU, 0x3ceba3843b9af387U, 0x3d27db6c3d06fb14U,
  0xbd2f5fe5bb973212U, 0xbd9425e5bd77429fU, 0x3d4a87c83ca30c85U, 0x3da3fe633c9c478aU,
  0xbdc487983ce1bf05U, 0xbeb5e13c3f97965cU, 0x3cfc16f1bbec2ddeU, 0x3e983f5e3e280f40U,
  0x3d06f13f3c7a9728U, 0x289ca891bc3d6bb4U, 0xbccb4eacbda61c8cU, 0xbdac60f23b6d6f96U,
  0xbc198f50bd16cd4cU, 0xbc0c54363c2ad089U, 0xbccf9a033c65eebeU, 0xbd91e4673d40cec1U,
  0x3f6075073e2d5f07U, 0x3d907bd53e34caabU, 0x3d9232a2bee4d82cU, 0x3f19f539bed890dfU,
  0xbeb7773f3ebb9326U, 0xbcd305ea3d1fc2c6U, 0x3e969af33e72425aU, 0x3e0b7c84bb248454U,
  0x3d7b62913ee733b0U, 0xa831e26d3f2541e9U, 0x3f42ccd23e3b2da3U, 0xbf3909063e5697f1U,
  0x3dcc03153edd87f9U, 0xbdd2254c3e2a7fcbU, 0x3d82a267bed969feU, 0x3e73f9afbee52604U,
  0x3b4672fd3e5ba6faU, 0x3d1fbf82bd85c5abU, 0xbe3f8c2fbd9c6f25U, 0xbfa9e25cbd6e8705U,
  0xbe960dc6bdc515a1U, 0x3d2f1656bdcaf587U, 0x3dfc33e4bc6a7f81U, 0x3e9b127dbdab629aU,
  0xbe40f5e03d95b0b3U, 0x28cf34033d6d29e5U, 0xbf6b0c23bc092dbbU, 0xbf145bfdbdeeba9fU,
  0x3d5c81bd3f4260e7U, 0x3e289ad7beacaad2U, 0x3d40ac13bd587469U, 0x3de69d40be158d91U,
  0xbe25e6eb3dff1e1cU, 0x3ccac5d1be2a2d5cU, 0x3e9b256e3daf1b5aU, 0xbe3028083d842d33U,
  0xbec19f11bd84c0d6U, 0x3cdcf6bfbb5290dfU, 0xbf12ec2bbd4729d8U, 0x3e4be1bfbd9c726dU,
  0x3e9cd4ee3e76457fU, 0x2832c1ca3ebda3a6U, 0x3e63817f3e1b17feU, 0x3ec9bf92be864f04U,
  0xbe85535e3e7aee15U, 0xbf112e69bd866267U, 0xbe74028a3d998391U, 0x3ef2bbad3ee686c1U,
  0xbc8a7243bdb7994fU, 0xbe0b96b4bd2601abU, 0xbca20b99bd540367U, 0xbd89b70ebcd97612U,
  0x3eb9bc423dbcc140U, 0xbde8dff9bc9ad426U, 0x3971c7c13d890576U, 0xbdd8ad403dbf8e86U,
  0xbd81f7fc3e11bdf7U, 0x27282ce63dcd63dcU, 0xbd72f98e3da55a4eU, 0x3e025c5ebd65089eU,
  0xbd86cb05bcce9fd4U, 0xbe6b42f5bd9971efU, 0xbd68b2dfbd56db99U, 0xbd993d6dbc72915eU,
  0xbe07368bbdfa63abU, 0xbc35853b39360c6aU, 0x3ccdd3083e58d687U, 0xbef46ca93e49452dU,
  0x3dd27336bccec90dU, 0xbc2726bb3d9f12fbU, 0xbd014e123e707955U, 0xbe42853bbd5a32afU,
  0x3ce2e8d3bd10beeeU, 0x289162473b5bca1dU, 0x3f4ddbd33e7fc968U, 0xbe9479d5bc3eda80U,
  0x3d69a0c1be8e8895U, 0x3e32d7cf3e0b7606U, 0x3da34ae03e48bc7cU, 0x3d879ff43e108054U,
  0x3d047c943b3ba0f0U, 0xbf7af5e1bc02f302U, 0x3c6ae84b3c8e33acU, 0x3d3831fa3c8706a7U,
  0x3dd54507bcfc35b8U, 0x3f332ad03e52f7eeU, 0xbd134fd3bd1ba4cbU, 0x3dd8d76a3dbd6c84U,
  0x3d3d672ebd2e0866U, 0xa88e36c7bd411b77U, 0x3d49d7c6bd0672c9U, 0xbca65b7abbcd3e34U,
  0x3c9270f13c5720d6U, 0xbe1f0fc6bd1ba7adU, 0x3c82f0b43ca0081dU, 0x3c2023933c9ee08eU,
  0xbe7d84e4be457606U, 0xbd40a2793fd5396eU, 0xbcb1547a3f2cbea3U, 0x3d3363723f39b5d6U,
  0xbeedde353eaf7807U, 0x3c73bc9f3db50a60U, 0x3f12843a3e1cbcd8U, 0x3e28aa263e75e58cU,
  0xbe0a71bbc02da40bU, 0x28a87db6c0701b9cU, 0xbe8ab3b5beb22ee3U, 0x3e071324401d3d4aU,
  0x3fe152dabec48dacU, 0x3eeaa5973e1c7771U, 0x3fc0f4733f320c16U, 0xbdd38475bf299afeU,
  0x3e3bf6353db59555U, 0x3f17462c3e781b51U, 0x3d5988c03d02de35U, 0x3e78bcef3d028e25U,
  0xbe93702a3ca87ba8U, 0x3f03c733be9a8373U, 0xbcd967313c1ff8eeU, 0x3f1d50ea3d7b7b10U,
  0x3dbbc68bbdd46816U, 0x284f67adbd808a6aU, 0x3d46db17bd0163bbU, 0x3cb93bde3e30623dU,
  0x3d085facbd039d6eU, 0x3efc31af3e82e724U, 0x3da727c53d2b7846U, 0x3c8de0263c6570deU,
  0xbe0af16bbe145e23U, 0xbe86a13abcf883e5U, 0xbe609dbbbdbff8dcU, 0x3e7f613fbd94a39aU,
  0x3f4a655e3d2b564bU, 0xbeeb9f6f3f0acc07U, 0x3e8d90543d96c11eU, 0xbf9114cdbe7c8664U,
  0xbd270d68bd8c2c28U, 0x2866eac8be20ebc3U, 0xbd18a10c3d2d8d6eU, 0x3d32d10c3ccde494U,
  0x3d6e2d4dbef7b0eaU, 0xbdb30ce0bd82dbcaU, 0x3d04c004bdb0f289U, 0x3e34bdfcbe8add2fU,
  0xbe630c903ef8cf0aU, 0x3df5bd663d13754aU, 0x3d15db3f3e389fe4U, 0x3eb8455e3e01c763U,
  0x3d0b5bb2bd2e03a3U, 0xbd436ecbbe02f6f4U, 0xbde4b3793edb394dU, 0x3dadc7673d99b9d6U,
  0x3d84427cbe881b34U, 0xa8c674623db1f595U, 0xbe18e4113eeb4f51U, 0x3dccd20b3d203e21U,
  0x3cfa8a723eb0e588U, 0x3df202343d52c918U, 0x3c90dcea3e322e8fU, 0xbe0ae1c2bc998b2eU,
  0xbbfe7ea23c8950d8U, 0xbd490dbd3be105e1U, 0x3db5ee303d9dafaeU, 0xbd107f833da92402U,
  0xbe2e8011be052153U, 0xbd8d78e83c59ca08U, 0xbf17ab04bdc85189U, 0x3d6e0583bcc674b4U,
  0x3dc1e89bbd1cb1f9U, 0x28f84710bd7ed3a7U, 0x3e03214abd8adcb9U, 0x3e50c1743c69ccafU,
  0xbcb71f903dde9f29U, 0xbd3139e3bdac0d87U, 0xbcf32bfa3d8ac9f2U, 0x3e8b61a13f0b1ee9U,
  0xbcad1eb33cde8822U, 0xbe2543163c58b8d9U, 0xbd38f4d33cbe09e5U, 0xbd32fa16bbc7a21eU,
  0x3e9e31103d834683U, 0xbe35d153bf5094a6U, 0x3d7b3d063e1ea8efU, 0x3eb06e69bebee949U,
  0xbd71f8fd3d44fd4dU, 0x28061b823da34e7cU, 0xbe5db10a3dd155deU, 0x3daade5cbcf168a9U,
  0xbc9548e1bd934de0U, 0xbcb85596bca36e67U, 0x3cc4667b3c5b1616U, 0xbe3ccacbbdfc9a04U,
  0xbc43047bbbd141ebU, 0x3f33de52bb19502fU, 0x3b9f55f0baad6fdeU, 0xbc6b071f3ac92dd0U,
  0x3d307b903ad2195eU, 0xbeeb3efcbdeca211U, 0x3c8235583c268d0fU, 0x3cae2bd73dccde3aU,
  0x3cd193323bbe431bU, 0x24be6c7abb8bdac4U, 0x3c837e1539d52f94U, 0x3c290559bc6e5f1eU,
  0xbc78d7763c25b1a6U, 0x3c59d645b9064b71U, 0xbc640795bb5ab5caU, 0xbd32f404bbf54a39U,
  0x3ef00646bf595282U, 0x3d2e81c8bccdb12aU, 0x3cbad605be3d1835U, 0xbf14a902bdbf24e7U,
  0x3e9635013dae306cU, 0xbca8e5ba3df6d05eU, 0x3e2ce2dcbf14610fU, 0xbe0ffd1dbd40667cU,
  0x3c15812b3e989f4fU, 0xa8884c62be87f4faU, 0x3dbeeddfbf393047U, 0xbe57f7e5bd20721cU,
  0xbd3c3f0bbebffdbbU, 0xbdbdbcccbd9ddf14U, 0xbd3004c9be532078U, 0x3dd7b7b13cf42cf6U,
  0x3c32a8f4bdd65b6fU, 0x3b314c36befffc6aU, 0xbd26844c3e8cdb45U, 0xbe19d4713e8ebd69U,
  0xbe02f2d5bf1a43acU, 0x3cf112ef3d6e07e9U, 0x3e239e21be116079U, 0xbd73d180bc79607aU,
  0xbc799b41be04c53aU, 0x28711fde3d85ab07U, 0x3e4d5bf4be38dddaU, 0x3ea071c3bf4f6e75U,
  0xbf4015553e273332U, 0xbd4441633d3ae313U, 0xbf3109c23e81e4c1U, 0x3dc465b73e36d466U,
  0x3eecc071bf2b7573U, 0x3da56e85bbbbca89U, 0xbb527113be33b677U, 0xbf0536a9bdd0c90aU,
  0x3d1c24683d2161ccU, 0x3e6328cc3b91747fU, 0x3d9ef6cdbede1f4dU, 0xbe69e5a9bdd51c53U,
  0xbd52b4963dfe5c58U, 0x28fae4a0be9c39e3U, 0x3e45a7d9bf1bc6a0U, 0xbe1db7ab3c769133U,
  0xbc4e77ecbec2daccU, 0xbc9c91e8bd9060c3U, 0x3bfb08a2be29b1efU, 0x3e116d0b3e140c36U,
  0x40978a703e697c8cU, 0x3f87d4d4c1360f3fU, 0x4000f9704071129aU, 0x40accff9403bad37U,
  0xc055270c40eb9b7eU, 0x400a2a6c3f96694dU, 0xc0992d00412c20b8U, 0x40d34829c16a375aU,
  0x40dda5143ecbeadcU, 0x40b472ddc0832a65U, 0x40d26fe5c0bbffb2U, 0x3fd30bec402fe6acU,
  0x40ab7e2640064d7aU, 0xc0d9a2ad40fc1544U, 0x418baaaa407b924aU, 0x3f46822a408e027bU,
  0x40953b7d3fd88b20U, 0xc06632ad40df5bd6U, 0x40982f77bdb40f60U, 0xbf642d8040861d3dU,
  0xbe857e603e39ea70U, 0x40bc9bca3f818016U, 0xc08189a3401e34cdU, 0xbea2a5d03f79d972U,
  0x40d2d4dcc12ef7faU, 0x3fc6f37e3f0c094eU, 0x3fdf152e3ad08000U, 0xc056e17f420d5411U,
  0xc017f77640a94c58U, 0x403d374340b47ae6U, 0x410df5d8400b53f0U, 0x4139e3e440a5218cU,
  0x3e17def53de56777U, 0x3e659a80be096f16U, 0x3e1410bd3f660bb4U, 0x3d89423bbe019a78U,
  0x3ce488a8bb74447fU, 0x3d190fe2be059aa0U, 0xbf876a14be6ddb65U, 0x3d86912d3c6d10efU,
  0x3d21cde6bc1281d1U, 0x3dc1c50bbc4db8e9U, 0x3eb5fb77bd3f26e4U, 0x3df697523eefbce1U,
  0xbd871047bda8d0a3U, 0xbdcdf482bd1110c5U, 0x3d3ae4643ddb3417U, 0x3f8f84ab3e46ea45U,
  0x3d4b44f63e0fd62bU, 0x3d3f81273e1a2552U, 0xbec616ee3e3ddcd9U, 0x3ff0f2033d5d98d8U,
  0x3ce7210abfed9d43U, 0xbea30c913f31a3d4U, 0x3d575e76be9b85e6U, 0x3bd89eb33def2f00U,
  0x3eb2a7793e1f80c6U, 0xbcd18f373c58cddbU, 0x3bd1a1f0bd1ea4b1U, 0x3f802fbc3e413d94U,
  0xbe5dcc593e1516a1U, 0xbda41ba7bf85db80U, 0x3e133ff5bd0648faU, 0xbd3ac79fbd85298eU,
  0xbd6ea8b83c8e7056U, 0x3fb45224bdd8e903U, 0xbd1760cfbeaf3c3dU, 0x3cba9ef4be877df5U,
  0xbf1c5aa53da61d38U, 0xbe5e2a393e260122U, 0xbe4a3004bfd414adU, 0xbee74e793e17835bU,
  0xbcb722673e60cc23U, 0xbc9335053c3b1510U, 0x3f2f73d33e8ebfb6U, 0xbcf867d83d9931c7U,
  0xbc8e8450bd385c5bU, 0x3db30fa93cba2465U, 0x3d1ea4943b7deff0U, 0x3d90f633bf9c1839U,
  0x3dddd03dbc4bd655U, 0x3f34e307be317559U, 0xbee1f0d8bf53c216U, 0x3fd55512bf02b2e1U,
  0xbea2b8cdbe9a6ab6U, 0x3f187151bee086c7U, 0xbe1c9701bd3e2c23U, 0xbe0d95fcbb1ef667U,
  0xbdcc1cd7be9679b3U, 0xbdb58663b987daaaU, 0xbd0cb8d93cea9c27U, 0xbba94e723db1e580U,
  0x3f60bbf23dd47d46U, 0xba9893e7bce99972U, 0xbd8167403d9f6aefU, 0x3d38adb7bd2bd681U,
  0x3b8ad76abd10e228U, 0xbe0da4263f986197U, 0xbdbd5a2cbcfef81aU, 0xbca8e01ebcdcca3aU,
  0x3db3d420be9f7fdaU, 0xbf5d8a85be8653e0U, 0x3de7670b3e0c7689U, 0xbd60b6b73e6263a1U,
  0x3f98e6b63e68eb45U, 0xbd7f525d3ce4af83U, 0x3b1e0ed7bee0cef8U, 0xbbdb9f5fbc894bbaU,
  0x3c470b08bb9ed0d6U, 0xbdf97f6a3c96c4fdU, 0x403ef51abce4b386U, 0xbdb92673bdc059a0U,
  0xbd8890b7be0a24b8U, 0x3cc6cfba3d9a319bU, 0x3cce71c83da27858U, 0x3d445f25bf8be675U,
  0x3d7e8ea13d6c401dU, 0xbbdbb48b3d83a88bU, 0xbcecfedbbdbe8de5U, 0xbf2069f63c127eeeU,
  0xbc55aaf9be0b0f0dU, 0xbccf98073c56a120U, 0xbeb9caf63e111cc8U, 0xbeb74438bd3afa12U,
  0x3ecd87f1be3bb7daU, 0x3e9510fdbcf89c67U, 0x3e6afedabd11b4ecU, 0xbda6b4b43f9ad58cU,
  0xbfb99671bedfc78bU, 0x3d6bc2c1be39624aU, 0xb823f22f3ea90029U, 0x3fca8f5e3d74299dU,
  0xbe2efe113f2483c9U, 0xbf005b51bfd6528fU, 0x3e0973503dc57bf2U, 0x3faba85fbe1336e1U,
  0xbecda4b4bea7351dU, 0xc01b48f23d24e250U, 0xbf03ad7a3ed9f5e3U, 0x3f6b68853e30198aU,
  0x3fe55cbb3f1e880fU, 0xbf0f24293ea7660fU, 0xbe64bee5c001afefU, 0x3e7bcc01bd4fb886U,
  0xbf153a50bdeac408U, 0x3e10b075be5b11d7U, 0x3fb15b5c3eb3757dU, 0x3dbef6103c8a2336U,
  0xbea95331be5ff7e7U, 0xbf0340173d809c48U, 0x3e412f3d3e254b44U, 0xbed715063efa35cfU,
  0x3e1b8f79be1c5b50U, 0x3c206ff03c955dfdU, 0xbd41263c3e4a75e1U, 0x3f06ccac3d81b634U,
  0xbc8a5ec4bc3a168bU, 0xbcc21e8c3d25054fU, 0xbc3a4b0cbf0b510dU, 0x3e21c95d3ecbff3bU,
  0xbf0f2b4d3fa74c26U, 0xbf2b44d73ed37254U, 0xbf0817fcbead460bU, 0x3da49e433eb5d04dU,
  0x3ef298e83eb1156eU, 0x3ddd55f5be932c92U, 0xbd5f2114be904a85U, 0xbfaba3a0bed73236U,
  0x3ef4bc44be303e37U, 0xbbad552a402124a6U, 0xbf990944be0d8323U, 0xba2360413d573cf3U,
  0x3c8783fbbc9570b9U, 0x3f9408993dbeab19U, 0xbcc4da0ebe666f61U, 0x3d2644b5be72949eU,
  0xbeb12d263f3e0916U, 0xbeb1b7d2bf04e3a3U, 0x3f3c8d38bf9c942cU, 0x3f1e52d0bed9d4b9U,
  0xbf789c8d3f3fa54fU, 0x3f836a433f368f32U, 0xc01f5c3d3d5f7708U, 0x3f929c3f3f1e5df4U,
  0xbeb0bfaebe71c1d1U, 0x3f0834fb3d863a5cU, 0xbe7f69cd3ec54c3bU, 0xbdbd9781c016acbdU,
  0x3ef485823ea49784U, 0xbc07cd3dbdc7c5eeU, 0xbd742c4f3e7bc1a0U, 0x3eed69603e9d815bU,
  0xbcdecf753dcf9159U, 0xbd06eb1a3c36597eU, 0x3ddc38aebe041a2aU, 0xbf29e0133d1bca40U,
  0x3d0a7ed53f29b3b4U, 0x3d2aa8eebdf64c7fU, 0xbd8d13d73d69c9f3U, 0x3d2db58abe247d4dU,
  0xbf5d6cbebe1f5905U, 0x3d6d6b723ab6bfb7U, 0xbcaae8a23b7cb81bU, 0xbedf58b63d489997U,
  0xbf45da983d47fe7bU, 0xbf825b384003df9dU, 0xbf3717c93cbb9fbeU, 0x3cb29bc03e7225e5U,
  0x3d84183dbdf794aeU, 0xbf883bc2be29a866U, 0x3c9c234dbc9864e4U, 0x3d6e151bbdc47686U,
  0xbf2a7d5b3e834c44U, 0xbf16d5003e051298U, 0x3cbb97353f4862e2U, 0x39c1af1a3e1842f7U,
  0xbd8543b5bdcc99e9U, 0xbd94eb303e6bf696U, 0x3f68e99e3ef55fc3U, 0xbe4ba9e2bd1293c4U,
  0xbd15eb67bdf26a62U, 0xbf8cf23f3f74a3f6U, 0x3fbc3dde3dd39871U, 0xbcb3514dbfb7935bU,
  0xbe4214673e6e5c6eU, 0x3b317d44bd8dd5e5U, 0xbd06c6a53e91ad66U, 0x3f5c14563d3c2152U,
  0xbd2495113afe5bcaU, 0xbcaf09c1bcb6ceb8U, 0x3e4503e7bd8691d2U, 0x3d8aa96dbddaea42U,
  0xbd6a71e43f26f38cU, 0x3d11a6e3bd95966dU, 0xbd2f939ebd5ccad9U, 0x3d7fdbd23d634ee0U,
  0x3f8c47293ebb75c7U, 0xbc64ed19bfb6e7d3U, 0x3c71cad53cc400c8U, 0x3fdd338e3e97edbfU,
  0xbeb24d0a3e5be091U, 0xbe565dfbbfed4879U, 0x3dc391243d0fee3dU, 0xbeaac6f6bc8dca77U,
  0xbe7281a03f58608eU, 0x3f12a09abd4a0446U, 0x3e6a6cb03eaddca7U, 0xbdf15d44bfa0fce3U,
  0x3dfd88dcbcb751cfU, 0x3c5ccf54bd96223eU, 0xbe264a103f82d5ffU, 0xbe707dd2bd10fcccU,
  0x3d7f86f8bd02f219U, 0xbe00339d3e726d93U, 0x3e8947d7bf157ca0U, 0x3ddc2bc63e865b9eU,
  0x3cd27bfabe3e2f8dU, 0xbf13acdcbd314281U, 0x3f1b0ba33d6e9b18U, 0x3f05b0213d33647cU,
  0xbeef66bbbd080581U, 0xbdf5f084bdb8d59eU, 0xbe0fe2543f03c1d0U, 0xbfe748d03f2f18e9U,
  0xbe2f76583f3ab682U, 0xbe552fed3f35600cU, 0x3e137ba1be56fb46U, 0x3e924bfb3d2f42dcU,
  0x3d9029a43f424163U, 0x3e0ada903d806fa3U, 0x3d22145ebe291ac1U, 0x3c561854bdd3c14aU,
  0x3f2f129fbdd50a0aU, 0x3cfc967fbcb17073U, 0x3de9ed59bdb4123eU, 0x3d3c21533da736b0U,
  0xbdba642c3cfa3e9dU, 0x3da6c990bf427704U, 0x3dde76e23da14bf5U, 0xbde8adb03cbbe06aU,
  0xbde6df1abf7d8769U, 0x3f8b73963e18a6e1U, 0xbcd9319c3de53ca4U, 0x3c9cca75be16ec6fU,
  0xbdabf8193e35abcbU, 0x3f4367cebd92cc86U, 0x3e361336bf63e694U, 0xbd947b283d2ca5edU,
  0x3ec3c330bda245a7U, 0xbf00f785bc91275fU, 0xbe8774013ea6d959U, 0xbefc70443e752a4bU,
  0x3ec69e523b9dea41U, 0x3e3940babbc28d32U, 0xbe891b71bd00655bU, 0xbece17993faf9d0bU,
  0xbe8375b43ceeff95U, 0xbe8e86483d103e7dU, 0xbed9387c3f5ccab4U, 0xbfc364113fe0c035U,
  0xbebb79f1bd0971d5U, 0x3e5b4af6be77bd40U, 0x3dabffa3bdff166bU, 0x3fffa01dbcc97931U,
  0x3ee12adec0189748U, 0xbee1861b3f485ef1U, 0xbe7af93abea33774U, 0x3ea5f7e03dfcae78U,
  0xbfe0d48c3e594eb5U, 0x3e8e7dfe3e193491U, 0xbe147e773ea6c3e3U, 0x3e29b78e3c859895U,
  0x3de6befabc5b0ecfU, 0xbd8eac833f517218U, 0xbd8c19533c30c3f2U, 0x3f1542773bca9b14U,
  0x3d2c2d2ebf2ad0d3U, 0x3fa4e169bf46c8e0U, 0x3d2630e5bef60d71U, 0x3e55775cbea5747fU,
  0x407392a7bfc6bcfbU, 0xc0523adfbfa331e5U, 0x3f07d5223d80e308U, 0x3f8814c5bdf08c4aU,
  0xbfaf0aec40c4d6bcU, 0xbed4db8440b59650U, 0xbf14fe9f401eebc8U, 0x40c00856bcbb9c40U,
  0xc1023300bfd1c8cdU, 0x4000fcc240a7c031U, 0x3ebd3e8f4067efd6U, 0x3f8e7c54bdf2f9ccU,
  0xc01c4a923d7dcf98U, 0xbf0a4b803e204fa1U, 0xbf2d025abe94f05aU, 0xbe4712c03e674a70U,
  0x3ed9dfb23ca45480U, 0xbcec91203fdde789U, 0x40cdfe7c3c938998U, 0x408ee971402346d6U,
  0xbd06e9603caa2538U, 0xbf027cb63d200638U, 0xbc988c4abfcedc02U, 0x409798593e15c964U,
  0xbdd30514bda4424aU, 0x40545f303fdcb76fU, 0x3fcc0fdfbf40550eU, 0x3d95fb3e40a0037aU,
  0x4052a9a03e00df30U, 0x3e4aef223f2e8a9eU, 0x3f8afe7bbd258f80U, 0x3ea08e80bf312b66U,
  0x3d53bda63ea0cfaaU, 0xbb586f26bdc0c808U, 0x3bba71b83b6b57b8U, 0xbe2837c43d029578U,
  0xbe31853bbd76a459U, 0xbd80500f3d8eff92U, 0xbdfdf85ebdedca8fU, 0x3bf6912bbfb63328U,
  0x3f0532bbbdfbdff9U, 0xbd9d4a303c6e85c4U, 0x3d8d9410bda0e6ffU, 0xbcd3a79cbbd47254U,
  0x3e05b9fe3d22af52U, 0xbe2da211bd8e1bcaU, 0x3e9f2daa3e34eadcU, 0xbd2c2d513d2414c9U,
  0x3b318a773e253b7aU, 0x3de474563c0bcf0cU, 0x3db3212d3c4979faU, 0xbe3c73bf3e19341fU,
  0x3d988c913ce10cc9U, 0xbbd562213d48da45U, 0xbd788341bca32166U, 0xbbf160a6bd80c959U,
  0x3d5853ecbe177570U, 0x3e045d78bd97162cU, 0xbc18a6bcbe654583U, 0xbc14d2d13c429c66U,
  0x3d3891363c99b4b0U, 0x3dad8e01be7e3eb0U, 0xbdfd96243c4f83a9U, 0x3e95b6673da773eaU,
  0xbd1990b7bd9a3b64U, 0xbdf65c47bd36c5e5U, 0x3e834ab23d2106a8U, 0x3d318eaebc8a029aU,
  0xbd0bb331bd29ec15U, 0x3e13aeb13f8a3882U, 0xbda755e9bd2ea433U, 0xbe16bd1ebd64e594U,
  0xbcaa258fbd2046b4U, 0x3e77ed41be24d74cU, 0xbc864469bea03bedU, 0x3d890c1ebd14d30dU,
  0x3cab0c38be18ccc2U, 0xbcc2b0113e0673eaU, 0x3ce2f3793dd86cf4U, 0x3d0bb10e3d9d7d65U,
  0x3cdceadc3d11e0b5U, 0xbbf277553d5abd40U, 0xbd56f8e53cd0849fU, 0x3b2d746d3da8a17bU,
  0xbd8552d0bce82e1eU, 0xbd6eb074bd21883fU, 0x3cc0e29cbb104e95U, 0xbcebe445bc651568U,
  0xbe0d295a3c4eaf35U, 0x3e04985b3ca92291U, 0xbf192309bd1ef344U, 0x3de029e13c4ea898U,
  0xbd814549bbbb4530U, 0xbd33c47d3d91da9dU, 0x3d3fe8303c42e0b5U, 0x3bff5cf03c49e62bU,
  0x3ed92d623e3993a0U, 0x3daa0b4cbe08c861U, 0xbdad314bbd291117U, 0xbf0555e2be3e475bU,
  0xbe7aebbebe8b3ee7U, 0x3ca2bacc3d82b543U, 0x3e57deefbe39ed92U, 0xbc9f23453e2bea45U,
  0x3e4fe6a6bf08c197U, 0xbdb816913bf059ceU, 0xbd840e1ebca23069U, 0x3e7d9a8cbe041fb6U,
  0xbce85816bdc4ae6fU, 0x3d4b70103ceb2d76U, 0xbd86c4833d2d3d79U, 0x3d6af72f3e8b8621U,
  0x3e72166fbc6de701U, 0xbe14434f3d48ee4eU, 0x3e83c95ebd1ee7d2U, 0x3ddbdf2c3d88b83dU,
  0x3d83face3e00cc00U, 0xbeb52961bd27c7a3U, 0xbe52dc473d4c793dU, 0xbbb38768bd27f616U,
  0x3d9e899c3ea0d59eU, 0xbeddfd18be6a6858U, 0xbbd1d7323de0db15U, 0xbdce8e9e3f0a2c55U,
  0x3d517656bd16fb7aU, 0xbd4a2bf43ed3f4adU, 0xbcb9a16b3dd148ccU, 0xbdd81c733f187cc6U,
  0xbe4e9e8bbdcada93U, 0xbc0531dabd8badd0U, 0xbda6a6c63bffe308U, 0xbdc85cb83dbc837dU,
  0xbd233af33d6eabdaU, 0xbe1c77b3bd443825U, 0xbd3906973e1ed1c7U, 0x3de0dc75bc5e6204U,
  0x3dd0ee7b3d948cf3U, 0xbdc37a30bcc37db4U, 0xbea26e563f339184U, 0x3e9d66d63c31490aU,
  0x3e5407ad3e37304aU, 0xbc741cdc3e209154U, 0x3cd1ffb23ed87014U, 0xbd67a8453d6a2320U,
  0x3e0f04363ec54e34U, 0xbe395c70bc7d8c72U, 0xbe352b76be87f7c6U, 0xbd449c68be038d13U,
  0xbe1c9ce8bc49b00bU, 0xbdfbd7763e01d606U, 0x3d3a3d7c3dd0c61eU, 0xbce664dfbea3fed7U,
  0x3d8b1635be4304faU, 0xbe88ec70bf1de07fU, 0x3c09ee2bbdf4eab2U, 0xbe70ee6b3c2a898bU,
  0x3ec7b733be3e05ccU, 0x3e7766f43e3e9c02U, 0xbd1b98ab3dcb2679U, 0x3e7aee503c16d343U,
  0xbc018d30bc4ccbd8U, 0x3d24cb8f3c940644U, 0x3e03c46c3da488d9U, 0xbdb1ad5d3c1a6148U,
  0xbb9cbd2e3d98ea54U, 0xbd8568103e00d673U, 0xbd8ba61e3ca3e7f2U, 0xbe081f92bd8cf0e5U,
  0x3b7a4155bbbdfc45U, 0x3d40d658bdb89355U, 0xbd52cb71bd32c63cU, 0xbdc35856bcdbd4d6U,
  0xbe0ae1f2bd3cb511U, 0x3d7dbc65bb8e6531U, 0x3dcc4f77bc9c9092U, 0x3e0feb4f3dfea9e3U,
  0xbd62384d3d9bf203U, 0xbd14b621bdf48d3aU, 0xbde623a43e19b968U, 0x3c289915bcc627fcU,
  0x3e62ec723d08d9a6U, 0xbe021e563e393a37U, 0xbc8340653e7911aaU, 0x3bd349e4bd064ea3U,
  0x3d0b114fbd91a36cU, 0x3e3ee2e83e0dd761U, 0xbe2caa4dbd40659aU, 0x3d015b993d9ed92eU,
  0xbdafb5813dff6d5eU, 0x3d2146cf3e8ffe14U, 0x3c9a54363e723f1dU, 0x3d222d1f3dc63957U,
  0xbd1763fa3cfd02aaU, 0xbc2a0cc13c8de2f2U, 0xbde571fcbd0ccd15U, 0x3e2d48e5bc020917U,
  0xbc13aaa6bd219617U, 0xbe395b2c3eacd75dU, 0xbd8b8d6c3cba5945U, 0x3e89b4dcbaba97bdU,
  0x3c50630a3d8117baU, 0x3f53ff84bef5be8bU, 0xbca76f3fbdc6be8aU, 0x3d191e3abea8788cU,
  0xbd8df9553cda72d7U, 0xbcd3c47a3ca5293aU, 0x3c9984c83d8fcfc0U, 0x3eaa1f493d35a9cdU,
  0x3c96082cbe5aba58U, 0x3b795a263c0c3897U, 0x3d5892593d839f80U, 0xbc9f4a433d860768U,
  0xbdf0a5eabcd16144U, 0xbc87dbf03c5a5989U, 0xbc863e30bb8e83c1U, 0xbd1ee41ebc2fba09U,
  0xbc1c069cbd73d8dbU, 0xbe6d18bb3d023530U, 0xbfc653b43d3b6978U, 0x3d9a4ffa3da526c9U,
  0xbcb186123d456f33U, 0xbda7befd3e609b0bU, 0xbc90e336be99fed5U, 0x3bafbe1a3c3e30bfU,
  0x3e3a6999bd5e14f8U, 0xbd7fcf6abdd334d5U, 0x3d890075be4ba84aU, 0x3e0c109c3d2cb28cU,
  0xbdeff542bd6e8443U, 0xbd2a73d1bdb346fbU, 0xbdf2bb053e03be8dU, 0xbdace50c3d9ae25eU,
  0xbc41a536bc5ddc88U, 0xbdafca7dbe05d49fU, 0x3d12ef193d8bc692U, 0xbe08b95ebda71b30U,
  0x3e1bf495bdbfcb55U, 0x3d04959fbb8ff94cU, 0x3d1a6336bc907551U, 0xbe22ae953e250b08U,
  0xbe0e988bbdc213bfU, 0xbda82729bc13fc0aU, 0xbe09a411be34003eU, 0xbc7ca60b3dd960bfU,
  0x3d7e88db3ca7ca7eU, 0xbe4f8c63be1fd781U, 0xbd0b946cbeaa6da9U, 0x3d4ed6adbd1f69d2U,
  0xbda7f325bd9a691fU, 0x3e2f1d11bdff6758U, 0xbd2e32bcbc532ea4U, 0xbd1b65e43bf69750U,
  0x3d84514bbe237b50U, 0x3aa791993e7d7529U, 0x3d560e3ebe6b08fbU, 0xbdbbd8cfbdfd83eeU,
  0x3d040dadbd8e93f5U, 0xbe8b514fbe43dad7U, 0x3ca71ece3be4b634U, 0x3ed965ae3e1b48adU,
  0xbd2b9cd1bde8673fU, 0x3ce150373cf32478U, 0x3f39afe0bde5e05dU, 0x3c52811d3d084da9U,
  0xbdc33adabe0fd52cU, 0x3d859730bd952b39U, 0xbc1ee74c3dcdb2aaU, 0x3dbdc1dc3d45e663U,
  0xbe1f8f58bbae8207U, 0x3d35916f3d59ae68U, 0xbdec0ac3bbc6da9dU, 0x3e990e0a3d24e722U,
  0x3c99fa68bde90474U, 0xbe208722bddeff1fU, 0xbf8658b8bd6da9deU, 0x3d0ff5e73d967dc3U,
  0x3de8a3c8bdd9870eU, 0xbd850bc8bd812c1cU, 0x3ddf0d163d910b10U, 0xbd573ed03e60fe66U,
  0xbdf3643f3ec04ba9U, 0xbf5ba7c43e18e773U, 0x3be61f80bec02e3eU, 0xbe140b953eab956aU,
  0xbdc3c1e13d5093d1U, 0x3929dbc7bd801266U, 0xbe00acc63d202b0dU, 0xbc8c5ab2bd69471dU,
  0xbe22000ebcb67b90U, 0xbaa63a17bfb34588U, 0x3dac7bc1bcc5de95U, 0x3ece6be93e286c82U,
  0xbf8b68ebbeb78eaaU, 0x3b175835bd6f4ffdU, 0xbeeea4b23ed0cef2U, 0x3cb0b27e3faea45fU,
  0x3fd431a0bf33ac29U, 0x3d8ba66bbd5f035bU, 0x3df23677be183244U, 0xbe32598cbdbb215eU,
  0xbeabb3c63d9e72b0U, 0xbf315dce3e89603dU, 0x3f7ffe2bbdf83bfbU, 0x3df39de6bde6124dU,
  0xbe1ad41abe427fddU, 0x3f2a1857bf19c274U, 0xbe005d3cbd01585dU, 0xbf0c60b8beef455eU,
  0xbe1528343ed54e93U, 0x3dcf39f5bd7318fdU, 0x3f004b153e4f3faaU, 0x3e1c056cbdf54f70U,
  0x3e36a2cfbe188a0eU, 0x3f502ff03e1a9eeeU, 0xbd1a69c7be2e5c99U, 0xbc49a70abef74983U,
  0x3dcaa6aabe20c8c3U, 0x3e7f40be3cae7f3fU, 0x3f2de4e73ceff9fbU, 0x3e4c749a3eca6f84U,
  0xbde45a283b49416bU, 0xbcfde554bc8c63d8U, 0x3d4c5f74bbaaaa26U, 0x3ebb27c93db231d6U,
  0xbcbdeeeabdbea147U, 0x3cfb224e3ea9de62U, 0xbcbb507abe14133bU, 0xbd9fe001bdc8b58fU,
  0x3c10e8acbb29b8a6U, 0xbda31050be09018bU, 0x3e168e0abd41d659U, 0xbd6a25613e2d281eU,
  0x3d2389c83dd3fc3eU, 0x3c97fac7bcae9809U, 0x3d90bd3c3d2e7137U, 0x3d8dc96f3db7c6b7U,
  0xbccdf4f33d4bc3c9U, 0xbd893d193cdbf2eaU, 0xba23c2833c61972aU, 0x3d1682b53bfb63f6U,
  0x3dc86a0e3cd6390eU, 0x3d220b843d4a51aeU, 0x3bfbfa4dbdde1effU, 0xbd431c243de662d6U,
  0xbce87d5fbda92045U, 0x3dcd9fc4bb818f3cU, 0xbe378879bc4c6873U, 0x3ddd43fcbe432c7cU,
  0xbdcba1b53d2d29a3U, 0x3cd216fe3c0f3ca0U, 0xbba389173d3a408fU, 0x3ae0d40ebd1771f4U,
  0xbcea6aa73b92f65bU, 0xbd776b9ebbf045b6U, 0xbda842b5bdd9732dU, 0x3cb9e64abd07e932U,
  0xbc15b5ff3d5ba22dU, 0x3d0359d2be64d4ddU, 0x3d17e4933d97df65U, 0x3d5a9ed13dc3a185U,
  0x3d2d1d903c393ff0U, 0x3bb3c3453da54c1aU, 0xbc285fd73d3a631dU, 0xbd0d3153bc83dd94U,
  0x3e0f8006bd16463dU, 0xbd0d6e733c1a1765U, 0xbd86116e3d3d8193U, 0xbe2debc7be2e0d55U,
  0xbcb21a79bd0c99e0U, 0x3db450db3d8db13fU, 0x3d299280bdded399U, 0xbcac86973e71792dU,
  0xbe73b42abd635146U, 0x3df63518be813979U, 0x3c0eea2dbe51739bU, 0xbcbdf3f43c6ccfe5U,
  0xbd589b4d3de15bf5U, 0xbef16754bd421c83U, 0x3dd2bb653c4e701cU, 0xbd220ac0bd26cbefU,
  0x3e06032abd942e7cU, 0x3cd2f672be474aa9U, 0xbcdd5942be52ad93U, 0xbd31083ebdb512a3U,
  0xbd7ca9913d84012eU, 0x3dd43bf03b43a7ecU, 0x3d683303bd38583dU, 0xbd517207bdb45539U,
  0xbd7bb370bc98d6e5U, 0xbd527efb3e008d9dU, 0xbdadc8bb3c60df03U, 0xbd3d267a3e4647b3U,
  0xbe8f78a6bd0b95c8U, 0xbdecbadebc341386U, 0xbcf6750c3e6f3fafU, 0x3d5e4073bdd4db71U,
  0xbde2d963be971a4bU, 0x3d7f73943ee9db16U, 0xbd6f51be3b96186aU, 0x3deda86fbcccc269U,
  0xbc01d014bdb8b1dcU, 0xbe0eac253df3b641U, 0x3d9864dc3e806242U, 0x3c4460233e713c48U,
  0x3dc5e5ccbc9e836fU, 0xbd25bc7d3d98b8c2U, 0x3cc46c17bd0e3354U, 0xbdfa02d03e5b74bbU,
  0xbf0148ccbe7739d3U, 0xbd4ecb44bf01d14cU, 0xbd9fc3c9be789cb5U, 0x3dfea999bd227931U,
  0x3e607aab3d4f0a03U, 0x3de286adbe5967b0U, 0x3e8d9230bdab6314U, 0xbef47f933dc3172eU,
  0xbe131ebb3d5e42e3U, 0x3d8e4f93be185c97U, 0xbcd6ac8cbd305d14U, 0x3ef90527b9e73f0cU,
  0xbde1a106bbe81aefU, 0xbd3b2a1cbd4eef08U, 0x3e071081be4e2287U, 0xbc15fd303dc46dadU,
  0x3d61a350bd8be827U, 0xbc4ddfc43db0369eU, 0x3df6d6e8bc426acbU, 0xbda6fbf23d99ba2bU,
  0xbd604b263c2206a0U, 0x3e15c030bda86b5eU, 0xbd3c82b6bd33c389U, 0xbe950da13e363e1eU,
  0xbda8e5b9bba79594U, 0x3c00c97bbd846819U, 0x3e274d6c3d432804U, 0x3e5b138ebd63926dU,
  0xbe38dbe6bd82ce3bU, 0xbdf8fa58bcf53745U, 0x3e095b6d3ded9a23U, 0x3cb191e0bd2c4e6aU,
  0xbc167b993d41c979U, 0xbcbeacc03d79acd8U, 0xbc0d94703dcaa342U, 0x3ce97f8abec49b7dU,
  0xbd8408023d14af65U, 0xbdc51d3d3edccbdaU, 0x3b18d8643d17d715U, 0xbe0a76833cd30f34U,
  0x3cf810f3bd1c6642U, 0x3c03c2debb0e3429U, 0x3fc36fe63e15d39dU, 0xbdeaad99bcf6dedbU,
  0xbc20198f3e02b3d8U, 0x3e06bdf33f9ee82aU, 0xbd5bcda8bd8dab99U, 0x3c210e033ca53175U,
  0x3d43fa0bbd0b1e7fU, 0x3ee84302bee2da02U, 0x3e0bcc8bbe7a1b9dU, 0x3e83c242bd8e32d2U,
  0x3dda42a9bdb16692U, 0xbdaeeb943d654074U, 0x3c29186ebd3cf146U, 0xbe928b1f3d72084aU,
  0x3e66d945bd3fd7c8U, 0x3b8ee81d3e02fe6aU, 0xbcb6c7f53d7fb74eU, 0x3bced173be297c79U,
  0xbdf2a329bdeb0ca4U, 0x3af7cccc3decd1cdU, 0x3ccfa50ebc6ab5e0U, 0xbe536e5fbde35c87U,
  0xbdbe81593e214a14U, 0x3e54b688be21b9f3U, 0xbf149ca5bdb4e6c1U, 0x3de226733d9e8ac1U,
  0x3d676ead3d2f5b93U, 0xbe0ba113bca34a87U, 0xbc3ca024be09aef7U, 0xbdc36eb5bd599851U,
  0xbe5bf2dd3e895e0eU, 0x3e8a1705bd8eb1ebU, 0xbd962b08bd57f8b1U, 0x3edc59c7bcd128c2U,
  0xbdb7a540be139617U, 0xbaa73a783d9fae4cU, 0xbdffb976bd018920U, 0x3d1ed1923cceebc6U,
  0x3d80bcb7bd2a2049U, 0xbd572725bda4f404U, 0x3daa6bddbb29b870U, 0x3e922c0b3d54616bU,
  0x3ddcedd03c495832U, 0xbb2f1c17bd352af7U, 0xbd89593d3cbf2ef6U, 0x3e7e042e3e2bf556U,
  0x3e915ced3d5c6103U, 0x3e43d4ae3e181117U, 0x3d4101d53d29f291U, 0xbba20d43be116179U,
  0x3d0cdcc63a038384U, 0x3d55114ebadd2992U, 0x3cbcb233bec85906U, 0xbd09a9ab3d656166U,
  0x3d8ca0fe3e26346cU, 0xbe89cdf9be9a9fe0U, 0x3cff480f3de8954fU, 0x3d30c996be4d86f5U,
  0x3dc8d7943a1eda8bU, 0x39aa1ff8be9be881U, 0xbd09ad4fbd484fc6U, 0xbd0f051bbdaead1aU,
  0x3d17b3bebdef0508U, 0xbe8f69ecbe061c30U, 0x3d9881c43d4cf4edU, 0xbe2500df3c342c58U,
  0xbdf3d637bdff5366U, 0x3ccdabc6bc2ac54aU, 0xbeb5c6ddbe925885U, 0x3e150e363d829763U,
  0xbd9263ae3cde2279U, 0xbcd7fad2bd100266U, 0x3e841c08bd861b09U, 0x3db3a0a83d85714fU,
  0x3d8676aabd3dcf6bU, 0x3c3c69a13d562bbaU, 0x3e4caf9cbd11aa00U, 0xbe86f650bd40810aU,
  0x3d1faf713be3f8f3U, 0x3e18455abe9021e1U, 0xbe15a0813e070d50U, 0xbdda13063f5c807fU,
  0xbd3eaa0dbd9fb9b3U, 0xbe93c091be40a7d6U, 0x3d969f11bdcf6c65U, 0xbcb896c2bced0468U,
  0xbe979c1bbf0093f1U, 0x3e965785bf0323e1U, 0xbc879306beacc23dU, 0x3dfb0f65bcbd048bU,
  0x3f099a753e6f22a2U, 0x3e0413243f357adbU, 0x3e15d9613e89cc86U, 0x3d8abdbfbdb12066U,
  0xbc303d063d2b15b4U, 0xbc93fd103c2c5666U, 0x3eced8afbe1e01c4U, 0x3e308c97bd30dc46U,
  0xbb8c26a5bdd4339cU, 0xbe4da42c3f85407cU, 0xb9afb52c3cde6b35U, 0x3e4b130dbc794018U,
  0xbd64eb78bd489324U, 0xbed01cdfbec5930bU, 0xbd28d932be32e025U, 0xbcc0d2713cc3f97bU,
  0xbc860afe3cfd1974U, 0xbd1b42883df8c878U, 0x3bf8b563be6831a9U, 0x3eb6d17b3d15c766U,
  0xbd16ca49bcd0bcd6U, 0xbd7ba7023d28c124U, 0xbc5574753d253b65U, 0xbbb8f50c3e434cecU,
  0xbddb51eb3cdbb4f0U, 0x3c8b61443d732aa5U, 0xbcfbb91bbd674f91U, 0xbd06a56dbd83cadaU,
  0xbca1ad20bd8242a9U, 0xbe427fae3daf293aU, 0x3e8eaf9a3d65c3ebU, 0xbd62ecbe3d2fb6a6U,
  0xbc93076d3bd722f3U, 0xbd7cb80f3e4296b2U, 0x3c46fc5abd69f911U, 0xbcee8dbf3cd1b740U,
  0xbdf71a6639ef124eU, 0x3b99ac123cc12878U, 0xbd779a913d317260U, 0x3daa519d3d88688aU,
  0x3ca29d4d3d35d580U, 0x3d42a213bd83686cU, 0x3c9edc373cefaa07U, 0x3da35ff8bb459391U,
  0x3c5572353b37240fU, 0x3d84a6243dc3b86cU, 0x3ca8808e3bf3da5cU, 0x3ca7746f3d844af4U,
  0x3db9b45b3d62f95fU, 0xbc1dc789bca4ba29U, 0xbd4ca20e3c127b30U, 0x3b178a11bd361c6dU,
  0xbc28418a3aa51081U, 0x3e4839f23e22a990U, 0x3d2106a0bc1d620cU, 0xbc83d47abb9b7385U,
  0xbdb8847bbba728e5U, 0x3e088715bcb0615eU, 0x3bf0d8e9be0e1b1fU, 0xbc5a7b523d0ea874U,
  0x3c5698fe3d82f77bU, 0xbd839d6fbc5f8ab1U, 0x3d7f8c71bc79ab8bU, 0x3d193af4bd09e428U,
  0xbddb2dd1bc7db798U, 0xbbd6ea79be01ab7bU, 0xbd55bca03c9a161fU, 0x3c874568bd3144f6U,
  0xbea9b55c3e012c20U, 0x3e2c62e3bec1f4a5U, 0xbda5f7c83e030107U, 0x3f69d336bde1d4d1U,
  0xbea8c3e8bd9006b9U, 0x3d7bc56cbdf3bbb7U, 0xbd4d9c87be159235U, 0x3db34edf3f04496cU,
  0x3f2c7d9abe69e0bdU, 0x3d83ee603d861429U, 0x3bb0788bbcaa18c2U, 0x3d0d76e7bc394ac6U,
  0x3cd8855cbd013ae9U, 0x3e2915fabda8ae5eU, 0xbde229fabc643f29U, 0xbe1d0767be0c7d27U,
  0xbd53cb2b3cb5a44aU, 0xbbb8921f3eb334c4U, 0x3da1e2b3be833f24U, 0x3ebb05f0be486a6cU,
  0xbec7cd90bc9c1070U, 0x3e5b90ef3def064aU, 0x3e549822be973e13U, 0x3cc178b8bd036c45U,
  0x3d2392b93e54f03dU, 0xbee820fe3c857915U, 0x3dd890fd3ca14af4U, 0xbe234753becd65f5U,
  0xbdd3ebb2bedaeaa6U, 0xbe23fb5dbfd807a5U, 0xbde17fe9bb2cf7faU, 0xbe00dc63bcc6020dU,
  0xbe22de27beb01907U, 0x3e549983bafcf120U, 0x3d479c043d6d60d4U, 0xbea929033e3a65e1U,
  0x3ceae6f0be0d066eU, 0x3d68ca563e007d80U, 0xbc88b2763b5e05b9U, 0xbd76904bbdd03c0bU,
  0xbdaf6b193d30afc4U, 0x3e575b213eb14605U, 0x3cbb75b6bd925b4cU, 0xbd244018bd88cf76U,
  0xbd96c86e3d135292U, 0x3dc1ea9dbd6ed1c0U, 0x3e8337763e22f44eU, 0x3e9c02dd3df01c24U,
  0xbc1ce57cbd870321U, 0xbc54dcb7be5ad948U, 0x3d7a1c99be65f5dcU, 0xbc9a1c483f45ddd1U,
  0x3f21ce733e542de0U, 0xbd9cc10bbe5e3186U, 0xbcc2c0f23e4ddfe8U, 0xbce9dfce3e449bb4U,
  0x3ea37d29be563efaU, 0x3e1179a3bdd8414bU, 0x3e608c9ebf15adadU, 0x3e02b2dfbdff116bU,
  0x3ca841593e7a5e99U, 0xbe8f2acbbe112ac9U, 0x3e19a21b3d7ad424U, 0x3a427e87be55ee98U,
  0x3cb1068c3cdedb87U, 0x3bc5c8fa3c11c8f9U, 0x3dc405803ca83207U, 0xbdc9b676bd119ab3U,
  0xbc2e485dbd0de30eU, 0x3d9c7b2a3edafb3eU, 0x3cadf501bced3b65U, 0x3dc732c7395e48f6U,
  0xbcb42eb63cac0f3dU, 0xbf6e674ebf05bfc1U, 0x3c7f6e75bd3622efU, 0x3a9b90bb3dc3b706U,
  0x3d25b15abcbbf2c3U, 0x3ca6e352bd400a7cU, 0x3d06fba5bd23bc4aU, 0xbdbb64f53cff56b1U,
  0xba1664f73dd8479dU, 0xbcf101fc3c4b425cU, 0x3ced250fbce1b927U, 0x3bfedb633e035efeU,
  0x3e15d11c3cf2852dU, 0xbd606ceebd5a6ef6U, 0x3b95c367bca88781U, 0x3bcfd5da3d9baf38U,
  0x3d2a1fa3bd03509aU, 0x3d9d9e6dbd0685a3U, 0x3f97eb843d025495U, 0x3d6645d5bbb2bd81U,
  0xbcbc79c6bc4b67dcU, 0xbd92487bbe37591aU, 0x3d2208db3d7cfe4eU, 0x3c949b0ebc4d903aU,
  0xbdb821cc3d530958U, 0xbcf7a82b3db0f7a6U, 0x3d7993663c91423fU, 0x3e970a72be233ea1U,
  0x3dc15ebabea80db2U, 0x3e4adc02bcc5a900U, 0xbc79309bbe0f88c0U, 0x3df09dd3bee0cdbaU,
  0xbe250891bd9f8ba0U, 0x3d53c6e23beb14c0U, 0xbe36092fbd7717d2U, 0xbdac27cdb920fbf9U,
  0xbe0819a4be388defU, 0xbe4715a73e42beb3U, 0x3e1596ae3dd6f0fbU, 0x3e6915d9bc94d739U,
  0xbd2783ae3d8aeb68U, 0x3b2edde4be0ee9c1U, 0x3d265d95bbbce718U, 0xbe3c40753ddd34d5U,
  0x3b09e4133e7abd44U, 0x3d7ae3b5bdab628cU, 0xbdc40717be6015d5U, 0xbd854b54be33a4baU,
  0x3e039647bdd30f5cU, 0xbe18498f3ddb65e5U, 0x3d5fb4e5bd73060aU, 0xbe4d74143c996811U,
  0xbc69c950bcd03b95U, 0x3ced6bd53d4349f8U, 0xbd4da6f33e0c41a5U, 0x3e3851593ed981aaU,
  0x3dcfaf063d2ed151U, 0x3e2fb5febd7f6d01U, 0x3d5895823e1d7570U, 0x3f4acc47bf8925c2U,
  0xbdf3d070bd1103dfU, 0xbe9c6fe1bc21b8d1U, 0xbe4d11963e04413aU, 0xbe26988b3d5b9237U,
  0x3e407c243e18a837U, 0x3c362608be3d4d31U, 0xbf4241553d90aecfU, 0x3e291696bfeba168U,
  0xbe9f8a15bfc38072U, 0xbd2bd167be2ae453U, 0xbbd73af0be9523bfU, 0x3c83eed1bf1e230cU,
  0x3de575a0bec277e3U, 0xbd414834bd403efdU, 0xbb915bf03e3a5448U, 0xbd820f72be8e113aU,
  0xbdbb9bfbbe6c1f50U, 0x3d420f9ebca200c3U, 0xbcb6c48e3da90ee5U, 0x3d1bc559bfbbacf1U,
  0xbdcb1a433e63885fU, 0xbed440d43e5a71bcU, 0xbd8e72f93d97d9a5U, 0xbf9c3137bdf64714U,
  0xbdd7b9e03da5b18bU, 0xbe3eb5fc3ef02ccfU, 0x3a79d18d3e349ac4U, 0xbe3fe344be5ebbfbU,
  0xbd23dc62bdb95075U, 0xbd5a5fbcbd16016aU, 0xbecc819ebc792313U, 0xbc9d20b4bdde53c1U,
  0xbda0f945bd987763U, 0x3e0f04913faff36cU, 0x3e0e2c2b3d61ed62U, 0xbebc4dfdbbf8079eU,
  0xbe07c631bdb2843cU, 0xbe8e5787bd902e89U, 0xbd32ca1cbd272b2cU, 0xbdd7acc73da1d229U,
  0x3dd55ec33dcdc385U, 0x3daf6e31bcc28b92U, 0x3d1ff6d83e24f03cU, 0xbde430da3c7f3467U,
  0xbd576466bd5bc908U, 0x3da095adbda5cc89U, 0xbd5c4b4abe6c40c9U, 0x3d2af8d53e5d8e24U,
  0x3ea891813de85fe9U, 0xbe15b6603c68e776U, 0x3be24bbebe1b37a4U, 0x3e10ebbfbe236c17U,
  0x3aad38f3bde45da2U, 0x3e035e2d3cab1bd4U, 0xbf17d772bd197ca2U, 0x3b45046ebd1ef339U,
  0xbbbfbba33add8a8fU, 0x3dbe9ccfbdb81d3dU, 0x3d6ba3a23d83f92eU, 0x3d3349f53a55a126U,
  0xbe79d63e3d4d2679U, 0x3dce3a953f0aff2fU, 0x3d20e0afbd805294U, 0xbda6106a3dd3b176U,
  0x3f3f10c93e12465bU, 0xbdd8b3a63d7b205dU, 0x3ddd179abda7ee42U, 0x3c915434bf205dd4U,
  0xbf09adfc3f32df53U, 0xbbbae6ffbddc74e4U, 0xbd2410903c780a8fU, 0x3e0abcc23d5169a3U,
  0x3d84c5ffbcc94824U, 0x3e2954163d441bbcU, 0xbf0eebb2bdddc672U, 0x3de41d333eba476bU,
  0x3dd8b1913ca8bf89U, 0xbf099f2b3d8d2f0bU, 0xbcade3bdbcf95f56U, 0x3c9f81e8bf4dc5e2U,
  0xbe19e21fbcc95090U, 0xbe6757ccbcff78feU, 0x3f1156483eebf696U, 0x3d292968bdf37dc3U,
  0x3cc593f83ddac8d3U, 0x3da056f5be167c11U, 0xbda8c97b3d6e50ccU, 0xbda9e11b3d148b88U,
  0xbdad10bf3dd395e7U, 0xbcab1d583fa5b03eU, 0xbf2f168ebd86a9e0U, 0xbeafdc18bf88e1bdU,
  0x3e19f9ac3dc8d801U, 0x3e1a329d3e44005bU, 0xbd5e65cb3cc59427U, 0xbf79e329be84a2d1U,
  0x3b56cf53bd9521ebU, 0x3ddd7469bddf63b0U, 0x3e28ed1bbe175709U, 0x3e42583d3ed44a4bU,
  0x3eb8bf37be185aa6U, 0x3da4f98f3e11e698U, 0x3ed1752a3d1acff8U, 0x3d4ee3483defaf3bU,
  0xbe4a86adbcd139caU, 0xbe40aeb0bdc0e623U, 0xbdc2fa65bdb3a569U, 0xbe7d43213d0c5b4bU,
  0x3b344fbbbd4d938dU, 0xbdcdc92fbe02e8f1U, 0x3e4f53a5bdbf4ce0U, 0xbe82f50cbce83cd4U,
  0xbe29be6abda13637U, 0xbcb9d7c0bdd0362fU, 0xbe9bd5913d11b1e4U, 0x3d912e85be129a53U,
  0xbd05a7193ebd1bdeU, 0xbf3986953ee89299U, 0x3d92fc093de93f4bU, 0xbe3f1bb13f086e2cU,
  0xbe82e7b8bd118d4eU, 0xbd706b1b3f079db6U, 0xbe2e88473dce26dcU, 0xbd4de5733e429d4cU,
  0xbd8ad79b3b9997caU, 0xbcb7dbfbba06408cU, 0xbd191089bdd3de6bU, 0x3e9af4783e3eb52dU,
  0xbbf276a43e4c862eU, 0x3d04114abe7c688fU, 0x3c4261873dd67c3dU, 0x3d1241993d2fc79aU,
  0x3d2bc1943cfe4596U, 0x3d4ed1c23d9d3debU, 0x3d4f096e3d2cedfeU, 0xbd1f44243e595ecaU,
  0x3e83316e3dfe5d14U, 0xbbdd846ebd0a87bdU, 0xbdb5faecbd499b80U, 0xbc91e8bcbd16290fU,
  0xbdb8d53b3c38c233U, 0x3dc3dc183e4b8b49U, 0x3d133813be2c9ac3U, 0x3cb641e1be0f1b57U,
  0xbe6e9a4bbd0e92bdU, 0x3e401037be1a8ad4U, 0xbbe51e31be6fd845U, 0xbd301b833e1feba1U,
  0xbd069b933df0ea02U, 0xbe8be2183e087b68U, 0x3e1c9f2eba8c3a6fU, 0x3e0b3703be3ce10eU,
  0xbdfe18fdbdcda5b2U, 0x39d47350be858abbU, 0xbd0a29e9be38fc02U, 0xbd3504aebda8e03cU,
  0x3cc2d802beb2c2e5U, 0xbd67da14bdf7d20fU, 0xbb0387d23c121cceU, 0x3cbe8fc0bd7ada39U,
  0xbe1baefdbe1577bcU, 0x3e3d29c3bd4df344U, 0xbc5a4be93de64652U, 0x3d3e9cb63f2f2504U,
  0xbebaac06bcaa4724U, 0x3d58413d3c0f29e6U, 0x3c967d65bd9ba77aU, 0xbc7b016ebd28556dU,
  0xbdc0c4febd606eb6U, 0xbe6bc1743c37bde2U, 0x3dd896c5bbbc899dU, 0x3e9c975fbbda4dd9U,
  0xbcac9a293cb97cceU, 0x3dd6f3233c70ef90U, 0xbe3df150bd84cb2bU, 0xbe509c6d3d587deeU,
  0xbe1541373dae4a12U, 0xbdea8c8ebce507e3U, 0xbde1b9abbb810aa7U, 0x3dd46ab6bdade011U,
  0xbc8daf2abdacb107U, 0x3da5eb643c44b8e3U, 0x3dc891da3e7aa4e3U, 0xbc6a5bed3d2c77fcU,
  0xbea24311bd2e8ef2U, 0x3c3def1f3d895dafU, 0x3f0f63533d8210feU, 0x3e1afffb3d6e1619U,
  0x3d051362b9ab3521U, 0xbc3bad89bbfbfb1bU, 0x3a85bc993dcf07c5U, 0x3cfab4adbbb73c7eU,
  0x3bda9ed73c9675e1U, 0x3e979d38bdafe17eU, 0x3dadcf933c880e38U, 0x3d12fd233ecad40cU,
  0xbecfe4c33c1b5dfaU, 0x3d8aa75f3db23c3eU, 0xbcc30f233d0d97edU, 0xbe6d094e3d626ebeU,
  0xbe3939aebd2d1fb0U, 0x3b8047d73daff457U, 0xbe309f28be411588U, 0xbbde91cc3a9b59e7U,
  0x3e330bfdbe70e1b0U, 0xbd8fed473db3f95cU, 0x3dae6e623cdb9cb0U, 0x3cebeac13b39bc58U,
  0x3bb72892bdc49e27U, 0xbbece7a9bc9c09b8U, 0xbbc8c7143d11b9b0U, 0x3c0d031e3cf7c198U,
  0x3d2c79953b58912cU, 0xbda3e05e3d5a8802U, 0x3d60f63bbb539193U, 0x3c458b403c353300U,
  0x3d92dae83c627726U, 0xbd95ac80bca4cd6dU, 0x3e77f95d3df5fdc5U, 0x3d44679d3b1c3e36U,
  0xbba03d59bc123868U, 0xbc373a543d1951a0U, 0xbca3b6ccbc911110U, 0xbd94eb673c9ff984U,
  0x3cd640453d0a917aU, 0xbe497f623d51bfb8U, 0xbd94b315bd383c86U, 0x3d938f87bea5537aU,
  0x3ecb74bc3c8d5d23U, 0x3d130b263c6e8c78U, 0xba788f12ba127f04U, 0x3dd30a8b3d24782aU,
  0x3e26fc663c315a42U, 0x3c125343bdb39b21U, 0x3e5a915d3e393879U, 0x3ae0645e3c829b26U,
  0xbe02306e3e82fdcfU, 0xbd07bc52bda6b29bU, 0xbdd7e98cbb8fa95eU, 0xb82e0e2ebdd7a7e6U,
  0x3ac0ce383d8c7762U, 0xbc6dda93bc1f2e14U, 0x3b8f91993d14d344U, 0xbbff526b3a7cba4aU,
  0xbd121869bca0d6f1U, 0x3d74af2c3d200212U, 0xbe35cf98bb06e6a1U, 0xb7ec6b6fbabfc28cU,
  0xbd7337e13c9f4978U, 0x3d6a75723d4ad117U, 0xbe4bfd553b388554U, 0xbd89ddbf3cb2da6fU,
  0x3b3383fcbcbe04f8U, 0xbd2b75203bf7a50bU, 0x3dc62bd5bcf52465U, 0xbd8bf8393ca3ac5bU,
  0x3c5367c2bc7ba980U, 0x3cd2a168bda6697fU, 0xbc410b693c197522U, 0xbf3515f4bcabfc42U,
  0xbcf96cee3c8e625eU, 0xbe79268dbe82a6bfU, 0x3c27c44f3cb5da49U, 0x3d410fe0ba97a203U,
  0xbcbd3bcebb9e8389U, 0x3bbc8cd238afd342U, 0xbc6ff2a2bb163af6U, 0xbd85be8d3d4b135aU,
  0x3d2dbd58bc0fd1c9U, 0xb9f2c972bb445ad6U, 0x3c04e19a3d56d5ccU, 0x3c531fc4bc3eb52dU,
  0xbd2ea4d338aa655eU, 0xbd6685f3bc0fa5d0U, 0x3cb084d3bcb99078U, 0xbab0e1653d78a65fU,
  0x3cdb17e7bd3e6f7bU, 0x3dae947e3b62205eU, 0x3e8981c2bc82f4c7U, 0x3d4975763c18ee9dU,
  0xbd1121cd3caeaa45U, 0xbabfc45dbd564607U, 0xbba25af83dd9cf7aU, 0x3cfd668fbd0fa524U,
  0xbdea742fbd163601U, 0x3d6f06ca3eeca49eU, 0xbde1fb7e3e5f39b1U, 0x3f687d1d3baf467eU,
  0x3f10067f3f0847c5U, 0xbcce2f22bc3fbd93U, 0xbe0890503e22e4a2U, 0x3deadedcbe0c0072U,
  0xbe59e1b13f18e9edU, 0xbcc587853c1f3497U, 0x3dc0afbbbde9a4cbU, 0xbdcb5d2c3d905ba2U,
  0x3d892c04bd9dbb03U, 0xbddc4fa23b9c0874U, 0x3d0dcf53bc9a0928U, 0xbe9ea781be622215U,
  0xbdf115cb3d3b2666U, 0x3e0a0d113e8877a8U, 0xbe4129033e30203fU, 0xbc1dd562bcece760U,
  0xbe3809ffbdc04b74U, 0x3dc57cbc3dcbbff3U, 0x3e9ac8fa3e0cd31eU, 0xbe203eb63d89463aU,
  0xbd93d2f0be092c7dU, 0xbe8c8846bd9f9af6U, 0x3d35715c3d9eca29U, 0x3e0d4743bf507e20U,
  0x3ca6bfce3df62022U, 0xbc814aabbf688119U, 0x3d6a49be3d8b59dfU, 0x3d53fa58bf65069bU,
  0x3dfbaf3fbd01e355U, 0xbdab0ba83e69c501U, 0xbc30d403bd6fb26aU, 0xbf8d0d76bd93df95U,
  0x3e60a63bbdf275c6U, 0xbc4277aebcb5bf5fU, 0x3c63f0f7be9effc8U, 0x3d7850c43f2bb367U,
  0x3f3866fb3e357876U, 0xbd9961783b49af47U, 0xbac1efafbcf653b6U, 0xbd0a84a73dd696b9U,
  0xbe8939d43c654cdbU, 0xbf0998b03d140bbdU, 0x3e5950dc3ca0cca3U, 0xbe237b2d3e376182U,
  0xbda12e9b3d01f476U, 0x3e9991d2bebc7aabU, 0x3cd6f6423d1b9d17U, 0xbf10e4963e8ed634U,
  0xbda75fcfbc13daefU, 0xbe07be3cbccc11cdU, 0x3e3ed5b03e02523fU, 0x3ca845093d61e077U,
  0xbb9e5eabbd85ba96U, 0xbd8ae2133cecbcb6U, 0xbd0fe4c0bdde20ddU, 0xbda69d6a3daa90afU,
  0x3df8c5223d834c82U, 0x3cac09c03ee4f3cbU, 0x3e284c123c7ec84bU, 0xbdb8ef86bc2446ecU,
  0x3e6afc0dbe6e42e6U, 0x3d8b3008bd97e9f6U, 0x3d9efb33bc97cffeU, 0xbbdb2d49bd84fbacU,
  0xbe0af829bda6c034U, 0x3c0988113d2bac35U, 0xbf7bfeefbd344769U, 0x3d237a79bde4b01eU,
  0xbd183679bc53ce52U, 0x3e4f2b993daf00e8U, 0xbd43f0e23d00c2f1U, 0x3d43910c3cd03e66U,
  0xbe09256bbcee5f1aU, 0xbd3c7302bdc8e92eU, 0xbdbcc23cbdd8775aU, 0xbe2f8a9a3cf404a4U,
  0x3ce3f88bbb8ece43U, 0xbe335507bd427dc8U, 0x3f6eff5abd3b913aU, 0x3cc412e0bd274677U,
  0x3c50b0443cd3a95dU, 0xbcdef76abd234783U, 0x3bb10740bdad5adeU, 0x3d0aed47bd81fbefU,
  0x3c4037ce3e776717U, 0xbe8c88083da04e55U, 0x3daebc013e9f8f5bU, 0xbe8786d13e0a0c5bU,
  0xbe159d25bdfcd038U, 0x3cf30da8be859065U, 0xbdcd2d653c576094U, 0xbd6860a7bd2b60b2U,
  0xbde63bd9be175350U, 0xbe3ab13e3c1edf57U, 0xbc9304433c52d3fcU, 0x3eace1e03ca994e9U,
  0x3d48f0f4be7d82d0U, 0x3e1ac1dcbdad8e80U, 0xbdf4ea683e90f28bU, 0xbcc06816be926f6eU,
  0xbeb1c2cc3c74912fU, 0x3d7a4fa73da6d0dbU, 0x3d2ca51f3e05a7d1U, 0xbe4fe78ebcf95a31U,
  0xbe110f303d846338U, 0x3c50ccb0bda65bbfU, 0xbd507192bdf18cf3U, 0xbe5f653d3e1076a9U,
  0xbe2d4b78bd898463U, 0xbd102b40beb29cf0U, 0xbe32c4e3bdbea369U, 0xbc141cf73ef1dafcU,
  0x3d5f3bce3c185cc1U, 0xbd212796bd763428U, 0xbd1f54dabe436dc9U, 0xbcf59285be217724U,
  0x3cb272b2bca58edeU, 0x3ea943b03edea918U, 0x3da3e5bbbe2dff6aU, 0xbe09f1dfbe8fb67eU,
  0xbeff62b3bd0ec815U, 0x3e0f1de83dd08ba6U, 0xbc86b6ba3d8f427cU, 0x3e4c4514bd166aa7U,
  0x3ec2bab5bddfa026U, 0xbe8c17e4be4904dcU, 0xbdaeeabc3cf551abU, 0xbc90f9c63e11c24bU,
  0xbe5a0652bd81ddc5U, 0x3e9538e4bdc416e1U, 0xbdabcc18bdbf04a5U, 0x3e9f84e03e0ac31fU,
  0x3eaef6c6be03ddf8U, 0x3d538f9dbe1efe07U, 0x3e7bcff63c16fe02U, 0xbdb985e83ef31942U,
  0x3e3ecf4e3e463c6bU, 0x3dea45063da1ddeaU, 0x3d76f4293dfa5617U, 0x3e0ac5873d26e9c0U,
  0xbdf37c613dbbca44U, 0xbdfb7d533e128fdbU, 0x3dc9c2fbbda991fcU, 0x3df3f11fbd162415U,
  0xbf2bb93a3e525867U, 0x3dc8ecffbe550cefU, 0xbd49f1c03c1944d3U, 0x3dac1d743db0ac29U,
  0x3e2aabfe3ea3a81bU, 0x3d0e99f53e96bad4U, 0xbc88fe95be18b3e1U, 0x3dc9add7bc7a079cU,
  0xbe78883abd94d6f1U, 0xbe1ab1713dfa24b2U, 0x3c73c9443dbdc4f7U, 0xbe2a4c21bda6f9d1U,
  0x3e01531f3e6d598cU, 0x3e9053503d0c555fU, 0x3d4ee2a23c686d94U, 0xbe7df8cabd7d51aaU,
  0x3d14fd0dbe2bd679U, 0x3bab0e393d9f2a03U, 0xbe20c1623ec29ed1U, 0x3e27eef4beb2da16U,
  0xbe4b4b663e6f4fe7U, 0xbd7606a1be651a7cU, 0x3d9988eabcdd6203U, 0x3d74fd763e1cf806U,
  0xbe66b295bdebe77cU, 0xbdaf98f2bc84beb3U, 0xbdddb4403c567f1cU, 0x3eab0ae53ea29fc0U,
  0x3d67122c3daff682U, 0xbeb468f6be6983fdU, 0xbdb1383f3d368a47U, 0xbe74c6833d71dd1cU,
  0xbd098fdebe549e9cU, 0xbf11e0b6bdde67d6U, 0xbc970ca9be781a0cU, 0xbd915148bd808684U,
  0xbe3fd99bbe15c3d8U, 0xbedc2322bc829bb1U, 0xba5a8f773e2e5ab0U, 0xbc9c313dbdd511a5U,
  0x3d7b5c2abd956490U, 0x3cb01b683ef380adU, 0xbdee38ae3dca2f33U, 0xbd004afabed89fe0U,
  0xbdf001b43c229782U, 0xbde11d6abdb9ffd4U, 0x3d9f1c8dbd3b1112U, 0xbeb03f79bcae11feU,
  0xbd1cf48abdd676e0U, 0x3d4808873e44e64dU, 0xbe144b8bbdf5b339U, 0xbe16b314be1ca91cU,
  0xbd954466bb27451bU, 0x3ce2ccb43d0697faU, 0xbd57cb6cbee06586U, 0xbd9e61aebdecd161U,
  0xbd483169be1aed0fU, 0x3e1045d33eb11d6fU, 0x3d9c2a4a3c537792U, 0x3e395926bd1a5904U,
  0xbced51d4bd4ba0baU, 0xbdd7c2a8bda96d04U, 0xbdcb21b43e8f245dU, 0x3df43baa3f047d51U,
  0x3e0b398abe148580U, 0x3d2795c33d0f8e8dU, 0x3e12b6d5bd1b5b3bU, 0xbd9826613da84c49U,
  0xbded83f7be6792e0U, 0x3f1a1c733d34ab25U, 0xbc519fa4bd8a73ffU, 0x3e8e5875bda270d7U,
  0xbde82f483e656d7aU, 0x3da8bc8dbdc82007U, 0x3d2e8155be10dcc9U, 0x3e3788c4bdf062f6U,
  0xbec0a728bdf85df7U, 0xbe5ec38dbe093d19U, 0x3d2ebe273d20d3bfU, 0xbdcb728cbd4b54c0U,
  0xbd78decb3e08a701U, 0x3cf78051be05501bU, 0x3d8665fe3e624c73U, 0x3da14c41bd9eed79U,
  0x3b0c8db5bd1d21bdU, 0xbcfa9d3abce092a5U, 0xbd01587c3d94c1d5U, 0xbdb1064bbd544d61U,
  0x3c9aabebbdb4a7a5U, 0x3bd33d3dbcfc1952U, 0xbd57db543cd80c87U, 0x3e2eb11bbe2e8618U,
  0xbdf3fff1bab86c92U, 0x3ec4d6cabd8033f2U, 0x3e24d301bc996be7U, 0x3d3992823e9d7529U,
  0xbd877402bc4f6c55U, 0xbe8fa49bbd20c8c3U, 0x3de2993a3ea5d594U, 0x3c863526bdba509cU,
  0xbd16625b3ca589f9U, 0xbdb627ee3dba6d99U, 0x3cc91e59bdf82f7dU, 0xbd32a1f6be062a35U,
  0xbda896443a012422U, 0x38fb06f8be984b8eU, 0xbdb89fe63d5a5ebaU, 0xbdd5e898bb562e03U,
  0xbdaf8757bdd25291U, 0xbe2fd5253baf26beU, 0x3f040c12be5892aaU, 0xbd5a7c1cbd7aadf4U,
  0xbab566653e3900f4U, 0x3f18647bbe43aa6cU, 0xbda0bbcb3d5535c8U, 0xc079a38f3d8e68c5U,
  0x3de3f6b13c25b4c6U, 0xbeee35bfbf25e294U, 0x3dfa0d1c3ec04056U, 0xbe245c733e58d06fU,
  0x3e11edd8be13816aU, 0x3d92d65fbde9911aU, 0x3e33f0de3dc87b7cU, 0xbea7649d3e0edde9U,
  0xbda041993f06ee39U, 0x3e0baef3be210c73U, 0x3c4e47373c94b1a2U, 0x3d72d6e8bec0d596U,
  0x3f539859be8854faU, 0xbe282c543e057e75U, 0x3db62348be1daa64U, 0x3cd711b03d592621U,
  0xbd188f7f3e86c23cU, 0x3f9a9406be69a495U, 0xbec42dd9bde18c05U, 0x3e28a7ab3c8ba89cU,
  0xbd33b54dbd272108U, 0xbca970653e2f26ecU, 0x3de6825a3f3f8d56U, 0xbd885d523cacd30dU,
  0xbd736290bd9430d3U, 0xbdd27ec2bbad846aU, 0xbbb5aa923aa512c5U, 0x3dde82d0bb91bd1fU,
  0xbd0397b8bd0a337dU, 0x3e07163b3ce3735cU, 0x3da8c50f3cab1a31U, 0x3e461fb33d131dcfU,
  0xbdacbd183b546f73U, 0xbe4aca69bf3650ceU, 0x3d0c73863c4794eeU, 0x3cd9c8c63d9038dcU,
  0x3d084a4abb53a6a3U, 0x3db5fb92bd13862dU, 0x3cc1552e3da8fa6bU, 0x3ca770683c24866bU,
  0x3c4c07f13c454338U, 0x3d822c48bd2d9dbeU, 0x3cf2b13cbdb3768fU, 0x3cd02a2c3d18140cU,
  0x3f2e16a2bc05d10bU, 0xbd1f850dbd69a9a6U, 0x3c2e1fb93c7dee14U, 0x3dc385cf3e107d50U,
  0xbc435f92bcca3d58U, 0x3da96a6c3d8f9539U, 0xbd3ba1b63cc45e91U, 0xbcc4d5493c1ca22aU,
  0xbdbc1250bd479d26U, 0x3ce389753d0018dbU, 0x3d8bcc4b3d18e6a8U, 0x3d1945bc3cf2eeadU,
  0xbe4094b33c202670U, 0x3d49dd383de3d24aU, 0xbc3da88f3e98945cU, 0xbf6915e7bdc2448bU,
  0x3cb6bd4a3edf9452U, 0x3e416ce5bd99b21bU, 0x3ec4ee573d13da99U, 0x3e9ad1043ec0732eU,
  0x3f006cebbdff8c95U, 0x3d8b67b23da5e6d9U, 0x3e18d9863dfa7888U, 0x3c900ee6bde4faa8U,
  0x3e7db5773d4810cbU, 0x3ec4cea7be623806U, 0xbd8291d03d835207U, 0xbf37bcc5bf0d768bU,
  0xbda6dd3cbda10a47U, 0x3dec7cde3f4feb17U, 0x3e941a90bea155a7U, 0x3ecf2e9cbeaba0f4U,
  0xbe2d988dbef874bcU, 0x3f204ad63e8b6b0fU, 0xbdac2c0a3e8aa8ccU, 0xbce88da8bd669dfcU,
  0xbe7537d63ea0b62dU, 0xbf9c50adbe3ce4c8U, 0x3e2d275fbdc10b64U, 0xbe8738fe3f2064c9U,
  0xbda2021dbe981713U, 0xbe8b7cbcbf41db38U, 0xbe374eb5bd5485d1U, 0xbda71610be6fc6d9U,
  0xbe2a0a1dbe033909U, 0xbe2c1abd3d851e0aU, 0x3df7782fbcea8d4eU, 0xbe217350bd735dacU,
  0x3da5ec55be38089aU, 0x3db6a9873e306952U, 0xbd7d4cfb3a8d9db1U, 0xba9f8cefbe734245U,
  0xbe634fce3d246bebU, 0xbd7f15b03bc0a7a1U, 0x3d43eedebd67a1edU, 0xbe2072d73ca212bcU,
  0xbeb79ed2be1c808dU, 0x3c743d723d997439U, 0xbb1f697bbdf00d12U, 0xbe70d2f53d131b05U,
  0xbe61c762bdc20b71U, 0xbce3fdd5be7e7dbbU, 0xbc22ed3dbb6cd223U, 0xbb7563ed3f0cc845U,
  0x3dbdd9e53d49ecf7U, 0xbd8d0d32be23c9bcU, 0x3ca75961bdd9e05dU, 0x3e033decbc9ffd3fU,
  0xbce161d43e724901U, 0x3ea9d41c3f42460aU, 0xbdc74d5cbdfdd18fU, 0x3dbbca33bd30b79bU,
  0xbf68ce1e3d5c0c6eU, 0xbcdc64f7be43f351U, 0xbdb9a5543a911061U, 0x3e8f846fbdc7622aU,
  0xbe37c207beea87bcU, 0xbf0a0ad23a460c76U, 0x3d0b33923dd295afU, 0x3ed5e29c3c746bc8U,
  0x3cc2c62dbed16ab5U, 0x3e08006abd846ff3U, 0xbdab3fcc3e66e0dfU, 0x3e11fdc4be81a67eU,
  0xbe6df305bd6f0572U, 0x3e031ee5bd1e8b9dU, 0x3c0f29943d575b19U, 0x3e7ae65d3dc2604fU,
  0xbde9f3ea3b8429c4U, 0xbd3b583fbd3f1b0cU, 0xbd9198f3be26f001U, 0xbf1c78543c103317U,
  0x3e536df5bd98d4f4U, 0xbec072abbd84cb93U, 0xbe1a4262be573c56U, 0xbcd90fdfbeb23ed1U,
  0xbe4382e2bb03aa72U, 0xbd232df73d26ba61U, 0xbd8d5b61be8856c8U, 0xbd9e27d73ce447ecU,
  0xbd826a65be1f766eU, 0xbf76c8583e80e86bU, 0x3d967b30be9b8ad0U, 0x3d141987bd8f566aU,
  0xbebec34ebcba56e4U, 0xbcea816bbd81982cU, 0xbdab18e73cdb98aaU, 0x3e18711f3e36630aU,
  0xbe07bab83f64a676U, 0xbe194c1b3d5e017cU, 0x3e3b80bb3e9c50efU, 0xbebf7e6c3ed1215dU,
  0x3dcb784dbd92fbc7U, 0x3f401b553cf77566U, 0xbdd85994be4145f4U, 0xbe0690f1bea379fdU,
  0x3e6f75653d53cadcU, 0xbd6da7edbc39d178U, 0xbb9984223d333855U, 0xbf017a883e71d0caU,
  0xbf01c04d3e30aef6U, 0x3e0dec583ede35a2U, 0xbec8265abf767609U, 0x3e384399bd981a7bU,
  0x3f6712c2bf52474eU, 0x3b0b26e43f04d93bU, 0x3f2f934e3e7e4eaeU, 0x3e02cb7f3e118687U,
  0x3d499645be9033d9U, 0xbe71988c3d9cd5e2U, 0x3d4a9e883e23710fU, 0xbd67a2743cd915daU,
  0x3f2fa61c3ce225bdU, 0x3ef6b06ebd4d3877U, 0xbe0ddc79bf7dab0bU, 0x3df72d9b3dc9fa16U,
  0x3e14b3733e247748U, 0xbece391cbc390498U, 0x3d422d363e85f7eeU, 0x3ec23f83be7b6afeU,
  0xbf6bd048be2ae922U, 0xbe049252be9b6598U, 0xbcee1047bdd15c6eU, 0x3f7b7fc4be0e4d7cU,
  0xbe941afbbecd9bbbU, 0xbce42b433db4c4a6U, 0xbdcf4bcabf8685bcU, 0x3dac9f253d15454bU,
  0x3e382bdabe526a68U, 0x3e6ada22bde7fd84U, 0xbd2717d33d49fcd9U, 0x3d51ce96be46a3a2U,
  0x3d4832f0bda683d4U, 0x3f1c78ddbdcdfc74U, 0xbc1d07f63d5b6782U, 0xbf284e8c3e3f4040U,
  0x3d326baa3ce7ce94U, 0xbf3b0f92be2c8c18U, 0x3e7ae467be086570U, 0x3f12af43bf118732U,
  0xbe373318be6121c4U, 0x3f1c39903ceccce0U, 0x3eb1d854bd522c85U, 0xbd3e9447be0d0876U,
  0xbda59a413d30b762U, 0x3f4748e2be13371bU, 0x3d1391f8be3e5e8cU, 0x3c4ba036be200e07U,
  0x3e9cc377bcea7174U, 0xbdac3f3f3fc22ad7U, 0xbc3baeabbdb4779aU, 0xbe6f1fcf3ef544fdU,
  0xbed884353ccd2a1fU, 0x3e17c7aa3d2cff2cU, 0xb805034b3c6aa218U, 0xbfb4986abe0f4b1bU,
  0x3d4ca2a8bdf3d17cU, 0xbcb589963d9e5d94U, 0xbdedc80b3e1d2ab4U, 0x3e0ab56abe5ccb5dU,
  0xbe9abb193e2988bcU, 0xbd8565fabcd30927U, 0x3dc1401ebe1ba799U, 0x3dd45dd8bd4f489aU,
  0xbd29ba6bbdd2ad4cU, 0x3ebef4e53d85b1f3U, 0x3d6d76d9bb641e8fU, 0xbd0bcef13efab24bU,
  0x3dbfc0313782924dU, 0xbdfb0faebef0afdeU, 0xbe7771f23d1a6b78U, 0x3e20e1ec3e1c5717U,
  0x3c35e5ba3d5e99e0U, 0xbecd9b643c760f93U, 0x3d2647e93d7d32d1U, 0xbc9e2234be4a7532U,
  0xbb0db07dbdcc7791U, 0xbee6e368bd44d84cU, 0xbd915119bc24a9eaU, 0xbe03c3ba3e54b6e2U,
  0x3d905cbb3d017dbaU, 0x3d96d8533eee4589U, 0x3d146ff13d5b2f0bU, 0x3d88ca61beac1d04U,
  0xbdf2bf6dbb6c2d04U, 0xbd3211bf3d50c9c4U, 0x3c23b2efbd903f83U, 0x3eef395a3c8119cfU,
  0x3d81daa7bd87c933U, 0x3c1c12f9be094ad0U, 0xbd18dcc1be33847fU, 0xbd0489e5bde6e200U,
  0xbd92da8e3dc4e51dU, 0xbcb1d6c2be259c28U, 0x3de878663cdb4a56U, 0xbd896bac3cf35bc9U,
  0x3bf0db9c3b7b8114U, 0x3c20a42bbbc54f98U, 0xbba5a2ecbd01cf5eU, 0x3dcad3c63e014718U,
  0xbcf30e5a3cccfc8fU, 0x3c4bf1a6bdb653e7U, 0x3dd37a0bbb43a1b3U, 0x3d22a487bdd861c3U,
  0x3e7f865a3aeca0e1U, 0xbd09ecaabd176199U, 0x3ca28656bd00c23dU, 0xbbd67cc23dcb73b8U,
  0x3b2b8560bd3b82aeU, 0x3dbc6e4b3d664472U, 0xbd462a733be669e6U, 0x3db84bccbe6ca594U,
  0xbe172bb03c4c5d69U, 0x3d494c193e4c77acU, 0xbc8a4ae8bd080b88U, 0x3d889f4e3ce7063dU,
  0xbe424d30bddc31d6U, 0xbde99eeebd0c5d72U, 0x3d944d42bd98de46U, 0xbe4f6001bdf18bd6U,
  0xbc863363bde5822eU, 0xbe1994593da6adaaU, 0xbe2457483d07fde0U, 0x3daa4706be8060a0U,
  0x3da4976d3cbb19b1U, 0x3c622e463e710a24U, 0xbda924dfbf353e46U, 0x3b119defbcc8c8f3U,
  0x3e87d0f6bee3f834U, 0x3d9def10bcfb8ca4U, 0x3dfb175f3e925a7aU, 0x3d8a6e37bc292a20U,
  0xbcef6e0d3e42afd9U, 0xbe573da93db632bfU, 0xbe55f5293de6e67eU, 0x3d99aea33d8725a5U,
  0x3aaf989ebbfb30d7U, 0xbdac1c4abea010efU, 0x3d967daabd5fd97dU, 0xbdf19cd63e2923edU,
  0x3d65a98dbddfd1d5U, 0xbd9be776bf24de9eU, 0x3cd778bd3dc47e11U, 0x3e342bf23c4b587bU,
  0x3f060cfb3e623590U, 0xbe0438e5bd25130bU, 0xbe87d3debd09c52dU, 0x3e9330363da70ad6U,
  0xbcfcc9babde05a13U, 0xbe04c2a2bd7df12cU, 0xbd1e39323d99593dU, 0xbe7b60e4be254390U,
  0xbd327412be1a9e52U, 0x3e00476b3e095db2U, 0xbcaf2ea9bd931881U, 0x3d2b73bebde24c88U,
  0xbe09caa93d50b08dU, 0x3e0f7a9e3e8372a5U, 0xbd7475ddbd727793U, 0x3b554a7e3d83ca38U,
  0x3dad0e2cbd1dabf6U, 0x3c4aaf573dd682fdU, 0x3de5d7d63dded406U, 0x3db807843de74266U,
  0x3d1af5bf39bf451cU, 0xbe553ef4bcf28038U, 0x3d86de763df0700eU, 0x3d3f5e833f06e861U,
  0x3ea49ef43e0d86b8U, 0xbe2f2afe3e699396U, 0xbd6c89fdbd9a1626U, 0x3f62a59c3e4bdac3U,
  0xbd137ab6be98623bU, 0x3ed7c42abe0db20cU, 0x3e2daf69bbefa95cU, 0x3ed46f66be0d597bU,
  0x3b13156d3cc7b2c4U, 0x3c2821cabe8cf4c7U, 0x3e090260bad07ccdU, 0x3dbefd84bdcc5aafU,
  0x3d319a1bbf6ad769U, 0x3e3e78343e52862eU, 0xba458b4fbd48437aU, 0xbefa40033d748c7aU,
  0x3e0840f9be88bca6U, 0xbf33b9e0bd35df0fU, 0x3e391119bdd3c4d8U, 0x3d41e4d23c38cd73U,
  0xbebcce833e104068U, 0x3c8297bb3d7b03fcU, 0x3e0f13ca3dab2b6cU, 0x3f314244bd6d8a0aU,
  0x3f1719f3bbb935a6U, 0x3dcbe1aebe4293bdU, 0x3f06ac553f3b60cbU, 0x3e658e003d6fb98cU,
  0xbf01490c3f564e25U, 0x3e846e0cbe38223bU, 0xbf1783e53e864ccaU, 0x3d4bc921bdddaef0U,
  0x3de25d723ebafc4dU, 0x3cb2eeb13e0e3c15U, 0xbe1767acb9b86528U, 0x3e7a33b63e18e67aU,
  0xbe8a541d3e1202dcU, 0x3e73101b3dcf036eU, 0xbcf1acb13f8e8ff2U, 0x3e1be5543e16859aU,
  0xbeffc2f23e889ca0U, 0x3eca32c43d3ebb6eU, 0x3a48b9cabd27c6b3U, 0xbe8bafeabd50dbf4U,
  0x3b8679fd3d8e2096U, 0x3dcf31fdbcac76caU, 0xbe4485263d6200faU, 0xbed28ac7be3dadc6U,
  0xbcc7f98bbe5a495bU, 0x3c5ad162be693df6U, 0xbcf9fdbfbe668d3aU, 0x3da06a3e3dea3de0U,
  0x3d3031233c004544U, 0xbc3cdcd93d94e8b2U, 0x3e686bd13c8a2b7cU, 0x3dd414823da5e625U,
  0x3a66f075be1b32e0U, 0xbdef7faebc902d10U, 0xbdc2e859bd7c7bacU, 0x3e482a9cbe76830cU,
  0x3d716defbd58e89cU, 0xbe99a9f23e7465c4U, 0x3e04af8fbdd43c43U, 0xbdf3e3b9bf203668U,
  0xbed9593ebdbfc850U, 0xbdcca657ba596917U, 0x3d18d797bce04bc8U, 0x3b699f66bcb22cfeU,
  0xbc6f710c3dc0a469U, 0xbf88381abdbe98f5U, 0xbc4216093e1e0a97U, 0xbe2ff8163db34883U,
  0xbd3fcf4dbde7ede5U, 0xbe609836bf253de6U, 0xbe4cfc1bbd80bb5aU, 0xbd870c963d6dd6dcU,
  0xbe85f105be7b15ddU, 0xbf01e8ab3f08701cU, 0xbc9fd763be7e42ecU, 0xbf8fd131bd974cb9U,
  0x3deb6f49be1d58e1U, 0x3e22989ebe2514b8U, 0x3ee852023f258342U, 0x3e2f49ad3eb4ee5aU,
  0x3e7989bfbe6e0691U, 0x3dc58e923e9e5832U, 0x3ec5cfb83d0c2902U, 0xbeab90ae3eaf7abdU,
  0x3edac2453dbb93e7U, 0x3f5da9a93e94fd3aU, 0x3c61d901bb16135bU, 0x3f41e9603d45ede8U,
  0xbe740f5dbcc41c3fU, 0xbe8a31583e85be6eU, 0x3eeb80363f9c2873U, 0x3f0d283b3ecd6347U,
  0xbce546d83f54c78fU, 0xbf8961353f0dec31U, 0xbf60a609be94994fU, 0xbd9a556b3dcde00eU,
  0x3f33aedfbe0edf98U, 0x3ffd92463f4c7053U, 0x3e4dcf11be441d71U, 0xbdd69cbebe8636feU,
  0x3e181fd74015be3fU, 0x3f0e3bf83eed5f48U, 0x3dc09c613ecf3714U, 0x3f3b22083f45468bU,
  0x3da82743bacfb805U, 0xbc6eaad5bcbbaaa0U, 0x3d74d83bbd2e9a91U, 0xbd90ff57bdb6645eU,
  0xbd447f06be036a97U, 0xbcf32a213dcf3022U, 0xbb714827bdb95282U, 0xbe00bed9bb1cba7bU,
  0xbc9bfda1bcdc3365U, 0xbd40450fbdf43215U, 0xbca424a9bcd39a2aU, 0x3d4693f8bd2dfc35U,
  0xbdfb97dcbd64f323U, 0x3c30e2fb3c8f57b4U, 0x3ddf67bebc935f21U, 0xbbea5e213d25df0dU,
  0x3d74bff1bcb37417U, 0xbe358e76be624789U, 0xbcfc953e3d3680d8U, 0x3ca11e3b3dc72a93U,
  0x3db877683cf61235U, 0xbe2b4d8f3cf29d3dU, 0xbc4bcd883e177182U, 0x3c325a34bd3022a5U,
  0x3c222a95bd8e43e5U, 0x3dc25a73bd982a60U, 0xbdec5660ba94eb43U, 0xbc9c71f33d5ea3a0U,
  0x3dfa8cbd3d3cdf76U, 0x3d1533de3dd10145U, 0x3da6c1c63b3d5b06U, 0xbb73edb43d08a1b6U,
  0x3b1cbf9dbe96c245U, 0x3e3a7ce0be4f5547U, 0xbdd095e84017372bU, 0xbdf6eb0ebf0a606bU,
  0xbe2d74903ec76999U, 0x3d63c7523f1d48e3U, 0xbe9f517b3d814bebU, 0x3dc9966f3deb51abU,
  0x3d395a7bbda468f4U, 0x3dc33bc93df5ff02U, 0xbe011ba1be84df22U, 0xbbea313dbf2fc97aU,
  0xbab7a4dbbef42377U, 0x3f07e6623e9429c4U, 0x3d9100823f0ec011U, 0xbd4599e5bf07df39U,
  0x3dffcd7d3e2a3f82U, 0x3e05a14ebdc1f1c4U, 0xbedbf66d4005f7bdU, 0x3ef4edc23f74e773U,
  0x3f5cff6a3f202b41U, 0x3e94e40b3fea0f45U, 0x3e8247cd3c3da95aU, 0x3ddac1f7bf0d31feU,
  0x3f342a2f3daedfc9U, 0xbcbff7493d2e825dU, 0x3e219960be031c4aU, 0xbe886869bd44724bU,
  0x3c0557843f7d1ac0U, 0x3e705109bf1ce6fbU, 0xbe13a398400db177U, 0x3e825c83bdfe0832U,
  0xbe17f6d83c8adfcdU, 0x3d441e78bc531792U, 0x3db3e305bd502a1cU, 0xbe90dd2fbdf0e6c1U,
  0xbdaa0756bd94fd03U, 0x3c6acd093d008192U, 0x3d8ba83ebcce2701U, 0x3d99891cbda150f2U,
  0xbd5ba1703d21f29cU, 0x3c0a8d133e401a01U, 0x3de95b30be69cf6cU, 0xbc7761a7bd9b3288U,
  0xbd57b568bf0f4847U, 0x3dc821b93e56e475U, 0xbd9791cebd66d0c6U, 0x3de7d4eebe1be71cU,
  0xbd9401703b6f6eaeU, 0xbe0875093d909d3dU, 0x3d6f19403e581c8fU, 0x3dbd5ca7be2365abU,
  0x3d2fa265be721f1bU, 0x3d00a42bbe4d7feeU, 0xbc164c833cde5972U, 0xbe6102893e3d011cU,
  0xbe6553a03cf7d0b2U, 0xbf0a13723ed1d1dfU, 0xbce30f9f3ce320daU, 0xbc94f4163d8970cdU,
  0xbe9d72c53d4e1776U, 0xbd5aa6c2bd9c2cbbU, 0xbd9d5bf7bdf44472U, 0x3e1af5c03d8d11e4U,
  0xbbefd70e3c485248U, 0xbc89aad8bc28e6dcU, 0x3dd6fbe0bd95e3beU, 0xbd5562863bf2af46U,
