/**
  ******************************************************************************
  * @file    network_data_params.c
  * @author  AST Embedded Analytics Research Platform
  * @date    Thu Apr 13 12:36:30 2023
  * @brief   AI Tool Automatic Code Generator for Embedded NN computing
  ******************************************************************************
  * Copyright (c) 2023 STMicroelectronics.
  * All rights reserved.
  *
  * This software is licensed under terms that can be found in the LICENSE file
  * in the root directory of this software component.
  * If no LICENSE file comes with this software, it is provided AS-IS.
  ******************************************************************************
  */

#include "network_data_params.h"


/**  Activations Section  ****************************************************/
ai_handle g_network_activations_table[1 + 2] = {
  AI_HANDLE_PTR(AI_MAGIC_MARKER),
  AI_HANDLE_PTR(NULL),
  AI_HANDLE_PTR(AI_MAGIC_MARKER),
};




/**  Weights Section  ********************************************************/
AI_ALIGNED(32)
const ai_u64 s_network_weights_array_u64[164981] = {
  0x3e84e624bee24191U, 0x3edf8342bd415f2eU, 0x3ea0aeca3ef16252U, 0x3e99d5d03e950b0cU,
  0xbedee4f1bb9e8d80U, 0xbee51beabe9ba7c5U, 0x3ee598083e8c51e3U, 0x3ebfb02cbe0b3c18U,
  0x3e9d75ba3e174df8U, 0xbe04a080bdc99450U, 0x3ccddc40be3bc63bU, 0x3ec049b83e908b88U,
  0x3e5422fa3f06ba9eU, 0xbe0b822ebf04175cU, 0x3ec932bd3f0dc144U, 0xbea091903e526480U,
  0xbd9edaf73dc22556U, 0xbda65e4dba621360U, 0x3bfd40633b133812U, 0xbc324ad6bcb49a1dU,
  0x3db1abd9bd622892U, 0x3c5b86e83d3baf85U, 0x3d22699c3c1d50fbU, 0x3d351cdc3d365ecbU,
  0xbdd343cebcb28ea1U, 0x3c79ac86bd65cddaU, 0xbd7b6983bd8f7db3U, 0xbc7566a63d858ba4U,
  0x3d3eb3183d77d0edU, 0x3d6ac3963cd4858fU, 0x3cdd65c7bd95b85aU, 0x3c2d51483d291eb4U,
  0xbd17bbd03b98f384U, 0xbd641e803d93c358U, 0xbc35760abd44eba7U, 0xbb7870d63cbef049U,
  0xbd007b09bdcfbb27U, 0x3d1a289fbdcb10d9U, 0xbe20105ebcf2d6d9U, 0x3d130c6fbc96d30cU,
  0xbd28f1283dd47e79U, 0xbbcca731bd945e8eU, 0xbcfce6293d55a7b6U, 0x3aa7730f3d6e1123U,
  0xbdd7b2923cd51337U, 0x3c91731e3db5c308U, 0x3ca0e29d3c98d4d8U, 0x3d9114153d2de8faU,
  0xbdb1ea6f3d25fc93U, 0x3cefa3503d4d403eU, 0x3d293b2a3c469e5fU, 0xbd2f2c623c17f12fU,
  0xbd444f8fbdb45d15U, 0x3cb38daebd778ff8U, 0xbdc1b99f3c38abaeU, 0xbd459e513c47a457U,
  0x3cd22b05bd4e6926U, 0xbe147963bd85cfc1U, 0xbd0e6fbf3cdb0852U, 0xbcfeaa03399dea91U,
  0x3cccaa6cbc2ae1a4U, 0x3d6ebbbc3d5cc9d2U, 0x3d2c7c1fbb85af26U, 0x3db3f453bdacfe99U,
  0x3ce4c4d53c0dce5eU, 0xbc26cf2d3d424c24U, 0xbdb7d0ed3c8ee1c2U, 0xbdcfbf72bdd12eccU,
  0x3be79d5cbd9ee393U, 0xbbe9bc87bd8a1488U, 0xbdab6404bc9b7e70U, 0xbd1f095abdc4a099U,
  0xbc8c9e8dbb550f9bU, 0xbd9fa4a8bd99a825U, 0x3d2cd26cbd1f0073U, 0xbcfe8663bdcb0bdfU,
  0xbc3c02b5bcd1be9aU, 0xbc3322003d430bceU, 0xbd02618cbcbd7cebU, 0xbbd93a88bd61c059U,
  0xbdcfadec3d0804c3U, 0xbd880983bc264ac8U, 0x3d5f8d533bbaa45cU, 0xbc894bd73a631e09U,
  0xbcab5906bdd16957U, 0x3d3d8fc9bdf4549dU, 0x3c98576cbd904e2eU, 0xbb5ab188bccfebcbU,
  0xbdb3b62b3c549c57U, 0xbd402d333ce1f51fU, 0x3b4122ca3c974ce3U, 0x3d0f49383bcee1a9U,
  0xbbc799e9bcbb92deU, 0x3d9c54d43ceca348U, 0xbdb260e1bd68ea92U, 0xbc1c63bb3d5d5dd5U,
  0x3c0a126dbc69ffa4U, 0x3cc2fb97bd077a76U, 0x3c414168bd3e5fadU, 0x3d0bfcf9bd0685d2U,
  0xbd511087bcdaa5f2U, 0xbc4833293c2f988eU, 0x3c95a18fbd52e977U, 0xbd8cf0cb3cb61a74U,
  0xbc22fb97bd335113U, 0xbddbbe6bbde17f2cU, 0x3ca5a7593d1ad58aU, 0xbc972ca63d7f6616U,
  0xbc2d7221bd512738U, 0x3d5668b63ca5a4a1U, 0xbc57d530bd3f0007U, 0xbcbddca53c928a50U,
  0xbb97874cbcf9d501U, 0xbb2d505ebcf2bd3aU, 0xbd8093763d40d2a9U, 0xbc486166bc9bfe84U,
  0xbd85f05b3d5d79bdU, 0xbda6a522bd6f21bcU, 0x3d41b5f3bd2bff5bU, 0x3c0e93183bb8a359U,
  0xbcb7959c3d2040a5U, 0xbd6b2d28bd374039U, 0x3d114b713b614cc9U, 0x3d821b03bd0dae7eU,
  0xbd55c50abd39f393U, 0xbb0f88a2bb7798abU, 0xbc305c31bc420a8eU, 0xbbdf3cdcbc426f14U,
  0x3c70ea7abdcb3d21U, 0xbc80cb56bd2c3a8cU, 0xbccd280b3d43bb45U, 0x3da5bff3bd1275deU,
  0xbd002278bd82244fU, 0x3d5fafc939e88184U, 0xbcbc5ed53db0fe54U, 0x3d4c58e93d481ac5U,
  0xbd76298e3cf82ec0U, 0xbd20dc86bda64541U, 0x3da20d033da5adf7U, 0x3ca7cf3c3ca2e1b5U,
  0x3d83c3ff3d2a8454U, 0x3c6ece673c34587dU, 0xbd11fa8ebc84fc6bU, 0x3caf557abc1b12e3U,
  0xbd401cdabd23e767U, 0x3d25571dbd04f739U, 0x3d9019153bc152adU, 0x3cb8a950bc794c01U,
  0x3ccc22f63cce9d64U, 0xbc583fcdbca1ace6U, 0xbd5e75223b84d99aU, 0x3c5d5c543bc85884U,
  0xbd8151c73c9ed121U, 0xbcbcf544bd5c3775U, 0x3d3037f4bd491cc0U, 0xbc687d123c2e1b98U,
  0x3b5aa4b63d1c9d8eU, 0xbd52da4a3b9e40e1U, 0x3c926f74bd5e9399U, 0xbbb561fcbce9cde4U,
  0x3ba2e3b73d8d74efU, 0xbd7aaf54bc8eeeefU, 0xbd4a03893cd06809U, 0x3d3a58193d9ad3f1U,
  0x3cd476903ddc8fa9U, 0x3d8cbcba3daeac7cU, 0x3d899e513d4eb5eeU, 0xbce3a0cb3c5d7eaeU,
  0x3cc1d4363cd8c725U, 0x3d4765863d608c31U, 0x3dd5bb94bcbe572cU, 0x3d5ac285bd1ae72aU,
  0xbdd3bfe0bd6b17bcU, 0x3cbb18c23d1312baU, 0xbd56b4f8bd7fd36eU, 0xbc41dfeabd14f3c5U,
  0x3d22dee6bd4b14caU, 0x3d117d81bd6bdf38U, 0xbd5dc7a1be0188c9U, 0xba617aed3d7cd8d3U,
  0xba9b4c033c0f04aeU, 0x3d6c4d913b3b6068U, 0x3d8fbc9f3d1f73c3U, 0xbcbb1ee93cb7d54aU,
  0x3d37cd39bd5a4164U, 0x3d1216f23d58125aU, 0xbdca889dbc62269cU, 0xbdacae7abc8f1677U,
  0x3d87e7a4bc7de754U, 0x3d3d7adabd3b18b3U, 0x3c0d324abd9f83d2U, 0x3d08081f3c89021cU,
  0xbc6bb1debd7ef3cbU, 0xbd8c02783cbc00b7U, 0xbdaaf8d3be20b1b3U, 0xbcaefbdfbd2e258bU,
  0x3d853f773ca29c37U, 0x3d9418333d0b5f67U, 0xbdcb3bfc3ce62a11U, 0xbd59d1f1bd72a72cU,
  0xbd68d4fcbc2b0814U, 0xbcf5aaddbd4830d8U, 0xbe02c3e83bff337aU, 0x39782d17bda7e2ecU,
  0x3d6898c0bd6b490bU, 0x3b67be2e3ccc7fa8U, 0xbd3193a4bc31cad5U, 0xbd9483ebbdcfd722U,
  0xbd519314bca95f7eU, 0x3c76358f3c1f18b9U, 0x3b4ad7aabc9c8686U, 0xbd2efd28bd449462U,
  0x3dc88d9e3db34c7eU, 0xbd24301c3e21527fU, 0xbe07b8e4bd81c16aU, 0xbdad692bbe1a4566U,
  0xbe01e4c3bd06538eU, 0xbd11da563d5ddd81U, 0xbd27be05bdafe997U, 0x3da00e11bd35dc34U,
  0xbd8852a0bdaf228bU, 0xbd6d1866bc5d47e7U, 0xbbc8ddf0bd85a79aU, 0xbd896ea53db6d679U,
  0xbdad4f203d6a5052U, 0xbd471e563bd822c3U, 0xbc8160dfbd7b4862U, 0xbbbb68bc3db19c9bU,
  0x3cee7e593d2f460eU, 0xbd646aea3d902739U, 0xbdd9a07dbc744d9fU, 0xbdcd08853de03731U,
  0xbc39b71ebde6c6a1U, 0xbd60cfa53d315827U, 0xbcf5700abc1a35b8U, 0x3d9b556a3dc57756U,
  0xbdc2f001bcd8fd03U, 0xbd5c1bc63cca7687U, 0xbc235d66bd3cf30dU, 0x3d93efa73cfbca74U,
  0xbdc190c73ce46767U, 0xbd2b144bbcfd1bcbU, 0xbd1b2de4be05b30eU, 0x3d43ec67bda15a15U,
  0xbce79dd5bd4ab87bU, 0xbccc6ba7bda447e3U, 0xbb8b269d3d92cecfU, 0x3ccbfcd43d7c0175U,
  0x3c060b14bd82efa9U, 0x3cc964f9be1b0a10U, 0x3d91ac87bdde689cU, 0xbcbd8518bdff82f6U,
  0x3e2a5be4bd1d5fbbU, 0xbd2847cd3d46308dU, 0xbdbd8593bd94f6a0U, 0x3d7ddf93be374ee9U,
  0x3d70c2ce3c9c7189U, 0xbc3640af3d0caa12U, 0xbd73fc93bde8373fU, 0xbcf955cd3d526175U,
  0x3d7795f33d3a62fbU, 0xbd18cc043ddbc47aU, 0xbcd9de1c3b127c4aU, 0x3c39993ebcfaf55bU,
  0x3c7863283c37187bU, 0x3d1316503dc10b72U, 0xbc7ed8e8bd6cd07fU, 0x3dc5aec93bb0d7e9U,
  0x3dbe04e4be03465fU, 0xbda91ef3bb2c4532U, 0xbdaddc30bd02a62dU, 0xbd407658bd741b49U,
  0x3c0ee0443d5941deU, 0xbdd36e7a3cbb0f07U, 0x3d7543c33cd25bc3U, 0xbda2f3a7bd7b8cceU,
  0x3d4df3dcbd121da3U, 0x3cb5b403bc09045eU, 0xbd0a5e363d02b9f0U, 0xb9e2a00d3d4d1f06U,
  0x3db6a067bb2c22e2U, 0xbd50b4b43db2c23cU, 0x3da931953d58fc6eU, 0x3d164daabcdb6ec1U,
  0xbdd2bf82be2bbf7dU, 0xbd93973ebc96efcdU, 0xbcee4b21bcabd62dU, 0x3ce76616bd66a389U,
  0xbd93edbdbdafbf0aU, 0x3bb15feabc8d5d43U, 0xbe02f5d5bd43df88U, 0xbb1d1d26bc99fb85U,
  0x3a4932d6bd40ed92U, 0x3d8f098ebc6742a3U, 0x3dae4614bdb5f6d7U, 0x39b6682d3d8b6978U,
  0x3d828cd43c046c17U, 0xbc709818bd18aae9U, 0x3d1890253d325270U, 0x3bedc055bd392a92U,
  0x3d76e9e6bce9e189U, 0x3d44bfa93d1d062eU, 0xbd1d72e1bdc766b1U, 0xbd8120ed3d7e3cfcU,
  0x3c6226673ca89ebeU, 0x3d06485dbd96f832U, 0x3d7428013dc70d6cU, 0xbd127bb23d4e0063U,
  0xbdc453573b4e9e70U, 0xbd3744b1bdb53abfU, 0xbc967eab3b94fb6dU, 0xbc05a298bd18fbe8U,
  0x3da58d2b3d11d90eU, 0xbd3fbfdd3c460216U, 0xbd812cd43ceda50aU, 0xbc58a53bbcc52791U,
  0xbd33b61c3b39c9bcU, 0x3cb24e5cbc435b05U, 0xbd3756d33dd4c961U, 0xbb7fae78bce971f3U,
  0x3d2c3ec9bd38d601U, 0x3d2f4e7b3d332759U, 0x3b82521e3d5ab6ddU, 0x3d9764dcbd6dc8a6U,
  0x3ac1484c3bf15481U, 0xbd80eccbbc4c7ce8U, 0xba1ee627bcd2cdeeU, 0xbd2ce6fbbd0fcf32U,
  0xbce792293be74846U, 0xbd1462b0bc9aa25aU, 0xbd261cd63d3016ecU, 0x3d104692bdbf1babU,
  0xbb67956f3df120a8U, 0xbc53d1febaf48212U, 0xbd2cf3f6bc0fe9a1U, 0xbd3f3055bd7cac58U,
  0xbcc862ed3bc4f711U, 0x3d18e5f1bd07e3e7U, 0x3d09e3eebd48e95eU, 0xbd6d40dabd36add7U,
  0x3d9ca50dbda79652U, 0xbbfa3965bcea3b43U, 0xbbbdc0f7bcca8507U, 0xbd8b10d0bd3c80eeU,
  0xbd2ad8e5bd0779ffU, 0x3cf8af8f3c246415U, 0xbc2a78d83d2d7703U, 0x3c1cc2a43cef7559U,
  0x3cec8b1ebd77882cU, 0xbcf2c6163d67cf59U, 0x38af61a8bbc82b3bU, 0x3d4c2e26bd65b62cU,
  0x3d7879c1bcd1bd05U, 0x3b564b98bd99b8e8U, 0xbcd1101c3d41213fU, 0xbd3aa7c23d742359U,
  0xba57b911bd36616aU, 0xbd089f27bc4822ebU, 0x3d7f7cca3d2085ccU, 0xbd181df63cb7abc0U,
  0x3d9a80b43c3c5098U, 0x3d1cef213c0b9bd4U, 0x3cb8b8b2bcc97a81U, 0xbd59d791bda92d36U,
  0xbc749db63db72dd8U, 0xbd2a1155bd758a28U, 0x3b144a193d5560c1U, 0xbd7325b6bd8d5df0U,
  0x3c861fb13ce15eafU, 0x3ce15bc3bd0e7cc3U, 0x3d549ed83d292862U, 0xbc623bc63c8f8711U,
  0xbd83741abd9974bbU, 0x3c2ab1d3bd0ab4baU, 0xbbb6e1c93d52b95fU, 0xbd36c368bd313038U,
  0x3d945c4bbc117128U, 0xbd5250463ac60372U, 0xbd5c26b4bd2b0243U, 0x3d15393dbd97896eU,
  0x3cb9933fbd612e60U, 0xbc51611a3cb64cd0U, 0x3ccf9d7c3d946031U, 0x3cd610fbbd45ac91U,
  0xbd35973cbd87a686U, 0x3d4d5838bc96da40U, 0x3d891d9c3d089f36U, 0xbcf92192bba792d4U,
  0x3d0e1a243b7bedaaU, 0xbd4900dfbd86790fU, 0xbd392758bda1c561U, 0xbb760cd13d2ff91cU,
  0x3bb328433d110d76U, 0xbd15e032bd4dd855U, 0x3d3af0dd3b8ac1bbU, 0x3d92191d3d86c1adU,
  0x3b18a4cebd04aa95U, 0xbd0bc09f3d677b10U, 0x3cc7ac7d3d5e851cU, 0x3c8d941abd3df048U,
  0x3d186ae43cf114c4U, 0xbd1d297b3c73557fU, 0xbbb2c5823dba5e48U, 0xbd6a10ed3beb7256U,
  0xbca7d901bc58bc7fU, 0xbcc2ed093ce6c401U, 0x3d7832c63cfcbeafU, 0xbc6f0b9ebc529323U,
  0x3d065212bc6069fcU, 0x3c357f4f3ca83a26U, 0xbc64a638bd8e80edU, 0xbd4084703d6be8e4U,
  0xbcc0bd723d4891b8U, 0x3c08831f3d6ca2fcU, 0x3d1f1a7a3da96e3fU, 0xbd8127e7bc1c3ca8U,
  0xbc8e0bdcbc32d192U, 0xbc9828d53cd6d92bU, 0x3dfc7a1c3c904089U, 0xbd3e74583db28d7cU,
  0x3d13cde13d126a8eU, 0x3d883b033cc5e9aaU, 0xbc84c04abcc2dd2cU, 0x3c97144abd28937dU,
  0x3c105037bd0c4069U, 0xbd3aca97bd579f71U, 0xbc9c2fea3ce20547U, 0x3d2242153c22f544U,
  0xbdb5a827bc0aa4abU, 0xbc94d7ca3d1e0380U, 0x3ce308dc3a188a93U, 0xbd8588e1bc454c87U,
  0xbb5b8565bb279725U, 0x3da3810fbd32cae3U, 0x3cf2be4c3cc51023U, 0xbd7478e53d91538fU,
  0xbd19c8e3bd380ab6U, 0x3d4a0199bca407c3U, 0x3b5fc7cebd235fb6U, 0x3d0954fc3ca8b94aU,
  0x3d5441103d1a0ef2U, 0xbd6621c2bc9819bdU, 0x3c0b80e93dcecd76U, 0x3d84e9b43dd159c1U,
  0xbc8bfeb0bd3b4fc9U, 0x3bae10393c48ab21U, 0x3d8764983d1b4258U, 0x3d7a469b3d5e026bU,
  0xbd363eebbd3b7c00U, 0x3c1d47c13cdfd8d0U, 0x3ca1b08d3d56a314U, 0x3d4279b83bea2af6U,
  0xb7c080c93d4bb162U, 0x3bcc6f2a3bd9d549U, 0x3da275783d669385U, 0xbd9df3a9baab97c4U,
  0x3daab6883ba597ecU, 0xbd35666f3d5f1118U, 0xbcb08bfcbd865227U, 0xbd82e81ebd881fa5U,
  0x3c4555c7b9c923f4U, 0xbdac76193a1578b5U, 0xbd9440be3c7c984dU, 0xbdb307ec3b98b0f0U,
  0xbd2b048a3c65e8fcU, 0xbd13cd223d8da321U, 0xbd955138bd864bf2U, 0x3da66a8f3b454d5dU,
  0xbd85d3a33d058e3eU, 0xbcdd2bbfbda16b23U, 0xbd6de0773d35b27eU, 0xbcc17fecbccce616U,
  0xbd1216443ba388e3U, 0xbd4904f3bbbd80bfU, 0x3c53104e3ac8e648U, 0xbc8f46c63bc06bd3U,
  0xbd10fab3bc9d0513U, 0x3d206c913d41d650U, 0xbcd73d85bc7e4bedU, 0xb9c8037d3d3ebddaU,
  0x3ccf8feebdcd6179U, 0x3d95908ebaee7d2eU, 0xbd27473abdc7b1b2U, 0xbd141c07bd4ac618U,
  0xbd02ea34bd119ed7U, 0x3c2ff230bd8c7335U, 0xbc4d9871bcb2a9b6U, 0xbd781efa3cc7cedfU,
  0xbd0bd1653d8cd98bU, 0x3d776948bdcc57e7U, 0x3dbd73133d628314U, 0xbd04369b3bbb05a7U,
  0x3d3c5aee3d8d6402U, 0x3dc37228bb98c0e0U, 0x3cb008a73cc87292U, 0x3d2258393d370d28U,
  0x3c445c4d3c8b97efU, 0xbcbb3f1b3d75e26bU, 0x3d381ca33d57e889U, 0x3d41fb253d214c9aU,
  0x3d2bb6bf3da33235U, 0xbd2ee58a3e0c2b7eU, 0xbd565e6dbd5f05e4U, 0xbcfa09efbd97d77dU,
  0xbc9cccd9bd492b3bU, 0x3ce1e4883d8193e2U, 0xbd97e4fbbcd99ddeU, 0x3d371f28bcd90bb9U,
  0xbcad7cb3bd38ffdbU, 0xbcd25b04bd21320eU, 0xbcfe4c12bd77850dU, 0xbd6eaaeabcf41725U,
  0xbd3e25773c607b16U, 0x3cb19516bc0efd4aU, 0xbcd5b17bbd656db1U, 0x3c5c14413cc9a3f0U,
  0xbd092f31bcfcd3bcU, 0x3c4f84f3bd31af41U, 0x3d0ca92abda3c562U, 0xbb8abe8b3ccabeb9U,
  0x3dddf2773be1ce6eU, 0x3d04607b3d3565dcU, 0xbb33c9c8bdb9dcbdU, 0xbce063d839fc2b32U,
  0x3d6903343c443d31U, 0xbd62ff163d00dc3bU, 0x3b4ef7793d07d4bbU, 0xbd1df9cabdc57502U,
  0x3bd2fe39bdb42fadU, 0x3dc929543d05e1daU, 0x3d8c9f40bc8ebaf1U, 0x3d9f92c4bc17cbb9U,
  0xbd788847bc5b1490U, 0xbbf5bf18bdf63904U, 0xbc9c11debcfeea73U, 0xbc7e59473dbf9f2bU,
  0x3d25d6983d3ed145U, 0x3caa22c0bc9b6a9dU, 0xbd1333033d9dd1c1U, 0x3bbd19073d26f241U,
  0xbd124f103c665557U, 0xbcebb9a3ba171d7aU, 0x3d87a30fbcc044eaU, 0x3d3be8cf3ceec250U,
  0x3d483d7f3c3cab97U, 0xbc98e097bd1845c5U, 0x3d56f83e3c98dbebU, 0x3c0540723da2e949U,
  0x3d91ff463d9d5519U, 0x3c6695433e03e4ccU, 0xbd4b3bb73daaf2f9U, 0xbd7718fb3c69fbeeU,
  0x3d11ebedbaf8f43eU, 0xbd933efb3d246188U, 0xbdb4a3cb3b9615daU, 0x3d4f0d933ba07f2bU,
  0x3cb3b729bdffe5b6U, 0x3d0b36b8bbcae742U, 0x3d09d4673c85e5a1U, 0x3d27f358bcc7092cU,
  0xbc05229d3d36f30cU, 0xbe2098173d2d6914U, 0xbcf2168b3bd29fdaU, 0x3bf4a021bd668f97U,
  0x3daefdbc3d729ec9U, 0x3d0ae97f3d9d95aaU, 0x3dbde1b03cfbad28U, 0xbd2c831cbd037c50U,
  0x3cb816f23c8e7396U, 0x3bdd9a033e1379abU, 0xbd38831dbd5af51fU, 0xbcfc81debd74596fU,
  0xbc44bf60be03fc4fU, 0xbc351bc93d2ef5b4U, 0xbd0e7befbd32ca84U, 0xbd9cc10bbd4f279eU,
  0xbbbcf8ce3b8809c0U, 0xbce19c833c426775U, 0xbcfda720bd8ac85aU, 0x3c2569e13cd1a004U,
  0xbce24f7abd6781feU, 0xbd05b3eb3d8214bfU, 0x3d9ffa96bd9c9029U, 0xbcbb0a773d0f2439U,
  0x3df900963d2050d6U, 0xbd1e1fc13d8e5d18U, 0xbb48bd38bd504949U, 0xbd9a66f3bcf898f3U,
  0xbce95139bc43905cU, 0xbdd6e144bc1f8addU, 0x3cdb72fdbd642de8U, 0x3c2b4b6fbdd77c50U,
  0x3d8717403c8805bfU, 0x3d0e78debd24ee10U, 0xbd6c47093d198139U, 0xbd0f0c8b3cf68cd8U,
  0xbd9acbaf3e2a070bU, 0xbd8ad624bb035a53U, 0x3cbd5f333e172950U, 0xbbca700bbdfc38c8U,
  0xbd7ad699bd877ec4U, 0xbc29c3943e32fb69U, 0xbd37d6d3bd2d46bbU, 0x3cd9f2883d852facU,
  0xbc082c02bdb7acfcU, 0xbdcd5ab1bc853500U, 0x3d4c9b55bd0ac5b0U, 0x3c335aeb3d02d292U,
  0x3cc572603d5d18f6U, 0x3cdd23ebbda0c9c8U, 0x3ccd469dbd1991bdU, 0xbc984595bd78a878U,
  0xbc41d9863ddb22f8U, 0x3d22f3623dd34991U, 0x3b001ce7bda384d5U, 0xbe076bd6bcac8910U,
  0x3d08034c3dc5d70aU, 0x3d6c2db23c7c8ff5U, 0x3c9ca4cfbd0617b8U, 0xbd9a7188bc98e069U,
  0xbd5cf218be523815U, 0xbd5473d6bdab66f3U, 0xbd9a21aebe1315e4U, 0x3bfa974ebc2cd7c6U,
  0xbcd221433ca561b9U, 0x3ba38eee3e27d749U, 0xbdd2e02dbe178f44U, 0xbe1212ee3d38a7eaU,
  0x3cc58fa7bd906309U, 0x3d916cd8bdb71e2aU, 0x3cf7f5143c7c73ddU, 0xbdba6b9b3cb72e97U,
  0x39823dccbc7d235fU, 0x3e0b2d2b3d7f32bfU, 0xbda8e447bd0719efU, 0x3e36e71d3d579f3dU,
  0xbe2e2141bd881fd0U, 0x3c6807aa3cbd8985U, 0xbd9616e23a870279U, 0xbde3e0d9bd5266f6U,
  0xbd273b303d2fbc3eU, 0xbd2b40b93da601fcU, 0x3da5056b3c21f850U, 0xbda8bb4fbd185d65U,
  0x3c8c8675bc5979c9U, 0x3d3fc58a3d89122aU, 0xbd478fc5bca52060U, 0x3d700236be10c85cU,
  0x3d2828e03d786232U, 0x3cd3c415bd8ee61fU, 0xbd0a6f32bd09cbd8U, 0x3e33608bbc9d0217U,
  0x3d7ce3d53d1f422fU, 0xbd4a163c3bd83791U, 0xbd9f93693d585b30U, 0xbdd2656abdcf5e48U,
  0xbd9a9a4abd970250U, 0xbd589bef3cf6e52bU, 0x3dd50df03dc43ba8U, 0xbd2d1782bd08c977U,
  0xbd82b775bd6c14bdU, 0xbd98499dbc96654bU, 0xbcd79492bd371804U, 0xbe009cf53d66d4daU,
  0xbd95ab6f3d633258U, 0xbcd8d1993d8627d6U, 0x3ce786fd3e215825U, 0xbbe151323cd672cdU,
  0xbdc79623bd0ebcb6U, 0xbd3abc7f3dc3da55U, 0xbdd92e2cbddb0ad9U, 0x3d2f272e3d023973U,
  0x3d3e6c9bbd92b5a5U, 0xbc5fbe693e35d07fU, 0xbd3708a7bdc29543U, 0x3d6dbe4ebd815071U,
  0x3d3722b53ca64bb1U, 0xbda4a9aebdee4e1bU, 0x3cb19a7e3d252674U, 0xbbca54513d4c03b3U,
  0xbd75cf7ebce778fcU, 0x3d3f7eccbdd68a73U, 0xbd3644ebbd5b2c1fU, 0x3cb999e63c9748aaU,
  0x3e21b070be01505fU, 0xbc6f63bcbcbd47ceU, 0xbd8cbd7ebe4a1043U, 0xbd804b9c3d908afaU,
  0xbdbb07fc3d9bf23dU, 0x3d84a02bbd9ca154U, 0xbd4f886bbc01ab2eU, 0x3d4ab849bd8b7c44U,
  0x3c8a8d5bbd801ba9U, 0xbd8243b13d92a50fU, 0x3d5249b23d0573cdU, 0x3c0969abbd980d5aU,
  0xbc4f4523bd17126bU, 0x3c5cd3a7bdf5627aU, 0xbe029ea8be1323bcU, 0x3da001c7bdc8694bU,
  0x3de624a13d92e218U, 0x3d649d8a3c9ee09fU, 0x3da76b41bd67bd44U, 0xbcb8b156bdb77696U,
  0xbd8f41eb3dadd788U, 0xbd943454be0fecd3U, 0x3c3b5b88bd6fc314U, 0xbd875e253dbe2e40U,
  0xbc35ec9dbcbdd577U, 0x3d9e774d3da0e564U, 0xbd330ee7bd8d3e03U, 0xbddd2e093d6d4a74U,
  0xbdd115c73ce11bcfU, 0xbd81515e3db2f85aU, 0x3c4181e93d77bf74U, 0xbc815e163dce0171U,
  0xbe40e0f93d3eb427U, 0x3d30121b3d9d41d1U, 0xbc8365a4bd5ffe94U, 0x3d9a526e3d55245bU,
  0xbd10b3523dc3f4bbU, 0xbb5229183cc9176aU, 0x3c903f04bdfc8a0bU, 0xbd8ffd053c14c8edU,
  0xbc6f28fc3c07bcaaU, 0x3d6ac74cbd901958U, 0x3dae2f20bd3ab928U, 0xbd8871b03de4d6daU,
  0xbc70f2a1bddc61cbU, 0x3cbc193f3dc03d49U, 0xbdfa61e63d2681cdU, 0x3d9209d63d541876U,
  0x3c3dd4f2bb0ce730U, 0xbd67f9ae3dc476cbU, 0xbd70ba98bcdf5bd6U, 0x3d583bf2bd3cabdcU,
  0xbd355a27bcc89312U, 0x3cd7fcf9bd6a5905U, 0x3d6433a2bdce7396U, 0x3ce56a5bbb46b2e5U,
  0xbd81961bbd2930bbU, 0xbd1a10203dc29305U, 0xbdc35e8c3d2408caU, 0x3db390573bef7e7cU,
  0xbd20a20c3c3078ebU, 0xbdb8803fbe109145U, 0xbdf32c31bd953026U, 0x3df5b1583cfb1bafU,
  0xbd47be57bdcd0379U, 0xbc4ad5e53d2bebf5U, 0x3cb373b63cd98d1fU, 0x3d4bd79fbdfc3b5bU,
  0xbc8280403d4829d6U, 0x3d50753abd92e7b6U, 0x3c1db5ec3d303910U, 0x3dcb03743df32195U,
  0x3c2756e2bdb67511U, 0xbd853569bd8523a4U, 0xbdb7a288be01dcf9U, 0x3d9344ca3e15d3d8U,
  0x3d437e7cbd0dc56cU, 0xbd3d904fbd8e0dd0U, 0xbe04b3a6bdf85079U, 0x3d82ff33bd31342cU,
  0x3bc3e6f43d1e518eU, 0xbd848cdd3b68e052U, 0x3dbe3e483ccbb308U, 0xbda7ef95bd3f920eU,
  0xbd6b74ccbc75b459U, 0xbdd5edf3bd93a9b5U, 0xbc92d49fbd8172d2U, 0xbd83391dbd8c1f8bU,
  0xbd5b2818bd278875U, 0x3cc59e433ce995b7U, 0xbc1febfdbd1053baU, 0x3ddd70cfbbe368f5U,
  0x3de996023ca22c56U, 0xbcfc4f87bd166233U, 0xbdcd8aea3b81286cU, 0xbd10d0f8bcbd0a86U,
  0x3cf0cc223e0f6ebcU, 0xbd9c87e73d0fafd6U, 0x3cdef7ea3db4c729U, 0xbc9ea071bdd74563U,
  0xbda568103cca4086U, 0xbce1ccfbbdadb803U, 0xbd65f1c8bc9452a4U, 0xbd4993453ca9b285U,
  0x3e146a993be718eeU, 0xbd7afef6bd5a790eU, 0xbd81b80d3ca8ef62U, 0x3d03acaebdb7a485U,
  0xbe34f23f3cb19128U, 0xbd6c5b983b092632U, 0xbd9737dbbe1ee256U, 0x3dbe0240bdb33829U,
  0x3c3f901c3c2d2691U, 0x3b98f5643c840cc7U, 0x3d0f5a87bd022575U, 0x3b9f8635bcc0437aU,
  0xbda1bfa1bd2b4968U, 0xbdc9ad77bd3c2d52U, 0x3bb13b6c3d83055cU, 0xbda5737abd7c6322U,
  0x3d8187b9bdba7fafU, 0x3d6da9de3cf949b7U, 0xbd2572253d3a3702U, 0xbdcda3e5be2af02eU,
  0xbd17648ebb4e7249U, 0x3de93a8cbcd79202U, 0x3d9a4b4fbd5d7ffdU, 0xbcad8f06bde95b7fU,
  0xbcfc90453d0ce035U, 0xbc19ae77bd3c94eeU, 0xbd08f1e1bd40e813U, 0x3a03cee9bbe140ebU,
  0xb9fb17913ddbbe20U, 0xbd4721133d640c66U, 0x3c7dd64fbd8ef508U, 0xbccf8ebcbd87eeeeU,
  0xbdc88f763c9ccb45U, 0x3d87e4eabe391ff7U, 0xbd4ef03cbdea0966U, 0x3c652fa4bdb96faaU,
  0x3d8d1ebc3cd184f5U, 0x3dbf3f883ceb9ce3U, 0x3ba98eefbc61a4f2U, 0xbdb2a5cdbba566bcU,
  0xbbbcf99dbdd558c6U, 0xbdc10d313c6258b3U, 0x3d53a6583daba857U, 0x3d1ff0b6bd1684c2U,
  0xb9d3eab23d55f123U, 0xbdde70883d896f93U, 0xbc865abf3c37f1baU, 0x3d74867c3df6da3fU,
  0x3daffbd8bd6bcdb1U, 0x3d39b296bd91ea1bU, 0xbd8434e1bdab8d30U, 0x3d6be7babd9357d8U,
  0x3d6e83953d3b9faaU, 0xbd6ec983bdae3c27U, 0xbd975f5d3d23c7c9U, 0x3e21ac44bd9a89b5U,
  0x3ddc9dc1bdce4d06U, 0x3da4f0ea3ce6f9cfU, 0x3d24f162bcb983c1U, 0xbca75afebdbbcb85U,
  0xbca4f2bf3dd072c1U, 0x3cffa4df3dd86b24U, 0xbdc34f3a3b74bffaU, 0x3df9551cbd79b26bU,
  0xbd3f0658bc84cde6U, 0x3da212b9bca5035cU, 0xbb586fe73dba0a21U, 0x3dcb0df63d0c6b76U,
  0x3db494babce6a6deU, 0xba010a49bc03bda7U, 0x3ddbd09abd1ea949U, 0x3de805be3dc08fb3U,
  0x3dfe74e239acb315U, 0x3db6556fbb68424fU, 0xbdc9ea92be109575U, 0xbd92f8e13c643505U,
  0xbd6905063d4245aeU, 0xbd349726bd89877fU, 0xbcf81ed8bdb6a34eU, 0x3d49f1c7be114a1eU,
  0x3e01892dbd98beabU, 0x3d92e9673df4c267U, 0x3e33b0d93d6ac47aU, 0x3da06913ba4f904eU,
  0x3dab2c6abd3e9c20U, 0x3d9ae8693e190384U, 0x3dabe99a3d8d50deU, 0x3d62722ebccc3b5fU,
  0x3c7b6bd5bd617cfbU, 0x3dda9d0a3d941ec5U, 0xbd2d4d98bcd6708bU, 0xbd4416c03db51205U,
  0xbc2057213ce07d18U, 0xbddd29e33d8d629bU, 0x3d99d6f0bd4329c4U, 0xbd596b4ebd9c4b96U,
  0x3dccb7ed3dd6ec58U, 0x3b9d8bbd3e1685aaU, 0xbc930fa23a1b7cd8U, 0x3c5111203c24c5acU,
  0xbd128f89bda1f853U, 0xbbc1e4373cc9c56dU, 0xbd412a05bdae34f6U, 0x3c1deb73bd8c653eU,
  0xbb9205f8bcd1854fU, 0xbdd1fae2bd7d668bU, 0xbd6df79f3d86aeabU, 0xbdba80abbdc55c46U,
  0xbd5f80ee3d2fce60U, 0x3c115d9fbd918514U, 0xbd1f8b85be023ec7U, 0x3d12c0323db49199U,
  0x3d30041dbcb07ee2U, 0xbbe050723de4ee9cU, 0x3d006de13d6594f2U, 0x3de2cbdcbd8e70b0U,
  0x3c3ba91bbd018670U, 0xbd542be23e46a7a5U, 0xbd9555a2bc895254U, 0xbda35ac1bcd75b96U,
  0x3c9dfacbbde4a4a3U, 0xbdbd127dbc8513d0U, 0x3cb9426abc8c3fdbU, 0xbca9e7debddbec00U,
  0xbccec9143d0f55e5U, 0xbc8324203d2c3c5dU, 0x3cc9a397bcc001a8U, 0xbdc134a3bd477e47U,
  0xbcd19b6cbc1e8780U, 0xbd7fc706bd340e9fU, 0x3d44a4d1bd8daa0cU, 0x3d6b05cdbc8ca224U,
  0x3974c60cbd296decU, 0x3dc0087a3d2c3f5eU, 0xbcd966edbd0d4dadU, 0xbd3d571dbd151fa6U,
  0x3d5bf8823c7527a3U, 0xbe157d483d879d81U, 0x3cf6e86ebd73907eU, 0xbd8a1a9ebd7e04fdU,
  0xbe33286b3d3e119cU, 0xbd553634bd398a43U, 0x3d522de8bd7b2e60U, 0xbd9c8d0dbc358738U,
  0x3cdd8993bc994672U, 0x3dd186193d93dfc4U, 0xbdb5537abcbd9096U, 0xbd3e62413dacf380U,
  0x3d1fb772bdac5716U, 0xbd813e9e3d17980cU, 0xbc57d1bf3d844ce2U, 0xbbfc341fbbc4647bU,
  0x3c162286ba8a7f4eU, 0xbc940f81bcc27567U, 0x3d1cf4f3bd1eff4aU, 0xbc30264ebd3511fbU,
  0xbe03f461bd05020cU, 0xbcaab3993cc8fa4bU, 0x3b0d583fbdc0ed48U, 0x3bce2801bbf4afa8U,
  0xbd07d160bda35188U, 0x3d93f34d3cb7e331U, 0xbc87a7963d908be6U, 0x3b932defbcd307ecU,
  0x3d7a9c673c21acd6U, 0xbd9c5487bd822334U, 0x3d3e9cd9bc9e7a06U, 0xbde490be3b952599U,
  0x3ca1789fbd0f8fb8U, 0xbdab7e62ba7a5a55U, 0x3dd25d4bbd149de2U, 0xbd857ed03d2cd245U,
  0xbd35a763bc908304U, 0xbd261bd0bb73fe97U, 0xbd608a043bb3e49fU, 0x3d73272dbcd09b83U,
  0xbd2e118d3cb7b6ddU, 0x3cd4cd57bc110d9aU, 0xbdd590aabac0de30U, 0xbc962229bcdbf782U,
  0x3d98140b3cb991a1U, 0x3db4f7b9bdb43127U, 0xbda8e6e83d4f9af5U, 0x3c8bf392bd2f6eebU,
  0xbc88a9d6bdb1bf0fU, 0xbdd721cb3d554990U, 0x3c95a8a5bd3a298bU, 0x3d56a5dabcbb0368U,
  0xba9aa2f73c1e37d1U, 0xbcc58cfebdb71334U, 0xbaf95fe8bd827ed6U, 0xbd3cb1043d9b846aU,
  0xbd3ca22bbda8d3d9U, 0xbbdfa03b3d0693c1U, 0xbdbeda65bda00865U, 0x3d1a6e30bad03cafU,
  0x3d3939b0bdabbb8bU, 0xbcda930cbb0433c1U, 0x3d5982073c55617bU, 0x3d7dc43c3e03160fU,
  0x3c37e0c93d4a42a3U, 0x3dcb2df0bd65fbbeU, 0x3cf8ad123cfc130bU, 0x3d3860183c214ca0U,
  0xbcfe6e13baeb0c2bU, 0x3ce85a4f3d3bdb77U, 0x3d55edf4bdb81f21U, 0x3c1effde3d5e1b78U,
  0xbdb63973bdd97b7aU, 0x3d2fb143bd270fa2U, 0x3d8efd7abd8cca78U, 0xbd1c92893d229c18U,
  0xbd5dcb91bd93e312U, 0xbd914b7bbd217938U, 0xbcc7965f3c995428U, 0x3a42b8c13e1010a0U,
  0xbd846dd4bd6d6a09U, 0x3d8e13ffbdcb0dc8U, 0x3ddc54fc3d52ff94U, 0x3cf629733c80c9d4U,
  0x3cc36506bcbe6dd4U, 0xbc1cb49d3d06f630U, 0xbd8db0e2bde70e39U, 0xbd29a2793c8c33f2U,
  0xbd172c02bd33c6e2U, 0xbd876cc53cf0036bU, 0xbcee1389bd3b5317U, 0xbcb530a73c79e47fU,
  0x3cf9d9863ca48ce1U, 0xbde80473bda648a6U, 0x3cc0737a3de5b1bcU, 0x3e06f78d3dc8ee40U,
  0x3cded4e43d8295e4U, 0x3e07ac1e3d379614U, 0xbc9796c13dc9d950U, 0xbb71f5f5bcd0d209U,
  0xbd73c9f3bd8cce85U, 0xbdb01e3b3c869715U, 0xbd0def1dbd92bbf0U, 0x3dd714c33c74fd40U,
  0xbd62b1ae3d35e9d6U, 0xbcec1de1bd0c0a4bU, 0x3bf696713d0d63fdU, 0x3d5055683dc7ec17U,
  0x3d63afc4bd94e798U, 0x3abad5743d52b546U, 0xbd7719e4bd95cfadU, 0x3d2e938fbe3215b1U,
  0xbca214d53d07ad57U, 0xbe048aebbd42fed5U, 0xbc52123fbcacfe47U, 0x3d2bf89fbdd6494cU,
  0xbdf94291bdf30142U, 0xbca6ef483db25628U, 0xbe202446be013cffU, 0x3de238893d453bf2U,
  0x3d2588a0bc5f3ab0U, 0xbd78b628bd93ff05U, 0xbb30151ebdbfa0b8U, 0xbc9ec2b2bcd04217U,
  0x3af634e9bd992436U, 0x3e237b9dbcb69e87U, 0x3d84f8a33d5244d4U, 0x3aefddc1bd7a396fU,
  0x3d72d363be07b039U, 0xbda3e2ddbd4901e0U, 0xbddbf35ebe14f7f0U, 0xbd4f286bbd66aa2aU,
  0xbd0080fdbc924780U, 0xbc72d9b33d238e1eU, 0xbd9a27cdbe091386U, 0x3e0041a2bdfe90b9U,
  0xbce48339be04fd5bU, 0x3dec97cfbe06cb90U, 0x3cb8c125ba84b10dU, 0x3d7a0b31be03c358U,
  0xbc3cdf173c9c9ae7U, 0x3dcbefc0bd76c810U, 0x3c66fbc2bc3bb3f8U, 0xbd1cdc89bd48ff02U,
  0x3e18fb09bdd21659U, 0xbd530910bd924311U, 0xbe60d861bd01e281U, 0xbcac28f0bdf5e04fU,
  0x3be2f62d3ccfb77fU, 0x3b897787bd21315bU, 0xbd182896be2ae617U, 0x3c93f2a63d90d51dU,
  0xbadc2b34bdd310b6U, 0x3d117b7e3daea558U, 0xbda24b20bded5de6U, 0xbb8e2197bb1a7556U,
  0x3d9f93dfbc6b6788U, 0x3dd430d03dc28963U, 0xbd82d205bbe4aa8aU, 0xbc98300fbcda8cedU,
  0xbe2433723bcfbb65U, 0xbdca5fcb3d95d26fU, 0xbd1b11fbbd86d333U, 0x3d78bce7bdc7a151U,
  0xbb9005223dc33e1fU, 0xbd8c456abd59396aU, 0x3b9febfebda49cc0U, 0xbd48fefdbda73cc0U,
  0xbda90058bca2d602U, 0x3d9f86cfbe03595dU, 0xbdeb232bbd7c9facU, 0x3d62977abd58e783U,
  0x3e2ff89c3dbeb394U, 0x3dbcf087bd308698U, 0x3e09c221bd8b7053U, 0x3d7f95f33c85d8d5U,
  0x3cdcb1093ca4649fU, 0xbd095fe33d3d3b27U, 0xbdfe51debd8dfd59U, 0xbc81e9503d4f781eU,
  0xbdbf38a8bc2936daU, 0xbd4dd1353d891aedU, 0xbe5dec5f3ad6e2e7U, 0x3d5cf226be26e775U,
  0xbe2828e2bd879d6bU, 0x3b312865bdbe1ba9U, 0xbd9e6247be0d27cfU, 0x3b256db73d884538U,
  0xbdb238dd3d001733U, 0xbdefdbcdbcbcd1e7U, 0x3e5b70bb3d895d20U, 0xbd41049ebd0b8f33U,
  0x3d0a5bc13d0423e4U, 0x3e338958bb5562aaU, 0xbe4d973dbe513f9cU, 0xbdbd09ee3dbb95d2U,
  0xbe0b8a15bd8c52a5U, 0xbddfbb5f3dbc5d78U, 0xbe1d36043d14cb2bU, 0xbd059cc4bd73a19bU,
  0xbd7dd8e63bc0250cU, 0x3d5f3cfd3ab0cde2U, 0x3ce5b100bdf88423U, 0x3d0b89423d053723U,
  0x3d421b533c626d9bU, 0xbd7aaf7dbe4d93f8U, 0x3d950cf73d7d994cU, 0xbdb0336c3cdbd81eU,
  0xbd090120bcbf1036U, 0xbdb1a4103c08549dU, 0x3d683315bd0de441U, 0xbdb9fb113d87a90bU,
  0xbdb44d97bd414aa3U, 0xbdda75ff3d283d2dU, 0xbdba330b3d06dae4U, 0x3e2b045ebe342d2fU,
  0xbda46ce5bd5d54bdU, 0xbdc0669dbcaf1bfbU, 0xbdba47ba3ce8a86bU, 0xbd0ef68d3ddb41f9U,
  0x3d90cba4bd80b1a1U, 0xbce7979dbdc6d804U, 0x3d662fafbd0ecd13U, 0xbdc0a53ebcde34ffU,
  0x3d26d1e53d75e5e1U, 0xbd8a54b3bdb78bdeU, 0xbd964bafbda7c975U, 0xbcf017123dbdbf71U,
  0xbdbbfc963d059a7dU, 0x3da0bf3fbdfd2042U, 0xbcc740c0bd9d58beU, 0x3d33c5203dd62078U,
  0xbd2df1a8bc9321caU, 0xbd3e7ec83c8f714fU, 0xbc5570e6bd6b859aU, 0xbd57809f3da4aa09U,
  0xbdaa388bbe43e81bU, 0x3d9dcab23e18b08cU, 0x3d55ba2b3d04ad7dU, 0xbdc9b16dbd0fe249U,
  0xbe014b763dabc30bU, 0x3cd0753ebdd5cbd0U, 0x3d976ad5bd7ecfcaU, 0xbb846a08bc9a11f6U,
  0xbe1cf59d3d8b9899U, 0x3d9afb70bd694b8bU, 0xbc8b20d53d00ce7aU, 0x3cc32772bdd80e7fU,
  0xbc3ac1e43dad3ffbU, 0xbe171d59bc076560U, 0x3c965a4d3d9a82adU, 0x3bf157883db3007eU,
  0xbd0f9027bdb6d18fU, 0x3dea1a713d211828U, 0x3d088ba63c56037dU, 0xbd761c1b3de386efU,
  0xbdfc89e73ce63ffeU, 0x3dc7a94fbc8ed133U, 0xbd917a9bbdc6ddf6U, 0xbe0a4dfd3d8f19c1U,
  0xbd5e7da7bd8972b6U, 0xbdb10a6f3bd60d7fU, 0xbd94d794be24362cU, 0xbd07e22abc6658d7U,
  0x3d79bca2be0119eaU, 0xbcc32abdbdef5469U, 0x3df8e8f4bd991e38U, 0xbd91d2723dbf6952U,
  0x3e2f8e30bdcd5ec6U, 0x3dfa836f3cf4e94fU, 0xbc85a40ebda01ec3U, 0x3d0368fd3cfa55d4U,
  0x3c8501333cc5f855U, 0x3e0673d9bd0fba17U, 0xbc45ac63bdc4091fU, 0x3d054dbf3d971359U,
  0xbe289463bcc39b37U, 0xbe3e4d6cbdb7ab4dU, 0xbd5cdaa1be2854d1U, 0xbd5b98eb39b581c0U,
  0x3d9c5a7e3c89067fU, 0xbca6ea043cb821ebU, 0xbcc23dc63dae5cffU, 0x3b2e92eebd028bb3U,
  0x3e5602eabd09fb56U, 0xbd2073363dc442d2U, 0xbd6629a63e3294ceU, 0x3be276c33d849df6U,
  0x3d91e96cbe25c165U, 0x3e1c1f4c3da20142U, 0x3d2c1b2cbd366d14U, 0x3d1892dc3ce052e8U,
  0xbe35d16fbdfd6d3eU, 0xbddc2f9fbc3d38e9U, 0xbe01c3e2bd78042dU, 0x3d9bb7533ca2664bU,
  0xbd824aaabd61a951U, 0x3cb45b43bdc39655U, 0xbdba83c0be17725dU, 0xbdcca1bd3e052987U,
  0xbcfb7eba3dcc32faU, 0xbe2753f7be04661fU, 0x3d812463bd88f056U, 0x3dc0b8cebd9ee71aU,
  0x3ca05609bdabfaeaU, 0xbdee8c87bdf22ca2U, 0xbdcdbed3bd6c0e17U, 0xb9b24c75bd4eff53U,
  0xbe71b7d1bcd3c838U, 0xbc9ebd5d3b21dbc9U, 0xbd43d89cbd81fe28U, 0xbd6d3ff6bd91e06aU,
  0xbdbf9d543cf508d6U, 0x3da28c3fbe311f14U, 0x3c964e663cf4e400U, 0x3cf996363e4abe3bU,
  0x3a8401993c9b3e6aU, 0x3af5cdd5be0ad17eU, 0x3d6cf84f3dfdbca6U, 0x3d8e7754bda4e7b0U,
  0xbd460fc2bd7c78faU, 0x3e0dcf70bd5d9695U, 0xbce6266abd9ca19cU, 0xbd0f99f7bbe7f475U,
  0xbc970050bde2866cU, 0xbcfecdfabdf0b863U, 0x3d3afebbbd506adcU, 0xbe1a71393d4305ffU,
  0x3d81725dbcaf6825U, 0xbc9821cc3a167b8cU, 0xbdeb083bbddc5aa3U, 0x3d64fdbb3db84470U,
  0x3d3f8c833c23f58dU, 0xbd89e9d83d64fc81U, 0x3d77d19b3e4065c9U, 0xbbca33febd6e2c7dU,
  0x3d45f17bbe2b467fU, 0x3e11cf51bd933c85U, 0xbda4b4e4bd11b743U, 0x3c2e9de23d00b8d1U,
  0xbd3a0e8a3d4ab4e8U, 0xbd6512d4bdafa72dU, 0xbe059e0f3e09dc90U, 0xbd178cd4bd6aa4b8U,
  0x3d093b60bc9ca588U, 0xbe187a1d3d8fe5eaU, 0xbd15ecb2bcf623d3U, 0xbe20216d3dc7d5d4U,
  0xbd405e99be386e00U, 0xbba543763ddbc855U, 0x3d3c07a03d735112U, 0xbce07c4bbe11b493U,
  0x3df0363e3d93ef96U, 0x3c12e8d4be0a3b0cU, 0x3c516d5ebd01ee6eU, 0x3cccbe8dbd980440U,
  0xbd8991993cb031a1U, 0xbe0adde23dc9f3dfU, 0x3c8f9ec1be19c292U, 0x3dcf5b1abd95e0f2U,
  0xbd27fdaeb935575eU, 0x3c8b3347bb8361a0U, 0xbdbe056f3e1ea232U, 0xbdfaabd33db0b144U,
  0xbdaa9c373d053135U, 0xbd7490303d49b644U, 0xbdf4364ebe0a8fbbU, 0x3dbf6cfd3e1a9c67U,
  0x3d11380fbc04c313U, 0xbddf117ebe06d0ffU, 0xbda62c46bdceb96bU, 0xbd4a5b83bc66c7efU,
  0x3c59e804bdbe2566U, 0xbdabdea1bdafe90eU, 0x3d4fcb813e1d3a8eU, 0xbd81ee9a3c4d26e8U,
  0xbd19564e3d3649b0U, 0xbdebca6dbda4826bU, 0xbdd7f603bda2acb7U, 0x3cdb74dd3df5f241U,
  0x3d6d0c7d3c8b22f6U, 0x3d95cc643d909c0bU, 0x3dd9cb63bdd77d80U, 0xbc04d54e3da99273U,
  0xbd837548bdbdd8aeU, 0xbd86bfc8bd6cdbc8U, 0xbe07cad1bcf0e3b4U, 0xbd3c2a12bbcceffdU,
  0xbd9840383c43988cU, 0x3cfaf14c3c11cb7dU, 0xbca528b03d6cdf4eU, 0xbe15579fbc150c19U,
  0x3d08cb4c3c0297feU, 0x3ddc7f033cea6778U, 0x3aacea59bd8988d6U, 0x3d8dc6d8bc6e39ddU,
  0xbdd5f6cf3da90ca6U, 0xbe06e0ac3cb93012U, 0xbca770003d84cb8eU, 0x3dc748c5bb205ea2U,
  0xbcef921bbe09d4c3U, 0xbd192ff53be7f15cU, 0x3d833c8f3df9bdd0U, 0xbd5dbf53bdab64eaU,
  0x3d2cc26b3ce8a42fU, 0x3d2ceb063ccc0b36U, 0x3dc08ca93d9274d5U, 0x3d4f638a3dce7a92U,
  0xbd99fbc23a9bd71eU, 0xbb9bab6f3d74e7cbU, 0x3c0465853d5edc80U, 0xbb42e080bda44672U,
  0xbdab50133d16bed4U, 0xbe0451743c4bc638U, 0x3d8d6b0a3da74f2eU, 0xbd45af383d8f32beU,
  0xbdd0055abdfbc3a1U, 0xbc9a4707bd0209c4U, 0xbd9c655c3c2a553fU, 0x3dc1c4473db23b9bU,
  0x3d94aa0dbd7eae2cU, 0x3ccb703cbd1a00dbU, 0xbcd532d1bca855a1U, 0x3d93b80fbd299582U,
  0x3bd27dbcbc08df70U, 0xbcace30ebd859772U, 0xbe01608ebb8b0654U, 0x3d147522bd02c723U,
  0xbd12a1c4bd319d94U, 0xbc9f1d26bda54847U, 0x3d3045483d91a3d8U, 0x3cf25e69bd275955U,
  0xbdd3a4b2bcccec0fU, 0x3c9a4748bb6b9c99U, 0x3cba44ca3d7e8992U, 0xbc7c357fbdc3430dU,
  0xbd469fb3bc55df4aU, 0xbd98108bbd9c3351U, 0xbcb307493ba03e08U, 0xbdb1d9dfbcf59fd1U,
  0x3dadad9f3ce22d0eU, 0xbd886d683c80f1fdU, 0x3dae26b83d71a358U, 0x3cc721c6bc5c5181U,
  0xbd223b16bd59204bU, 0xbd374a8d3da639fcU, 0xbd827baebcdabce1U, 0x3ddce5c93e4e7128U,
  0xbd90b98ebb6899b4U, 0x3ba829083c10f9f6U, 0x3df58899bb2cf45aU, 0x3ccf33123d91aeafU,
  0xbc88f7473d0e49f3U, 0xbd8f95f7bc80d9f8U, 0xbabca02b3d7074b0U, 0x3e11b7253ba3cea4U,
  0x3cf63f9c3dde8389U, 0xbd500ffbbb9f8eceU, 0x3e18aa15bd87e5c4U, 0x3ced97b2bcccdb3dU,
  0x3ce7da5d3d274789U, 0x3d6228b3bdd7cc04U, 0x3da2f957bd0de3ebU, 0xbd840e2d3bf574f1U,
  0xbcf1ea0c3caf1692U, 0x3d8d2f69bb1165ccU, 0xbd4737843bc957ecU, 0x3cdad3853d51381dU,
  0x3d36d710bd4a4e32U, 0xbd5d06e3bda9a3ddU, 0xbda702983d9c18fcU, 0x3e21d5bcbe0284d0U,
  0xbd5488283d25e8aeU, 0xbc9a72e1bd64dac8U, 0xbce5d8ae3c051b10U, 0x3de8f479bcc69531U,
  0xbcd2f39cbc6f6b11U, 0xbd155bc63cab76cdU, 0xbd13662bbd9b7908U, 0xbd4a9cb7bd9f7be6U,
  0xbc133c4e3d8c955eU, 0x3d098f473c5e6bc0U, 0xbced5bc83ceca5f0U, 0xbd0b85a73c140648U,
  0xbc76a416bdccebe3U, 0x3c841a2fbc639233U, 0x3bb8cd70bdb61571U, 0xbd5cb195bd99059dU,
  0xbd84bd5bbd708474U, 0xbd4e2d56be276ac6U, 0x3db0d4fabbd39b7cU, 0x3e4c4feb3e09b2d7U,
  0x3ccfc8423d33de1aU, 0xbd8d29cebe2a02bcU, 0x3c28f0e9bdd8732fU, 0xbdb5d57b3d18ad76U,
  0x3d8bf2143d417544U, 0x3cae78fdbd993b71U, 0x3c699065bb7ea533U, 0x3cb4f0583bdc0642U,
  0xbd96bc3abddd3858U, 0x3d0e1e82bdc4270fU, 0xbd95d8bdbc3579e1U, 0x3e1b7a4bbdc3c98cU,
  0x3d8b9d27bc0e6283U, 0xbd2cd1e7be01ad7cU, 0x3ce53d913d48bc3fU, 0x3ddf9a8b3deaf5a3U,
  0xbced3cf6bdb30a84U, 0xbcf746bcbe0e7c5bU, 0xbcd71b0abd450287U, 0xbdd9b823bd47b76aU,
  0x3dd4a83b3d9c05dbU, 0xbdef25d0bda679c7U, 0xbcdde69f3ca72267U, 0xbc874d86bd93331aU,
  0x3ce420253d1b0ce2U, 0x3ba0db57bdb44d87U, 0xbce907bebd762c99U, 0x3d926d49bd6c03fbU,
  0x3bcf99d0be12120eU, 0xbacfc947bdb8ce5fU, 0x3d951583bd9d4094U, 0x3d4be9543d74b9e4U,
  0xbda8008abdfe4d57U, 0x3d068969bd70ed12U, 0xba5f0ac9bd2a8fd3U, 0xbdd65cefbdb1316dU,
  0x3d8fd99bbc20bb13U, 0xbdd0e62b3be6f5aaU, 0xbdc13e1bbce2f618U, 0xbd5f0b6bbd3dc185U,
  0xba1364083d958ee3U, 0x3cb2a0d0bdf2ea66U, 0x3cc01a7c3d60c453U, 0x3dcf51b93d7f4d0eU,
  0xbd0e96863e196a14U, 0x3cf115db3dc2c3a4U, 0x3ab5c4c2bca120abU, 0xbe1c2c3abd1a249eU,
  0xbd0f104ebd8267e3U, 0xbd99ef373d626319U, 0xbc957839bdc3fd9bU, 0xbcf7d045bd083009U,
  0x3b57aed8bd9ba857U, 0xbde183debdfc8616U, 0x3da4d345bd948128U, 0xbd9a12d93d398547U,
  0xbd16b2adbd3d9711U, 0x3d47be8abdbb714dU, 0xbdb6171a3d135f1dU, 0x3cea9648bc94ff60U,
  0xbcdeeeb33d3657b9U, 0x3d1d6a353c9d29aeU, 0x3d63e97fbd9a18f5U, 0xbd33b66fbd975732U,
  0xbc82d443bd08e1ccU, 0xbc12ae333dda47c3U, 0xbbf5aba73c58af27U, 0x3d24ac17bdc73e83U,
  0xbbf8d71abd46e71dU, 0xbd06c865bd99165eU, 0xbcbc9756bd556509U, 0x3cd5fb443d46e882U,
  0xbd80d1ffbcd5aff2U, 0x3c54a2bd3d98cd82U, 0xbbfa268dbd8c3beeU, 0xbdb034143daead15U,
  0x3d512df3bd10e221U, 0x3d5da5e5bd9ffd28U, 0xbb591cfabde37c48U, 0xbdbafe07be202472U,
  0x3c0f28e7bd23dd19U, 0x3d0215203c12c06aU, 0x3d2444993d3d647fU, 0x3d8e6298bd2376f6U,
  0xbd5ecb41bda08bb2U, 0x3d01da4c3d3dd9efU, 0x3da3dbd0bd9c54d0U, 0x3d943c083c912f72U,
  0x3c91a9cc3d78ac3aU, 0x3d7247173cb428b0U, 0x3d7eda503cb75c03U, 0x3cd605dcbcb649ecU,
  0xbda062043dc639a6U, 0xbda7dc2e3d011bf6U, 0xbc13388a3d0a63baU, 0xbc40f00bbd788e61U,
  0xbe229974bcd410a8U, 0xbd43af923de0eae5U, 0xbc63548c385e33b2U, 0x3bb0fce5bdbf541fU,
  0xbd959baf3cfe6914U, 0xbdc3dbd4bd9f3aa1U, 0xbda26f033d19e2edU, 0xbdd11a5f3d357de7U,
  0xba6ca27c3c7a84c4U, 0x3e2c269d3d777eb0U, 0x3de04ffb3dafc3acU, 0x3d1433ec3d91aab1U,
  0xbaeb4698bc248aa2U, 0xbddb24cd3d93123dU, 0x3d8f81e1bd9db04fU, 0x3d2f2abf3df83aeeU,
  0xbbe4028fb98a579aU, 0xbda60fc23bd2a8ddU, 0xbd5d454d3d0b2b76U, 0x3b85cdd2bd1d70b5U,
  0x3d81fae03c504e3eU, 0x3cb831c9bc47ca99U, 0xbda0a70abd8e81ddU, 0x3c88e065bd6f6ec9U,
  0xbd7f7e46bd4dc295U, 0x3e161f083d2a3f90U, 0x3c82410a3b35c9a2U, 0x3d0806d83cfd9a68U,
  0xbd97d33abd4fdce6U, 0xbd5eeac6bb9e5291U, 0xbd2227813ced2b22U, 0xbdd08f763d3aff2cU,
  0x3be7103d3e17ad96U, 0x3da12290bd4cde4eU, 0x3c2060233d0939e0U, 0x3d38c6123c6bdc6dU,
  0x3dbc3950bd0635c7U, 0xbca7bfb73dccebd5U, 0xbcf9d9ccbd8ce545U, 0x3ce69a2d3ce1eddbU,
  0xbd16e110bcf421ceU, 0xbddfe705bd960648U, 0x3c4fceb83c84f9d3U, 0xbd9b8b42bd38ab7bU,
  0xbd34da883d68f4cdU, 0x3d792c8fbcae5c77U, 0xbc8f46733dda940cU, 0xbc9e090ebe07dbaaU,
  0x3dfb37db3cf951bfU, 0xbd2739603ca61e6dU, 0xbb8f9837bb6fe8a4U, 0xbd7d3d153db3f003U,
  0xbc4556ebbb8b7834U, 0xbc08cfaabd330a8dU, 0x3c6c16f8bd162ca5U, 0x3cfe0a413d357640U,
  0xbc2f75313b77c936U, 0x3c86613b3d845c23U, 0x3e1ae3243b5fcdbaU, 0x3d0a36233db98aa1U,
  0xbd8bf0d93d29eae0U, 0x3d03daa23b49624dU, 0xbd14b71dbd3577b6U, 0xbd7a626abd28c89aU,
  0xbd175d0a3cb870a5U, 0xbd9d6aed3dab9243U, 0x3db07fbb3d86ca1dU, 0x3b98baa43db71d0eU,
  0xbd381f6c3d091501U, 0x3ce982aebcd612a7U, 0x3c96ee303dd81790U, 0xbd238b73bcddd0fdU,
  0xbdc8acc0bddf2072U, 0xbcd031b83dece919U, 0xbbb19fc8bc9831d4U, 0x3d3a3a00bd99d3b9U,
  0xbc50c128bcde9023U, 0xbcb79c053b38d4e0U, 0x3cb4cadd3d377788U, 0xbce15662bdd3912aU,
  0xbda047c6bd756c4cU, 0x3cc437f6bdae1f04U, 0x3d45de303dd1600fU, 0x3d097cb83d955629U,
  0x3d9f2344bd503b13U, 0x3d53a6ce3b8027a2U, 0xbd553a5d3d5913ccU, 0x3da4c7ae3c564eaeU,
  0x3cfddbe8bd964f7bU, 0xbe1e91b8be283aacU, 0xbe19ac3fbdd31566U, 0x3ba55f7cbd2c6ad3U,
  0x3d996a07bdd84f20U, 0x3d0e96753d58c1bcU, 0x3cdf8fadbcd16201U, 0xbd6102563dd754d5U,
  0xbbebed8bbe30e82aU, 0x3da10c743e335bc0U, 0xbdbddc8bbdb2df4aU, 0xbd0783dd3e03f6ceU,
  0x3cbf47943d3fda1fU, 0x3d52c48ebbc2760fU, 0x3d9ec24abda43275U, 0x3aa830453da47612U,
  0xbe4e07723d6ecaf2U, 0xbe310ebabd04fe20U, 0xbe2fa0c7be93a84fU, 0x3dff3ba7bdd67c18U,
  0x3dd4dba0bca0b30cU, 0x3d67f32e3d8a7bfeU, 0xbcbb9b113d91f716U, 0xbbb596c73cefde62U,
  0xbceaa134ba9c6aadU, 0x3de777b4bcce30cbU, 0x3cc5ee64be22d335U, 0xbd5b84bebd0a4680U,
  0x3e103ea33e0806edU, 0xbb6e5c61bbd98e84U, 0x3b944f79bd5bd05fU, 0xbd8a59e33d62e079U,
  0xbe21deedbd8e6e4fU, 0xbe47cd613db8e25eU, 0xbe155318bdbd8c96U, 0xbc6c9944bd7c98c8U,
  0x3d9b6f233da88fd4U, 0x3d8cd3673c8cf2bdU, 0x3d76e38f3d0974b0U, 0xbce7f37ebe40a8eaU,
  0xbe046514be42793eU, 0x3de4e8bcbcb503b1U, 0xbdf0b434bd50ced6U, 0xbe1a6b773e1258eeU,
  0x3d94ee583e018fa1U, 0x3c1e10de3d5bb2f7U, 0x3d82cc3ebe25585eU, 0xbdf56d2b3e1a5a9fU,
  0xbc87ad3b3e070adbU, 0xbdd39c1e3d4387e5U, 0x3d1d5ae7bdf8b4e5U, 0x3d4f733e3d3fdbd9U,
  0x3ad773f2bd1a9fc7U, 0x3d05200b3b3ab745U, 0xbcbd18e23d0a1517U, 0x3cd5ef76bdf93025U,
  0x3d018d6cbd9c5526U, 0x3d8dc9eebe0d373eU, 0xbcda0db3bd8b406fU, 0x3d77c8a2bd10ffdaU,
  0x3d4590043d6eb75bU, 0xbce80fb73d3e13cbU, 0x3d9763efbd8d7c16U, 0x3c37e6d1bdb2dc7fU,
  0xbd810829bd350951U, 0x3a37837abd63d609U, 0xbc082cd3bdb81f90U, 0xbdf974cebdddc8e9U,
  0xbd3c367abdac59e4U, 0xbd77634cbd36bc9cU, 0xbd86e22a3b858fabU, 0xbd97c8e8bd80e7fbU,
  0xbdc0f52fbe3e0952U, 0x3cdce884bdd10aa7U, 0x3e09c334bd840691U, 0xbd9e9ba53db59eeeU,
  0xbdc8d9eabd6eeef8U, 0x3dbc22ea3cff9b2fU, 0x3cd788303d4e6b82U, 0x3c165bfe3de5d624U,
  0x3dc4b0c5bde38416U, 0xbdc47fb3bcf11fd8U, 0xbd873e5cbc293b5fU, 0xbd9cdd7bbc1bd56eU,
  0xbdb28ef5be11b18bU, 0xbd889760be067b1fU, 0xbdff7048bde30036U, 0xbc5c4905bca987afU,
  0xbd0e82f0bd20d65bU, 0x3cfde29abdec2af6U, 0xbcbe9069bc2be6aaU, 0xbd8eb68d3df42f90U,
  0xbcadd4733d407844U, 0xbd199186bd20ec0dU, 0xbcffaf50bcb3f570U, 0xbd943b193cbc41b7U,
  0xbdf654583da72ceeU, 0xbda5410abd8c2fd6U, 0x3ddd477bbe134629U, 0x3dfa5bf4bb8c7873U,
  0x3de68a9bbd69c849U, 0x3d0a49723e119e93U, 0x3c5da460bbc686d3U, 0xbdee54083d728ec3U,
  0x3d82e543be19caa7U, 0xbe1b1332be2a813dU, 0xbc0a01dfbe3ba778U, 0xbe42ad88bdfdd9e0U,
  0x3d57298fbdbd63adU, 0xbdff5f2b3c5f64f8U, 0xbdbb603d3d83e0a6U, 0x3c41dd37bdec07b2U,
  0x3c87a68c3e0fdb7fU, 0x3d70b554bd9e8657U, 0xbdde7e39bd3e7530U, 0x3d7f19fcbc471bceU,
  0x3d9e601dbd054f2aU, 0x3d585b123e25038aU, 0xbc9c8571bca487feU, 0x3db1ec4dbd9cbea2U,
  0xbe021c3ebd80c628U, 0xbcfbf2683d952b37U, 0xbd9256e9bcdfa653U, 0x3d17300d3d53caa9U,
  0x3c97535c3d074956U, 0xbe2736203bbbfcf1U, 0x3d5adb90bdf80412U, 0xbe042fe4bc0b1b18U,
  0x3e33a3d9bd292dd3U, 0xbd8570823d550192U, 0xbd674c75bdfffe5cU, 0xbe239dc23b9188ddU,
  0xbd2429be3d73a5e3U, 0xbdc777e4bd5ba068U, 0x3dbea9df3dd76b8cU, 0x3e4a3f3d3dacd5e6U,
  0x3e0aba4d3d9bafbbU, 0xbd466d353de82c89U, 0x3d800cf33d23d9e0U, 0x3b6de3d93e36b675U,
  0x3d812e1bbc1e4bb7U, 0xbd6836373c3e5118U, 0x3dbb2131be289ddaU, 0x3d958ee63df68a17U,
  0xbda7892ebd4beab4U, 0x3d5f795c3babf861U, 0xbb9e59ffbd55fb1cU, 0x3c2fce5c3d38f436U,
  0x3d75e2e33bbd9071U, 0x3d497f64bd199953U, 0xbceeeb1a3d73b9deU, 0xbd9aada43cd4a4b5U,
  0xbb10a1343d216538U, 0xbd64c1263ca3ab95U, 0x3cb22e8b3ccdde54U, 0xbd42d6bf3d4edb66U,
  0x3c817538bd573b2eU, 0x3c9919fd3d386527U, 0xbcd31ff2bb1c279bU, 0x3ccb43733d40af69U,
  0xbc83ffca3c0b50aaU, 0x3b5570bf3d9fb7a7U, 0x3d30aefbbdb0f7e9U, 0xbd058f0b3c85717cU,
  0xbcd97607bc162160U, 0x3d6e32773cdf44eaU, 0xbae60676bc556e0dU, 0xbd0299f23d8081e3U,
  0x3c0ffa2ebd39c421U, 0x3d09fff43cac3b71U, 0x3ca368bbbc3542a1U, 0xbdace8a23cb01f26U,
  0xbd8f0cfc3b976856U, 0x3c594ace3ca64b8bU, 0x3d399bc939d21b73U, 0x3db6b1eb3d1ed040U,
  0x3cc48275bc903371U, 0x3c4e7f7fbc4c46ebU, 0x3d2eaa523c6d6585U, 0xbd130ff23c5e487aU,
  0xbcbb9ddbbd814a82U, 0x3d38344a3cba3e03U, 0x3cb8d15b3cbb7ba9U, 0x3d1914473cc7cffbU,
  0xbd24bc3cbc153efdU, 0x3b801ec13d10ab04U, 0x3d3e17573d231291U, 0xbd9d32633d267683U,
  0x3c77665a3c892326U, 0xbd01da5b3ca3536dU, 0xbc7ba84fbd079baeU, 0x3be21e433d50d8cdU,
  0x3c1e72e93c7a715aU, 0xbcbf39a53c990e9eU, 0xbcb8aa7ebcd80be7U, 0xbd73cc5b3cfbe825U,
  0x3c1ccd283d2d36ebU, 0xbd20c77ebda49557U, 0xbdc0c190bd605385U, 0xbdbcdd0f3d01eee4U,
  0xbce681053cb2a578U, 0xbccbcece3d3fb098U, 0xbc3760053dc5c870U, 0x3d3349533d331462U,
  0xbd02bf963c77f347U, 0x3b52561ebb83a74fU, 0x3d91adfe3d32d3ecU, 0x3cd05e943ca8a58dU,
  0x3d2c775e3c1c3403U, 0xbd1e4d313d3ec885U, 0x3d734e153cf96074U, 0xbd5ab7f43dced1ffU,
  0xbd0b53593cbf7b3eU, 0xbc0cd246bc82761aU, 0xbdd8b7cabd45f6e4U, 0xbcf4f602bd51f0e5U,
  0xbd121093bdb0cdbbU, 0x3c088f6c3ce8d3eeU, 0xbc94cb9c3df1bdd3U, 0xbb556ed73d9f92abU,
  0xbdce860f3bf4a713U, 0x3c7fb5e4bd908afbU, 0x3d5222923d8d42c7U, 0x3d2e747b3d820de6U,
  0xbb595e8abd513aadU, 0xbd5f5bb73d5a43b2U, 0xbb85863a3cffc722U, 0xbcf9fc53bca4211dU,
  0x3cf555d5bd2c540dU, 0x3cea665c3c9f74ebU, 0xbd01d55fbc55a9d6U, 0xbd559f9cbd96de31U,
  0xbd5e1d66bdb73045U, 0xbd879bd33be418dcU, 0xbc6994653d41604cU, 0x3db326613d0d97baU,
  0x3d6c2dbabd679c84U, 0x3d592774bbf6d8c2U, 0x3cc3af9cbc137154U, 0x3d236d973ab41fc7U,
  0x3d8b7b24bdb9c355U, 0x3d287697bda51202U, 0x3d65ad2fbd111242U, 0x3c659a6d3da385a8U,
  0x3c8165d93c4ab788U, 0xbd8d0cacbd95f10aU, 0xbc441c67bcd2301bU, 0x3da337fe3c771ec3U,
  0x3db9670f3df2d856U, 0xbd954fcc3d417c35U, 0xbd8ae873bda57284U, 0x3d26a3a03da2ed67U,
  0x3c6f23eabbe16cc6U, 0xbd65f10bbd4a836aU, 0x3dd0f8af3d8aef99U, 0xbd94b31f3c9a1e78U,
  0xbd23813cbd824ef4U, 0x3c125a9bbd817c0dU, 0x3db6d9b1b9d200c6U, 0xbd81303f3da85debU,
  0x3ae5ea363b1bac99U, 0xbce2857dbcf033acU, 0xbd5426edbc98bdd9U, 0xbd0066293d7447c3U,
  0x3de3d6c43c96c6d7U, 0xbd1406643b88459bU, 0xbd24865cbc9794adU, 0x3dc237a53d26d381U,
  0xbd06ca4ebda3c84bU, 0x3d4f56a0bd70acadU, 0x3ceb02673daf1087U, 0x3b7e93dd3cb2c665U,
  0x3cbe2b45bd86b5a3U, 0xbd4f7ea03c19e6a6U, 0x3da82fdbbd43ea0eU, 0xbbd1347d3d59bd2bU,
  0xbc99bdcf3cb295bfU, 0xbd71eda1bc2686d7U, 0x3ca5a2ff3be148e5U, 0x3dcf04183d8f5097U,
  0x3da1ea823bd19a3fU, 0xbcb8e0793c85c114U, 0x3d32827dbc37fc7dU, 0xbb3550ec3d9806e5U,
  0x3d8abb61bd406330U, 0x3dda0d3d3d0125efU, 0x3d02dff03db13b36U, 0x3da53e143c8f6e96U,
  0xbd2bc15e3d61238dU, 0x3d3e9a88bce4b7b6U, 0xbb93ae5fbdb15d8bU, 0xbd87e7c43d6263cfU,
  0x3d2221333bf40e5bU, 0xbd0a52a53c0b6c65U, 0xbc73b11bbd4c2b29U, 0xbc67a9f33d6f0d78U,
  0x3dab6516bcc63dbeU, 0x3d81ef55bd807103U, 0xbcfbc1afbdfaffe9U, 0xbd22c387bdabc9f4U,
  0x3ced5fd93cbc9ebcU, 0xbd1c79cc3d97649dU, 0xbd128972bc3e7908U, 0xbcee9c3c3b6d3a65U,
  0xbd89810bbd69b180U, 0xbd7bc993bc64b3d2U, 0x3caa1cd1bc2e8ae8U, 0xbced8ef63d099cfcU,
  0xbd83738bbd72e711U, 0xbddabde9bcd7227cU, 0x3ce15efdbd885e89U, 0xbd91cba5bc90cd8aU,
  0x3d3e274b3d7827f3U, 0xbd1fed4a3c922e28U, 0xbc2d3015bd9b0363U, 0xbc7a88a23d5600ceU,
  0xbdf5cb2c3ce36e0dU, 0x3d425744bd548072U, 0x3db1c89cbd25600bU, 0x3b60ff6abce7a827U,
  0xbc5798f0bdc6b17cU, 0xbd032546bd5325d1U, 0x3d8b62db3af329a0U, 0xbd2231243d366b62U,
  0xbd1dade6bd81366aU, 0xbd88bd50bdc484d8U, 0xbd0a14c13caa5639U, 0x3d41094b3cce4dd9U,
  0x3c192aef3a1a18f1U, 0xbd9373b8bd0cafe9U, 0xbdb346ed3d30c219U, 0xbd8830113d94325bU,
  0xbcc3799c3dd9fe40U, 0x3dafcd8cbcdc85bdU, 0x3df13b71bd4a1a31U, 0xbd3bf48c3da0a083U,
  0x3cbc10c2bbe5302cU, 0xbc85581ebd27b284U, 0xbcbb4be53ab67297U, 0x3bb9d08f3b267582U,
  0xbc8ea10c3d7bb9ddU, 0xbc78eb203c80adefU, 0x3da307ba3d59e492U, 0x3c2473b3bd842b8aU,
  0xbd00e95d3d46e714U, 0x3d44a9393c8d8ae2U, 0x3d8c07643d039170U, 0x3d3fb958bc510f61U,
  0x3d9c7a493b85f7caU, 0xbd21f9c23c0187aaU, 0xbdc763d6bd0c85d2U, 0xbc41a703bda9b0e0U,
  0x3dbe97d53bc2fab6U, 0x3d0e96f2bde35491U, 0xbcfabd183e079199U, 0xbd90c39d3cfc1fb4U,
  0xbcbe58eb3d3e403fU, 0xbb877de23d671289U, 0x3da0cd413c020b34U, 0xbd03f4b7baf8d4abU,
  0x3d50159abd0ad63aU, 0xbb966b1a3dc74afcU, 0x3c863dc5bcbb1a46U, 0xbdd30d88bd671ebcU,
  0xbd37f84fbdba599eU, 0xbc030a6c3cfd2156U, 0xbdbdf59abd9de9c0U, 0xbd072eb73d0fad01U,
  0xbcbd32a8bc800a56U, 0xbc3a090d3c34c3e3U, 0x3c9f68e03db26186U, 0xbdabde9c3d9f27c1U,
  0xbda5e9d8bceccc88U, 0xbd5fe4fd3d3b3524U, 0xbcfb0f37bc41338cU, 0xbd45e63bbd8fc90cU,
  0x3da421c23d8041ffU, 0x3d07c2aa3d823dcaU, 0xbc3cc6c3bb0cd9f3U, 0x3cbc1b86bc7a7a7eU,
  0xbd5e0872bd4e7cb6U, 0x3d03f5b6bda740e9U, 0xbb5893523d877f8fU, 0x3ce08c553c7badd3U,
  0x3d7e5bb03b931e61U, 0xbc36fa643d76a164U, 0xbcc773393d74a9cbU, 0x3b2580873d1f8b49U,
  0xbd07a7acbd2038f7U, 0x3d8059733db824dbU, 0xbc09ca363b76bd79U, 0xbd1b74f53dbea23dU,
  0x3cf2c485bd33975bU, 0x3cdd7fabbd36f11aU, 0xbd2308933d4f046eU, 0xbdaedc3cbdba6b8dU,
  0x3d4d7bd4bd84d078U, 0xbc0b7530bcb1b6beU, 0xbd3f45e1bdcbfdd7U, 0x3d83a470bc094c6eU,
  0x3bd69ce33c8ad977U, 0x3d21d6013d34bc01U, 0x3b2470413d9f89f9U, 0xbbdb2561bd602a39U,
  0xbcb0efad3c4288a2U, 0xbc1101a93d9d504cU, 0xbda128143da06079U, 0xba1873cabdb41ce6U,
  0x3c4ff4c4bdbfe3f0U, 0x3bf9a3a23cf4e133U, 0x3d849728bd6fa8a8U, 0xbd789d41bd9241a4U,
  0xbc696f89bdbd1003U, 0xbca24a273c3d4a2cU, 0xbda02b83bd34d7cbU, 0x3cfa8361bd132f79U,
  0x3df69a1e3ce57b89U, 0xbc666c14bd4131f5U, 0xbba0bb5a3e02b73eU, 0xbdc74dd93d9c2461U,
  0xbda0ac793d8bf84bU, 0xbcdc4c403df48411U, 0x3cf0876f3e06e673U, 0xbd84a1ffbddf1614U,
  0x3cf5c503bccdf78eU, 0x3869ec883d60d86bU, 0x3cbaff58bac31e43U, 0x3d28556fbc4896caU,
  0x3d0a4ae6bd9afe05U, 0xbc4c9ffcbd0a6517U, 0xbccfa1fd3d8cb192U, 0xbd85bb463bbd07fcU,
  0xbb099490bc3c4933U, 0x3c9f09da3d020266U, 0x3d79e7083d409304U, 0xbd373586bc976710U,
  0xbcd9215a3ad4a3ccU, 0x3d289cc13cc80cafU, 0x3c68a4bfbc93dca9U, 0x3b9f064cbc80868dU,
  0x3ccd5afcbd4bc21aU, 0x3d76a91ebd47e496U, 0xbcdcda61bca76ae4U, 0x3d4d47123ca444c9U,
  0xbd3ae8113c6506a9U, 0x3c4f07973c6f0269U, 0xbd1ae2f63bc2578bU, 0x3d2516c5bcd77e34U,
  0x3b56e58bbb26642bU, 0xbc1e16403cd7085fU, 0xbbd495e43d494fe9U, 0xbc95a3d0bcc499e7U,
  0xbc866dc4bce468dbU, 0xbc737d11bcf98098U, 0x3d1542733d323e90U, 0x3cebeae43bf600b5U,
  0x3d358ea3bd16d44aU, 0x3cc6331c3d3d3ed4U, 0xbcea1118bcda872bU, 0x3d5cf85dbc908d9aU,
  0x3ca14146bc8f1ed1U, 0xbd0cd5c23c6bd2a7U, 0xbd8578033c76d0a0U, 0xbd76e66b3bb88590U,
  0xbd22dac1bbf582ccU, 0xbd861387bb8c55adU, 0x3a71066dbd830068U, 0x3d2e69f63c9c0347U,
  0xbc37fd9cbc724130U, 0x3d5c5c01bd07717cU, 0xbc93282c3d01907cU, 0xbc8b41d6bd03bebeU,
  0xbca89449bc6566c4U, 0xbd317b993bce74c3U, 0x3d83d665bda6b755U, 0xbce1ae5f3cb56833U,
  0xbc814c22bd8d9338U, 0xbb86bf803cdd942cU, 0x3c031a65bc0c1e19U, 0xbdd1ad213b07dae1U,
  0x3cb065a83cd1c3aaU, 0xbbba82683cbfaf0bU, 0x3b80c21bbd726c2dU, 0xbc8a7ccfbd1c9933U,
  0x3d2a48afbd392ea9U, 0xbb92a8a7bc3293e9U, 0xbd0af6833c10535eU, 0x3d3e5bdf3d04201aU,
  0x3c1fb6a63d019a86U, 0xbc3008a4bd922200U, 0xbd87c61b3ca719ffU, 0x3bc5da983b0c5f80U,
  0xbc5bf79c3c0fa292U, 0xbd38005cbd0c75d9U, 0x3a12f9d8bd387b9cU, 0xbc777432bd140c86U,
  0x3d59a6b03d5ea64eU, 0xbd710f493d2ae92bU, 0x3cbfd15c3d8466d2U, 0x3cc0e84e3d525be3U,
  0xbce5ebba3c32e447U, 0x3cb8e167bc8a4197U, 0x3b7107c8bd173028U, 0x3c3295a2bd5aa290U,
  0x3c203b923cd477c7U, 0x3cb6e9143cc6c3a9U, 0x3d8aeac1bd905640U, 0xba0182d43c4f3bcbU,
  0xbd4981cfbd8d63f6U, 0xba2a4dd7bcfdc66dU, 0xbc8d2fc63cdacd36U, 0xbd02a946bce534a7U,
  0xbb073e053c31c340U, 0xbc7c08353b23b0adU, 0x3d1ca2bebcf23b91U, 0xbc54d02f3cc0763bU,
  0xbd7ecc3f3c76b966U, 0xbb8b5309bc9f0767U, 0xbcaaf5edbd5d7ce3U, 0x3c75d79b3c8a45a3U,
  0x3d2a3bc63c5b5b37U, 0xbcea57693d222545U, 0x3c460620bd81341bU, 0x3ce3c3823d3ed347U,
  0x3d706dd8bd2189b7U, 0x3c67a598bd5cad9aU, 0x3c86e7ae3c988166U, 0xbd9973cf3d736031U,
  0xbd53a6dd3d0935c0U, 0x3d6875cc3b68b946U, 0xbac97453bc891a0eU, 0xbd6c067dbd24c3a9U,
  0x3c39b0c9bd0952c9U, 0x3c8ddc19bca2f0deU, 0xbd68672c3d0f05a4U, 0xbd9ca48ebd6cc419U,
  0xbd00f6d73cad4c24U, 0x3d0b167d3ca1ac99U, 0xbd4c5049bcc22865U, 0x3da088b7bdb93143U,
  0x3bd88fa4bcb79e0dU, 0xbc435cfb3cb08420U, 0xbd8332893d05011dU, 0x3b0e3a0dbdafaac3U,
  0x3da3a6083c5610e8U, 0xbd2911463c85a7ddU, 0xbd044c2d3d94df68U, 0xbc5ce2d1bda9f463U,
  0xbc064dd83d4ede35U, 0x3cbdea663db0dc4cU, 0xbd45b6613d0b1965U, 0xbd8270a2bd6ebc5cU,
  0xbd3a7e00bc75f84bU, 0xbd2fa5443d79f7a5U, 0xbce9b231bd909704U, 0xbcb50764bd9d6776U,
  0xbd3fdc22bbf8afe1U, 0xbd26611abbb8295fU, 0x3c1b0e2abcfee54fU, 0xbd2f666dbc5a72e3U,
  0x3cac89243d42e837U, 0xbdab71abbb4b4f9aU, 0x3b4307693d0801d6U, 0x3d02056b3d5b8290U,
  0xbd0950ca3d19e681U, 0x3b26a2d03ca424c1U, 0x3a6826f5bc65e4d9U, 0xbd17144c3bc40d80U,
  0xbc7ecf62bd6ae50cU, 0xbd81fead3d80a32eU, 0x3ce23d83bd05979eU, 0xbb0389173d04b92dU,
  0xbcbed4a53c4a3010U, 0x3a85012bbd29ab95U, 0x3ca4c91e3d1764edU, 0x3aeaec633d6ef3f8U,
  0xbd3da6bcbc6eb79eU, 0x3d6b470e3c905af1U, 0xbd2478903d00edceU, 0x3d14437fbd7a2aaaU,
  0x3c8e9645bca1c31dU, 0xbd0942f83ce430c4U, 0xbd9021193ca732f0U, 0xbdae030fbd7be89bU,
  0xbd9f999abcabdb77U, 0xbd5036253d114fe2U, 0x3cf7ae763ca068f1U, 0xbb8f8b30bc6897aeU,
  0x3ba63a7e3cfc4588U, 0x3d5fd4cc3d24e32dU, 0xbd41b726bd8b366cU, 0xbbd33bd1bcb09673U,
  0x3dca974bbc16598dU, 0x3d3f675fbb38dd1aU, 0x3b31cb183d08d6b6U, 0xbc0c1390bd19b8d5U,
  0xbd2d06543dac7fcdU, 0x3d0cfa893da490fdU, 0xbda28fe43bdb8adeU, 0xbda023cc3c9d21c1U,
  0xbd1f77d4bd832119U, 0x3cb68aa9bd241f20U, 0x3d537711bd247b16U, 0xbd4ee28cbd21e59fU,
  0xbc17d4c6bc81cb51U, 0x3c0fe0f7bd2e502cU, 0xbc939cfbbd30aa93U, 0x3d4755353d5c09f7U,
  0xbc82f6223c181fcaU, 0xbb93dfb03d21d9c8U, 0x3d49487bbcc894e0U, 0x3d0a4e903c5ac8f3U,
  0xbd92f4563d112ce1U, 0xbb97ac30bc75b352U, 0xbd097379bc826e93U, 0xbd9a53f6bd55ecaaU,
  0xbd252141bceabedeU, 0xbc431c753ccb4bbeU, 0x3b9a7700bd297d3bU, 0xbcdf2a103c53e753U,
  0x3c3a9409bda96d47U, 0xbba5c3713d1c4c3dU, 0xbd8dfa793d3086a9U, 0xbd9748b93b105cffU,
  0x3c4540f5bd5f7459U, 0x3b1e5bafbd17bf38U, 0xbd5e388b3d21b6c7U, 0xbba7ceccbdc14757U,
  0x3c310c2bbc84c936U, 0x3d08189d3ca5fc27U, 0xbd2d9ea13b99aebeU, 0xbd2710d0bd8c055cU,
  0x3c13023ebd53b677U, 0x3d49b5543b1ae7a9U, 0xbd2f7bcabb44ce1fU, 0x3d8aadb0bd27f711U,
  0x3c3c99993d0b7931U, 0xbd596fb93d49d243U, 0x3b0e0621bd4e3a29U, 0x3d86669b3c436808U,
  0xbd24088ebd06da4eU, 0xbc7ee5293c120165U, 0xbcaddb3a3c5d6cb6U, 0x3d99390e3d2e5038U,
  0xbd3bb4e13d92e33dU, 0x3c8f1558bc33666cU, 0xbd042eb3bc7c864bU, 0xbe086c0cbd8da576U,
  0x3d01d8f43d18c494U, 0x3d0391a3bc2a7388U, 0x3d1138c0bd969810U, 0x3cedcc64bd52aa2dU,
  0xbcfbdbdfbc89227bU, 0xbcaaadc23c55cbe9U, 0xbe0aa3d0bc3fc5e5U, 0xbd8eaa0f3d064eb4U,
  0xbd41eb2e3d54939dU, 0x3c03c1983d10d516U, 0x3c8838b4bba28037U, 0xba99137abbb0a34bU,
  0xbd9f5a9b3d8f1d43U, 0x3d18a48c3d2635b7U, 0xbc07608abcae0335U, 0xbd97f1f8bd4c1844U,
  0x3c6ea443bd3e4ea6U, 0xbda11a6e3cf7e050U, 0x3d855f2cbbb1d958U, 0xbcb0b259bcedccc0U,
  0xbccb39bfbcd65a1cU, 0xbcbc9c6dbd082e0aU, 0xbd0b35e8ba6855c6U, 0x38af99483cd81f1eU,
  0xbd53d7df3cc975e6U, 0x3cb21398bbb8046bU, 0xbd7b53283d0f9e16U, 0x3c673f55bd5ce584U,
  0xbd751c5ebccc75c3U, 0x3d1c5c8e3d01e595U, 0xbdabf6d93d8482d2U, 0xbda91a0bbdd49022U,
  0xbd3586983d56a185U, 0x3d2ec16dbcdc4df0U, 0xbd019ce7bd9bb60fU, 0x3d9d9d66bdd1ea2bU,
  0x3bafc299bc736762U, 0xbd88bb213d56f6c5U, 0x3cc89a24bb767df2U, 0xbda11fc7bd062991U,
  0x3d0a918c3d390487U, 0xbd503c6e3c959e05U, 0x3c9d994c3d98d969U, 0x3d017a23bd0d7e90U,
  0xbd1b16fe3de7377eU, 0x3c857fc23d807d0fU, 0xbd8a789a3cb80bccU, 0xbdd097aa3d64a9f2U,
  0xbc97f9c53c887ad2U, 0xbd76e934bb68ca24U, 0x3d541907bdeb4883U, 0xbca9b9debd7f11cfU,
  0xbd6f1c0fbd19aef7U, 0xbc33d681bc239231U, 0xbd3b8448bd6f97e8U, 0xbac13ff93d44211dU,
  0xbc7c711bbd6c1269U, 0xbc00ffbabd549fd3U, 0x3c3bd4853d0caae8U, 0x3d9e0ed13d04f2f9U,
  0xbd6a6c773bf6ec72U, 0xbce4be89bd2cb1feU, 0xba238aa43ce9125fU, 0x3cd87378bc374f66U,
  0xbdde70c4bd0aa314U, 0xbdb9492c3d60d263U, 0x3d2045153c11787aU, 0xbd4717b2bd5199c3U,
  0xbd28fe4e3ccbb893U, 0x3d1b997fbdbbc18aU, 0x3d4296b2bb28f5dfU, 0xbd9c00b53d86a650U,
  0xbcf12e9dbbeda185U, 0x3ccea7c03ce1c5b6U, 0x3c54b229bd9fdb05U, 0xbdeec64f3dbfa66eU,
  0x3cbea6b23bf975d5U, 0x3c186b8ebd899f24U, 0x3da927b73d589f85U, 0x3d60fd4c3d9cd4c0U,
  0x3e0c010b3d7cfaadU, 0xbcfe8f283d8f8339U, 0x3d2d64b5bc408626U, 0x3df7463a3d5f7dc2U,
  0x3ce55239bde1f70cU, 0xbcf4ec89bda5306eU, 0x3dd745183d409a4cU, 0xbc8f2880bcd4bf8cU,
  0x3bf58a51bd33d10cU, 0x3cee28723cf0daf3U, 0x3d240bc3bda96af0U, 0xbda89863bc9d3784U,
  0xbd1b7dc6bb738eb0U, 0xbd7cb288bce67bdeU, 0x3d3da3153c81630aU, 0x3daa11db3daeb1d8U,
  0x3de89cc63ce3fd4dU, 0x3d01e977bcb7ae12U, 0xbd6c2e463bdfa125U, 0xbc9dca3b3d1ddccfU,
  0xbda6b741bd6c6524U, 0x3d21aa71bca821a7U, 0x3d6443bc3c7d1a5fU, 0x3d2894cebcdda025U,
  0xba582d5abd6a8e2bU, 0x3c6b330a3d0bc53eU, 0x3d1abe2c3da9c501U, 0xbde8e070bd3bf51aU,
  0xbd9e288dbd57c553U, 0x3c202c2c3c56178eU, 0x3ce5f89ebd6d56b4U, 0x3c5080e4bd296cbaU,
  0x3ca83528bc01196cU, 0x3cc4e1333d46bca9U, 0xbc8283143d46ef35U, 0xbd2bc6db3d909744U,
  0x3ba5873cbd17e0dcU, 0x3dd6aae43d9dd37bU, 0x3cf3093b3bfaa9c0U, 0x3d2173d1babfcbdcU,
  0xbd06c1403ca7cc2cU, 0x3d6fdf7fbd78d37cU, 0xbd84579ebd71630eU, 0xbdf78b703d24142cU,
  0xbcb836683cbf472dU, 0x3d6a2e53bdb4cde3U, 0x3d097b783ca18d6eU, 0x3d80023f3d266ce5U,
  0x3cb5ddbf3d7fb333U, 0x3dd46162bd288b27U, 0xbd3be9d4bd14df61U, 0x3cb9d983bbed7d3eU,
  0xbcabc77f3b977a38U, 0xbd819e8c3d98f44eU, 0x3d41a793baa5da71U, 0xbda4d850bcc89028U,
  0x3d74e9bebcc05b7bU, 0x3d77b6b0bd904b33U, 0x3d3ebdb93d3ad57aU, 0xbd2fbca5bd94042fU,
  0x3d976182bd843abfU, 0x3cd3e490bd7c6785U, 0x3c7669303b54bdf2U, 0x3d439101bcfa948dU,
  0x3d8f71cc3d04773fU, 0xbd1e3594bc97f81dU, 0x3d9c19233c865e11U, 0xbd9ce0593cbf3a39U,
  0xbd41f12a3cb488aaU, 0xbd959c5d3d3b6e3dU, 0xbd0b954fbd849b01U, 0xbad5b7e23b37b725U,
  0x3c81f9afbc462035U, 0xbcb612d03a7d674eU, 0xbcaf57733d865fddU, 0xbc83867cbcd78dc4U,
  0xbca51ec6bdb0ddaaU, 0x3d558a7ebd169b81U, 0xbd36bd6d3d72044cU, 0xbd62dd093dc6e3f2U,
  0x3d85d3533bf8ee50U, 0x3ca8c43ebd397ed8U, 0xbd2892e8bd0de7e7U, 0xbe08e725bd634d20U,
  0xbc9dc913bd0cbf00U, 0xbb1ed7b33d6f3da9U, 0x3c0540be3bf82aaeU, 0xbd8bfb85bc179c66U,
  0x3d1f2891bc6fce41U, 0x3d3710f53c9a2f17U, 0xbc98d0f5bd470dd7U, 0x3d2c5c13bd24f47dU,
  0x3cc4379abbb52e74U, 0xbb491b623c9ddf6bU, 0x3db731c1bd3aaf33U, 0xbc1f4ae23bfc3112U,
  0xbb9c69d9bdce40dfU, 0x3d1f9d793c0eaea3U, 0xbd1615083d2ad28dU, 0xbd754baabd81ac34U,
  0xbc0565a83d0d3f01U, 0xbda24c893c47d0bbU, 0x3d0a7d81bceab7eeU, 0x3c1b951a3c8b391fU,
  0xb915b9c8bcacdd94U, 0xbcd4f1c0bd4e600bU, 0xbdf8d8203d70c089U, 0xbbc4d909bc6dd074U,
  0x3ccac2133ca3d570U, 0x3d970bffbd103bd4U, 0x3df5c1123d4667f1U, 0xbb70515cbd2dc202U,
  0xbc9961133cee968aU, 0x3db532873d16a26bU, 0xbc323d7c3c2b48e5U, 0xbcf4e466bde2b2e8U,
  0x3c67c9febd891694U, 0xbdcc61a03daa972fU, 0xbcad42fcbd787b3aU, 0x3b1e0b7fbd826fc3U,
  0x3d03dbe13c3e9f12U, 0x3d329624bd56c501U, 0xbdc92be5bd55d4faU, 0x3c3c1634bca60dfeU,
  0x3db6b5053d77c1eeU, 0x3d6d13a33d711ec3U, 0x3dd014123d650262U, 0x3d1e15193d41756cU,
  0x3d5ca3343ba83ae4U, 0x3db486663c30b629U, 0xbd878061bc28df59U, 0xbda40d40be0a72e8U,
  0x3dc77e113d0e6abdU, 0xbe048c963cf334ddU, 0xbd561df5be07fefaU, 0x3d0a6f83bdb0fdecU,
  0xbd5f3fbe3d333e7eU, 0xbdf034d8bcca2050U, 0x3c9a6960bd2da215U, 0xbc9c5412bc642c33U,
  0xbd2033233d8d3898U, 0x3d0608cf3d2f260dU, 0xbc5f449bbdc48dd0U, 0x3cd7814abc52fcd6U,
  0x3d731489bd274cc4U, 0x3cd596223d31888fU, 0xbcc0479bbe08002dU, 0x3caf8b6e3ca20e84U,
  0xbd61d08dbd0e70f2U, 0x3c805d1c3d1f425fU, 0xbd895e90bd3e987aU, 0xbdd92dee3cbce97bU,
  0xbc0b8c7abc83f05eU, 0x3deea0d13cceed09U, 0xbd25b784bda614fdU, 0xbd2fbc16bc5604b9U,
  0x3c30d6723c2a897bU, 0xbd9b5bbcbd4e9d42U, 0x3d1f01c1bca34221U, 0x3b4ba96a3d88218bU,
  0xbd388baabd1cafe3U, 0x3d35e2823d44e39cU, 0x3d6b1f303d3950f7U, 0xbc5bf60bbd351b51U,
  0x3cead4d0bd169f4fU, 0xbb8313453ceded7dU, 0xbde3437fbd02fdbeU, 0x3d10b520bcc9b9d9U,
  0xbd0daf4ebd49d786U, 0x3d0742eb3d8bc786U, 0xbe113e573cc384f9U, 0x3d129eddbd5fa35dU,
  0x3ceab6793d004f4bU, 0xbdd675693b296c16U, 0xbcc3a2e0bd1755fcU, 0x3d57f0583c2af222U,
  0xbc85c2463ca4455aU, 0x3d4b226f3d0368a6U, 0xbc93994a3a95dcfcU, 0x3da3b3923cc50a38U,
  0x3cabd9e8bc879d33U, 0xbcc69cf7bca748d8U, 0x3d0511d5bdb2633fU, 0xbd46d1fe3d55d513U,
  0xbcfdc30bbca9a577U, 0xbdd8ed913a533fb6U, 0xbc231f383d32a2e5U, 0xbd688102bcd486b8U,
  0x3d6f72e7bb941582U, 0x3cdee51c3dc0cbc7U, 0xbd127f563ce12eafU, 0x3d18fef9bd4da5dcU,
  0x3d6b7bc53dcab257U, 0x3ccab6ea3dba3adbU, 0xbdd4c2a7bda09857U, 0x3ce49a67bdad1aa8U,
  0xbd006cc3be0ab3b1U, 0xbdb3702cbd78fabbU, 0xbd03023e3c9107bbU, 0xbda76625bdee6374U,
  0xbdaee6c13d4816b5U, 0xbc867c8abd6e22b3U, 0xbcb7bdd9bd5ac0f0U, 0x3cfa3abcbdb59e4aU,
  0x3da739903d7f9063U, 0xbd3540f83cc6d790U, 0xbd04fd4abdd99156U, 0xbdb12f0bbccf7161U,
  0xbcc76d4aba018784U, 0xbc8002193d4493a0U, 0x3ca129d13d22f3a7U, 0xbd500436bdd6c07aU,
  0xba512c21bdf72683U, 0xbde1a84abd68176dU, 0xbd8c8e953c1b42bcU, 0xbda8efc83c4f64c8U,
  0xbca024ad3d0bbe68U, 0x3d32838e3e0d6eccU, 0xbc94a0eebc17e233U, 0xbd2b20b6bdc889f5U,
  0x3cec898f3bac110cU, 0xbc4e8cde3d065e53U, 0xbc0f78dbbd2e1f9bU, 0xbd4d71c1bda971a4U,
  0x3d891fb03d8d026bU, 0x3d7992e73ce7ffc1U, 0x3d02eb46bdd8e698U, 0x3db1fa24bd3d5532U,
  0xbdc64f99bcbf2e16U, 0xbe02a4993d4ee671U, 0x3d0e450ebdc4b48bU, 0x3c6606e63d27d951U,
  0xbd502bf73c8a64c4U, 0xbdf5188cbdb92558U, 0xbd3a71c1bd9f067bU, 0x3cb19e6cbc67ecc1U,
  0x3d6c6ea03da1fd4fU, 0xbd032f8a3d303170U, 0xbd88a9163b16e1cfU, 0xbd6ded943c0cd20dU,
  0x3be55d0dbcc52f2bU, 0xbce5f686bd0cc520U, 0x3d363de7bd3ae627U, 0xbb611be1bbf00442U,
  0x3da67effbd76a5f8U, 0xbbc5b14bbca52645U, 0x3c580a1bbd9a6df3U, 0x3bfab0a7bcc2ac96U,
  0xbdbf2097bc371615U, 0xbdd76f5ebd13133fU, 0xbdbeb43cbc327195U, 0x3cb7951f3d00cf6cU,
  0xbd85a5f0bca22b7aU, 0xbd2b1d0fbd6f4450U, 0xbdb0b894bd730fb0U, 0x3c1f1d0b3c6c353eU,
  0x3d2e473f3d09e4aeU, 0xbd313f42bca9f1aeU, 0xbd100be7bcea1740U, 0xbd9ba64f3c9a8dfcU,
  0xbd89f0c4bb5e5af0U, 0x3c8612703cd28c65U, 0xbd56860cbc5314f4U, 0x3d51627a3d72026fU,
  0xbd54d536bd3aa0cbU, 0xbd34925b3d5278ecU, 0xbc3e168bbd22a486U, 0xbd01cfd5b8b2e3e0U,
  0xbda54f00bd6c8016U, 0x3d5da4ddbd5c8552U, 0xbd21d9a43d230749U, 0x3d1042c3bd3ee372U,
  0x3d866d0f3cb658c2U, 0x3c4c9b1b3a6b19f3U, 0xbc83f085bd90f5e4U, 0x3d159a2bbd807f21U,
  0x3ccb0e8f3bc50409U, 0xbd7bdd6aba461c49U, 0x3d385283bd26db19U, 0xbd0004603bafbbd7U,
  0xbd5c9171bdaa94d9U, 0xbd4145023b790d34U, 0xbd9871e3bc134382U, 0x3c9cf3bbbd6edaf8U,
  0x3cbe0cb9bc5e8b64U, 0x3cf9052dbdff10d8U, 0x3d3311803d592801U, 0x3d35fdbdbd12bb7fU,
  0x3db3ef243d0b7873U, 0x3dcf60ca3c500a13U, 0xb999a442bd5e5814U, 0x3c9f2f413c578e00U,
  0x3d4bde77bd26c4abU, 0x3d592031bd610117U, 0xbda582f33d2e1a7dU, 0xbb8b7be6bd35ae44U,
  0xbda1866fbd8fe2f2U, 0xbd8618a0bcc41557U, 0xbdaf0ae7bd835e13U, 0x3d8338173c73daf5U,
  0x3d4c5e7bbc8bf3a2U, 0xbd85989cbdaa8fb7U, 0xbc1a35de3d6d5179U, 0xbd0a95aebd9a767fU,
  0x3c2c40c13d074a43U, 0x3cbaaff3be019d2bU, 0xbd8475383cbef8a2U, 0x3cc413583d5a9a31U,
  0x3ca8e559bd0135afU, 0x394e8237bd7e4bbcU, 0x3d2ac7f13d31bfffU, 0xbd2167923cd51c35U,
  0xbd60f7f5bcbd7e31U, 0xbbcb0b82bd6ff47eU, 0x3d5c2183bc701fb7U, 0xbd0433043dc6fec3U,
  0xbcbcf791bc8bcd67U, 0x3d69fb6d3d120139U, 0xbd486d6a3d840ff8U, 0xbdca767e3c5b1d69U,
  0xbc283a72bd3d2193U, 0xbe031f3cbc3a1fb1U, 0xbe4c682e3d8a3ffdU, 0xbdddb5bfbd936f7fU,
  0xba3391ccbb7ec555U, 0x3c6848533d22e518U, 0xbda8c7853c18d563U, 0x3a7963bebc9acd23U,
  0x3d9d7268bbf20165U, 0xbd5489d23de58f4eU, 0x3cff08843cbadbf6U, 0xbc7adbbfbc2f284bU,
  0xbd93edaebd8bcd27U, 0xbd2f06f23c61a60cU, 0xbc2fbde5bd4f2fa4U, 0xbd84a01a3d2276c2U,
  0x3def7e533cf3daf3U, 0x3d1047ce3d73b855U, 0x3cbd15dabe150984U, 0x3dad9ca63d640d40U,
  0x3cb330f13cb38b9cU, 0xbc68fb02bd7f4c8fU, 0xbb02a206bd56cca0U, 0xbdbc13893d9e7eb8U,
  0xbc90ae42bc78b0b1U, 0xbd9f66b1bd28f073U, 0x3cb919163ba7ec50U, 0xbd99264abd17c974U,
  0xbdd2befebcc9ae79U, 0xbbf6a5f8bd83da8fU, 0x3c753967bd226137U, 0xbc12bef83dbf2ba3U,
  0xbd50a48e3ca47defU, 0xbdfc2df4bcc60a48U, 0xbd1d4b0a3d1ebc59U, 0x3d2c91cabc8db950U,
  0x3ab3e5213db08ec0U, 0x3cf3d2463ca89b55U, 0xbd9713743dc28b59U, 0xbbf0134cbd816914U,
  0x3cbc23b7bd2da10eU, 0x3d6fedb0bd545124U, 0x3d186368bd40da6cU, 0xbd6a793b3d5c7c21U,
  0x3d315ddebd65b25eU, 0xbc5a5794bd33d907U, 0xbe054f6fbc8bdbfbU, 0xbd321d1e3d416f16U,
  0xbc095860bd1a25d8U, 0xbdfd1ef1bd822791U, 0x3a50c3ab3e3c4d86U, 0xbd71905fbd3608fbU,
  0x3d2dba51be017241U, 0x3db022e53d4abb0fU, 0xbd2821623d223d82U, 0x3dfe0f1abe15da81U,
  0x3d46d0b33d937f60U, 0xbb4c214abcb77d60U, 0xbc64478b3d674ca0U, 0x3dd513c23cdc55b9U,
  0x3d2e789d3de50be8U, 0xbc35abd43da48cd3U, 0xbd84954abb8be561U, 0xbdb87cecbd66f328U,
  0xbcc4edf0bcc8706eU, 0xbcaa84933c9b62e8U, 0x3e0272dfbdb1b705U, 0x3d12c47c3c0bb4e7U,
  0xbcc0f46bb883d172U, 0xbc6824f23caa42a5U, 0xbd12cab43a908c12U, 0xbd838c943d930293U,
  0xbd732ff1bd88dcd5U, 0x3cfa0fabbcb19bb9U, 0x3cc6e154bd0eb2c0U, 0x3d9f563bbd49d189U,
  0x3c5027fe3cc3478bU, 0xbc686754bdcd4d70U, 0xbb9f7b613d809914U, 0xbcd2f1743e02844dU,
  0xbc4d78e73d1ac85eU, 0xbce55ad63d56bd22U, 0xbd416ee63d01ed38U, 0xbbef1b11bd5b162dU,
  0x3cbbf924bd5333dcU, 0x3d39fba0bd2fd5b3U, 0xbda03b7abc4c4ed9U, 0x3c233a70bdd7b7f2U,
  0x3d9260c73c067ea9U, 0x3c044f7dbd2c4a69U, 0xbcf7bf5cbd6cef5cU, 0x3c81599bbcbe7cf0U,
  0x3a073d19bdb6bcefU, 0xbda4ec5abdec0dd8U, 0xbdb5bc9dbdb96c43U, 0xbd9e190d3cbd2338U,
  0xbce074f7bd2c1dc2U, 0xbd35fb7fbd857f86U, 0xbd503ac93d1868e3U, 0xbd76e92ebcbefa01U,
  0xbd9620b6bd44723fU, 0xbd5920573d6799e4U, 0xbd2882a8bcea8bafU, 0x3dc6bb06bd1b8527U,
  0xbda795a7bc0966b4U, 0x3daaa454bc9e7834U, 0x3db0aa2ebc978821U, 0xbd24ad0c3c1c5a9cU,
  0xbcab66f2bc973449U, 0xbd6b12603d285d09U, 0xbd768d1abd7e8eceU, 0xbd800bc33d877a62U,
  0x3d15332d3d21a7ffU, 0xbdcace18bb2a8414U, 0x3d3c02ac3dff9cd2U, 0x3be20c9a3d4fa254U,
  0xbe03a975bdbcc001U, 0x3c6ee4f6bd3248c8U, 0x3d80e7213d0d697fU, 0x3c3e4e853d93993bU,
  0xbdfd09febd8cde9aU, 0xbda337d13dae4b5dU, 0xbced7268bd818a5fU, 0x3e1af7ddbd3eb7d7U,
  0xbd6ab4673df1e7e2U, 0x3cfb7d643da3047bU, 0xbdd357fcbd1198f8U, 0xbe015a4f3de6775eU,
  0x3d70488b3c117facU, 0x3da38da73c25a624U, 0x3d78bca7bd86d97bU, 0x3aaec56a3e08f231U,
  0x3d5902a9bbbe7d71U, 0x3e13c0acbcf584d2U, 0x3d21b581bb3c0b2cU, 0x3b945dbf3d34ab11U,
  0xbd7a07c73d7c8c79U, 0xbc39f27abd7f6c03U, 0xbe1196f3bd7250c6U, 0x3e1cf178bd4517a9U,
  0xbd1191833d79a6b7U, 0xbd8031033cc6d123U, 0xbdacee51bb3cdfa1U, 0x3c378d39bdab5a09U,
  0x3df1966a3cede42eU, 0x3c02e3733daa06e4U, 0x3cb78f2abdb6c99aU, 0x3cbf37163db21f27U,
  0xbccf4d253de00570U, 0x3cdabf2abdcfaaa1U, 0x3d81ec33bd364dc9U, 0xbd2f9bfabcc6c77bU,
  0xbdb4edd0bd650756U, 0xbd0ba63b3ad359cbU, 0x3dcc8352be1480abU, 0xbd94e15cbcd93068U,
  0x3d091a8c3cbf49f3U, 0xbca0c6023c945d15U, 0x3d2d15d83c226eaeU, 0x3de839ed3d9af304U,
  0x3cf67d683d1fb790U, 0x3d2129f83d4d69eeU, 0x3d6749febdc3a29eU, 0x3d3c059b3de93388U,
  0xbd94cd36bcefc188U, 0x3c806a133d8c668aU, 0x3df2ad9f3dd9c7cdU, 0xbd9e87573d4d4b9bU,
  0xbe4f900ebd4989a9U, 0xbdbe16913d626529U, 0x3bef897abdde1419U, 0xbca087dabd066707U,
  0x3d9e267e3d16a4a8U, 0xbd3f673f3d76cea7U, 0x3db8034fbd0dbe73U, 0x3d8509503dd9753fU,
  0x3d914b05bd9b1a0dU, 0x3c5d2fbf3d9c58faU, 0xbdf14bbabdd01ad5U, 0xbd841f8f3d784512U,
  0x3cf983113dceef32U, 0xbb47192a3d93476fU, 0x3dbfc6a2bd9cf0cfU, 0xbd0b6c82bd48eff3U,
  0xbd244fc8bc4417a5U, 0xbd13b1a33d6ae8b8U, 0xbded37d8bd3f54deU, 0xbab94f71bd18bd80U,
  0xbc4d545ebcf0ee66U, 0x3ca6ebc23da9901cU, 0x3c9bef7b3da6411dU, 0x3dda63e23df39ebeU,
  0x3d738558bd17bccfU, 0xbc23d2a13df987a3U, 0x3d044a30be1c6210U, 0xbd947c34bdcf2121U,
  0x3d3d60533dbc764bU, 0xbdb241f83d9abbcfU, 0x3d553d4ebcde8ee7U, 0xbdf0a168bc8cebd3U,
  0xbd9487a33da6b1eaU, 0xbddda16f3d2430c2U, 0xbcff41143c6fcdccU, 0xbe0be794bd12bffaU,
  0xbcd88ccbbd225deaU, 0x3de0f9dfbdc4a58dU, 0x3d8b6a003a6c85d2U, 0x3d828f19bd8db730U,
  0x3dd3fde53c26b472U, 0x3d0558f83d4cf2b2U, 0x3d02962abe063f3bU, 0xbd875b1abdc918e5U,
  0xbe0c2647bd611c09U, 0xbde861d0bd0df8d9U, 0x3dc3a1a23d82d68aU, 0xbda3dd96bd4c7394U,
  0xbc8630183d8bf343U, 0xbc50c6e93cc6401dU, 0x3c8514c4bdf71efcU, 0xbe15c4563c2b4b8cU,
  0x3da85ba2bdf1bfbeU, 0x3cb59fe9bdba221eU, 0x3daceeedbd9b67f0U, 0xbcbaa1e33d8aa849U,
  0xbde29727bd968158U, 0xbda8db8f3d503a8fU, 0x3c7c530d3d06dbb3U, 0xbd80c058bc690a84U,
  0xbd40f993bc0db114U, 0xbd9804493ac9144aU, 0x3c7a314dbd942e20U, 0xbd46616dbd9cbfd9U,
  0x3ce6f5963d49eb6dU, 0xbd8054683d1c701bU, 0xbb7197a83d4fe3ebU, 0x3da02bdbbd9a752eU,
  0xbc8445943d85d844U, 0xbd268766bd6cfb7dU, 0xbd80e678bd2a4f7cU, 0xbc139fe4bd34b80bU,
  0xbe181d713c1dec1fU, 0x3ddbcbb33bc3cc0bU, 0xbce3b80e3d4b737cU, 0xbdcb12e8bde40303U,
  0xbdd5689d3d10c83eU, 0x3d65614ebc7af4cfU, 0xbc2b1673bd79830eU, 0x3c46062c3b057b0bU,
  0x3c88080f3d827cdbU, 0xbd60df233d35f332U, 0xbd7648f73d2ba5b4U, 0xbc8ba6bb3cd3675eU,
  0x3d4da2ccbc8c974bU, 0x3b9227a2bc23beffU, 0x3c49ed09bc13593dU, 0x3cea8cd7bb82964fU,
  0x39588a38bc9981bfU, 0x3d11d4e43cf64434U, 0x3d1678df3d5b0dadU, 0xbd842ecf3d5463f4U,
  0xbcbe5d3ebd2ad97eU, 0x3c55a19d3adec362U, 0x39d84b5bbcd61caaU, 0x3d3eec1c3c076469U,
  0x3cb5c3bd3ceb8dc5U, 0x3b85a4013b16ee0aU, 0xbd0de7a43d159facU, 0x3cca68333c546a09U,
  0xbc5d5bcc3d356e6aU, 0x3d0dff7e3d61539cU, 0x3cea27ac3cda99a2U, 0x3d2045cf3b8ec7f7U,
  0x3bd6eb993c086670U, 0xbd2f5b8b3cb4a0a9U, 0xbcaa37643d02201fU, 0xbcf404e7bc8eb4afU,
  0xbcb4a9abb9cb8263U, 0x3d028b423d2bc57aU, 0xbd6bec5ebd52c58cU, 0x3ae673493cdac498U,
  0x3aa38e4d3d22517dU, 0xbce7f829ba826b30U, 0xbc8eed6abd35bdc7U, 0xbceaa08e3c65477cU,
  0x3d7a7e36bda8c874U, 0x3d52cafe38ac80a6U, 0x3b38d87cbab9cb0fU, 0xba936cb7bbdf9316U,
  0x3af539813c3bdcaeU, 0xbb721c05bd42d0deU, 0x3b887ea33ca369a3U, 0xbc5443833d112605U,
  0xbc848bafbd14e98fU, 0x3c7e0e943cd576efU, 0xbc05a1c8bcb6df66U, 0x3d4ee04bbbc95cf8U,
  0x3c90b8ed3d1bbfefU, 0xbd65a4733ce0d6ccU, 0x3ce479d33d4ef26fU, 0x3d497df0bd94ebabU,
  0x3b99daa1bc65f6adU, 0x3d8afae83c87bfebU, 0xbbc5268dbc6d03ccU, 0xbd46d2193c2da598U,
  0xbd01886f3c869445U, 0x3c2e7a0f3c5ad717U, 0xbd1c53233d1c8fc1U, 0x3cfb05a5bc1b7352U,
  0xbd67a912bbfbc507U, 0x3d32bf853cc1d844U, 0xbd23992dbcb497ecU, 0x3ce1d76f3d05c76cU,
  0xbc9d3a753c0aac02U, 0x3cac9ac63ce713e0U, 0xbc7cc8453d3a7173U, 0xbc0477d53c5f4996U,
  0xbc63a2da3bda9169U, 0x3d52734d3c9f90adU, 0x3be317ba3c8846dcU, 0x3d442be43c093b59U,
  0xbd089d6ebd531e21U, 0xbbadc03d3c2f6bf8U, 0xba0c71223d83b036U, 0xbd20a19c3a40d48cU,
  0x3d6e5fe53b45937aU, 0x3d0acdc1bc7abde7U, 0x3c39a2c3bd9d725cU, 0x3d4b1ca33c812c67U,
  0x3d563ababcb9404eU, 0xbccab4ddbd0363a1U, 0x3d4402bc3d052cebU, 0xbc73c661bc83de9bU,
  0x3d1b6f73bd005704U, 0xbbe834e5bd020e88U, 0xbd363e75bd712e2eU, 0xbcec2a2e3d1f8ebeU,
  0xbbef583f3c702675U, 0xbd0739ac3cdeee14U, 0xbd32cb1f3d206646U, 0x3d035e79bce3aba0U,
  0xbc111e243c090b2dU, 0x3ccc699fbb18e71bU, 0xbc19bcf4bcb9a219U, 0xbc21ae3d3cb36856U,
  0xbccf89f6bbba8f42U, 0x3cdefce0bce0ed2cU, 0x3d2bcde23d06c842U, 0x3d78ecd0bc318747U,
  0x3c7cb55e3c3d321dU, 0x3c27c0a03c951d8aU, 0x3ce4c28abca2f344U, 0x3d3e26a7bc1bfc1bU,
  0xbd988f13bcfaf4a5U, 0xbd0a4a6dbd67284cU, 0xbd097d293cb6b71eU, 0xbc9993a33c52c8a3U,
  0x3d45cdf83d4cd7b4U, 0x3c8f29483c5b23daU, 0x3aedec3ebd1a8c14U, 0x3c9f66a53d3485eaU,
  0x3c37495abc856a2eU, 0x3b9583dc3c0224a4U, 0x3d1775fabd1ea0c4U, 0xbd0ad1c13d0a2ebbU,
  0x3d104e903d2caa7eU, 0x3d003ae33d8a25e0U, 0x3c1616f0bbf71a3aU, 0xbcee267b3d2178daU,
  0xbd8a3339bd3d0616U, 0xbc5e18e53ca31320U, 0xbc0465a73bff833cU, 0xbca065a13c32a944U,
  0x3d2bc7f13ceb20ccU, 0x3d3ebb043c5705e4U, 0xbb412bb6bdabb386U, 0x3d25e0eabbb8299eU,
  0x3d81a2143d3aaae0U, 0x3d7f2f88bc9502dfU, 0xbceee5863d68906fU, 0xbb5fdb1b3b58959bU,
  0xba98fab73c825addU, 0xbc845fc13d684776U, 0xbc9c31f139146245U, 0xbd728f43bcaabb84U,
  0x3d24e8093c71e9ecU, 0xbcbacb94bcee1e19U, 0x3d65c1aa3c0d9326U, 0x3db328803c6288baU,
  0x3c7bf5b1bcaf0f54U, 0xbcdba82a3c63126cU, 0xbd62be8abd5baf5dU, 0x3d0ac365bbdce756U,
  0xbd7f760a3d891521U, 0x3d2e964e3dd3db47U, 0xbda840b13dde4672U, 0xbd4962873d743ecbU,
  0x3c4172c4bd87c2d2U, 0xbd0d58b33d4abb0eU, 0xbba80b62bdb549eaU, 0xbd8711f73df8a6ebU,
  0x3da10a333c9bc2edU, 0xbd537ce6bd4c7c14U, 0xbd3b1c373cc7f9c3U, 0xbcd85193bd416810U,
  0xbe0ca27ebe19e16bU, 0xbd8fd52cbbb55c1eU, 0x3ce7f19cbd02af83U, 0xbc9aef6cbdfb415aU,
  0x3e192de4bd814a84U, 0x3d891d223c7c7cc7U, 0xbb0c1dfb3d204279U, 0xbc8a5a93bddd526dU,
  0xbda602043db3c2dfU, 0x3d05ea5b3c89e041U, 0xbde3a5b13d35bfd4U, 0xbd7896423d250b9eU,
  0xbd6b73e9bb80df6cU, 0xbd0c9cd0bdf29dd6U, 0x3e0957083d2f42dcU, 0xbe2244d1bd934f21U,
  0xbd94bdc5be3888a7U, 0xbd86922a3cab6d44U, 0xbdcea2d3bd760818U, 0x3dbf5d79bcd21c0fU,
  0xbb753314bd337fcfU, 0x3d0991d8bd8ac20aU, 0xbbc29dc93e047e64U, 0x3d8849ef3db06b7cU,
  0xbc802d6ebd23ff41U, 0x3b978bf3bb39a9b9U, 0xbd41a316bd957953U, 0xbe304abc3dd97a57U,
  0xbdafb2a6bddba281U, 0x3cf7feb7bdfca563U, 0xbd9086563d807d51U, 0xbdaad6bebdfd46a7U,
  0x3c9870d6bc711a79U, 0xbd35d9823df14a58U, 0xbe19152ebded6634U, 0x3d35e6c63d918ca1U,
  0xbd03aaaabd84c602U, 0x3df25d8ebd619595U, 0xbd1a49483d597d8aU, 0x3e0d2ac93d4545eeU,
  0xbc84cb67bcfcaa82U, 0x3c2b7de6bd277338U, 0x3db2ed46bc24082cU, 0x3d518b413caa9067U,
  0xbd74d288bd95cb69U, 0x3daf151fbc1fb0a5U, 0x3e23dca4bd96a295U, 0x3d0b243ebdbe42e4U,
  0x3d98eb44bde9756cU, 0xbc5518cdbd63044fU, 0xbe4a16bbbdb0a440U, 0x3cf9cb113d549002U,
  0x3d2351c9bd00e0fcU, 0x3d6ab9ea3d407aceU, 0xbe0fb5cd3e270205U, 0x3e1e8f09be3fc976U,
  0xbd4dae7d3d7da470U, 0xbc6726c7bd67d7e4U, 0xbc702927bbe8ca65U, 0xbd96c43dbd983870U,
  0xbbce549a3c87c17aU, 0x3d6b5555bd059f4cU, 0x3d3a94b8bd9d8ce8U, 0xbe0b0219be317981U,
  0xbcb10d21bcb09b6dU, 0x3c091d473d9642c7U, 0xbd3aaf7abe286fa7U, 0x3d3aea3fbd1fe9c5U,
  0x3c0edb313d75af76U, 0x3d283b3ebcf5e072U, 0x3b3c10a33ddbb602U, 0xbaec294fbd4bbd33U,
  0xbd182ec1bdcbf369U, 0xbbc0a6783d186c2dU, 0xbdae165e3d252dd3U, 0xbbb565edbe08b165U,
  0xbd0447a43d816447U, 0xbd474d4cbe1a4914U, 0xbe03e6053d21d5baU, 0x3d13aecdbdc2e42fU,
  0xbd9459993c84366aU, 0xbdcbf27e3dce6ebfU, 0xbdafe67abd6f71beU, 0x3dc35d51bbf9a418U,
  0x3b1f1b70bce3d655U, 0x3d9e70efbb060d28U, 0x3bfb75ef3de32b61U, 0x3e8c468dbe1f3d7fU,
  0x3ba907b0bcf0569fU, 0x3cd91602bd63a353U, 0xbd94711fbe83a324U, 0xbd487e07bd6a1241U,
  0x3c7d4d323d035d0bU, 0x3df20c7ebd57655eU, 0x3dd7bd60bd8832dcU, 0xbdc6750cbdb9a318U,
  0xbd9b545e3e310c49U, 0x3ca30dbebd957a64U, 0xbdbaf0a3bde8f001U, 0xbd84abda3d21798aU,
  0xbd5ffc57bdb41153U, 0x3d68a3cdbcd6ca71U, 0xbde2d727bda29ea8U, 0x3d52974bbdd71f19U,
  0xbcaa7d003ba60fd9U, 0xbd2215c13dc92a60U, 0xbdbc782a3d014448U, 0xbcbafedebdc36e57U,
  0xbdd8a6a43d53a692U, 0x3dcbdfecbd769b4aU, 0xbd99e601bd6ef235U, 0x3e203683bd89847bU,
  0x3c9130c63de94913U, 0xbd676a9b3d7698e6U, 0x3d2bcff5be2fba14U, 0x3c4890483da15d58U,
  0x3e0126573dbb3a7dU, 0xbd17f6b03dd876baU, 0xbcb80bfe3da90082U, 0x3b47fb68bd5b8b9fU,
  0xbdbba2e4bd528ebfU, 0xbc2092a3bdd34c42U, 0xbd223638bcb347c6U, 0xbce96679be0f58feU,
  0xbdb6ec363d584ff7U, 0x3d8f1294bdbfd19fU, 0x3db2dd36bd07084dU, 0x3da333b53d189e99U,
  0xbd19edd73d3e49e9U, 0xbc633f813c6f4cefU, 0xbd0d7c2e3d8a8489U, 0xbdcdf6623c83d67cU,
  0x3d13492ebd1895cfU, 0x3d18c2fb3b27d058U, 0x3ddde330bc8e3100U, 0xbc8c1aa93e02d7a9U,
  0x3d6c1b47bc90131dU, 0xbbce5d3abcde0beaU, 0x3c9bf61cbd4b04d6U, 0x3d627cbabcd04744U,
  0x3ce622a53d4f9722U, 0xbdcc9d303cc972f8U, 0xbd73a7723df02f04U, 0x3c7f4d643c98c080U,
  0xbd54c5b2bcc113efU, 0x3d5d110abad5d2d3U, 0x3c310178bce67ae8U, 0x3da00cc63d77efd9U,
  0x3d1b939b3d11dc24U, 0xbd8b61783bfe6090U, 0x3c05dcf1bd02392dU, 0xbc99e7553bfe18d8U,
  0xbc8426823c303947U, 0x3d6e21c83ce62d66U, 0x3cac6ff9bda3fd7aU, 0x3bf37a5c3dae41bbU,
  0x3d9ed68e3b90fdeeU, 0xbd6306c4bc0709d4U, 0xbc42a81fbcb07a76U, 0x3da3c2143db535b8U,
  0x3c9da06ebd85de05U, 0x3b0faf88bc6ce1e3U, 0x3dc9052b3d8bd0b0U, 0xbafa83993cad7b63U,
  0xbc318f533ccc46eaU, 0xbd2bf05bbc8e71f9U, 0xbd8a82e93c248df7U, 0x3de7b1f4bcb950d5U,
  0xbd822ab43d36f57bU, 0x3c50d9083db1197aU, 0xbc6ea3d4bb7c89aeU, 0x3dd49a463d600473U,
  0x3ca0c2313bed8b83U, 0xbc16edf2bbc2ec96U, 0x3c4e7887bbc27441U, 0x3dad40113d25d52fU,
  0x3b59c5553db37886U, 0x3d45ff5cbd4370eeU, 0x3d67eeebbcd32ac9U, 0x3d51616cbbbe7bc0U,
  0xbd0aaa9dbde2a9f6U, 0x39ecf09a3c8f4250U, 0x3c192f75bd60ebe7U, 0xbd1b04443c57f99aU,
  0xbda57951bde4cbd3U, 0xbd349c24bdac79eeU, 0x3d751afa3d102376U, 0x3db9e203bbaaeea9U,
  0x3ce98b3f3d9fa179U, 0xbd74122ebba98b7eU, 0x3ca8bbe43d95e94cU, 0x3c416b3e3dbbd7ebU,
  0x3906d3863d094bffU, 0x3a8baf92bc45235bU, 0xbc6d367c3c708635U, 0xbc641c243c95788fU,
  0xbb692326bd5e3c25U, 0x3d4a2bb33d2f866eU, 0xbd72ea5cbd2c3dc7U, 0x3d828383bc3fc716U,
  0x3ced32a8bd51d29cU, 0x3cc0ee8dbccccdfbU, 0x3acf4838bd19fb8cU, 0x3c61fbdb3db8b338U,
  0x3d8196063d25bffbU, 0xbd33b427bd516832U, 0x3dba04023dad2fb6U, 0x3d4312573ce09cccU,
  0x3dc895103cc170e6U, 0xbc07e2d73cc26433U, 0xbcd532753d834339U, 0xbd54b69e3d378c96U,
  0xbd836450bdc90b8aU, 0xbd044cfcbc035282U, 0x3cc72374bd1c9d2aU, 0xbada66c83c8d8f75U,
  0xbce3faacbd831f8aU, 0xbdc39259bd30d64dU, 0x3d4f26e33d28319dU, 0xbbb8a4423c437994U,
  0x3d352ea63d14bb6bU, 0x3d3e920bbd02d31cU, 0x3d042985bd99caedU, 0x3cd1267f3d30adb5U,
  0x3da9822ebcf9dd10U, 0x3d8ecae2bdca16d6U, 0xbdaec52b3d5950f7U, 0x3bc60d2abce0e086U,
  0xbd50e142bd856c94U, 0x3c29a805bd152a6aU, 0xbd9e4f7fbd9be1c3U, 0xbcb5b30ebd13f431U,
  0x3d1f20d4bdd6de0bU, 0xbbd2f3a8bc278f18U, 0xbcb910a2bb22ebabU, 0x3e3579ed3dafd604U,
  0xbd0a95b9bd013479U, 0xbd4795a4be033dc5U, 0xbda4fb1ebddc34c9U, 0xbcb67fe33d006413U,
  0x3cab72243d81d075U, 0x3ca7a271bd82d23cU, 0x3cf5efdebcd0051eU, 0x3c8a25f3ba965050U,
  0xbdcc6bb03d874692U, 0x3d6df11cbdba6940U, 0xbda190e83b72c472U, 0xbdaec5c6bcb2a47cU,
  0xbcf25c58bdb8bbf8U, 0xbd3960cdbd7ae707U, 0x3c831802bd3ccd29U, 0x3d419f673c21b18fU,
  0x3db6ed7ebdadc857U, 0xbccea54abd881a63U, 0xbc8268debda2d089U, 0xbc866644bda6527eU,
  0xbd5bae89bd2d614aU, 0xbd8fb90d3c304e5eU, 0x3d8a25bfbd17a032U, 0xbcdf72973bcfeef0U,
  0xbdce857abd0fae66U, 0xbde1c5423d359276U, 0xbd28d805bdf67ceaU, 0x3d131edcbda01b62U,
  0xbd10fac7bc85ced2U, 0x3d6a26bfbd89fd61U, 0x3ba174083cbd1a1eU, 0x3d1baef53dde1823U,
  0xbc889076bc555ad8U, 0xbd107ce1bd05c15cU, 0xbca87926be0e9260U, 0xbd92cbc0bdd237f7U,
  0x3cfb54343d6585c0U, 0xbb4333153d09d4d2U, 0xbc3368a63cc6eb1aU, 0xbdda0425bdd0e769U,
  0xbe083469bce8b25eU, 0x3e058bf3bd1bfa54U, 0x3dfa8788be43e656U, 0x3ddbff693ddfd08cU,
  0xbe08ac6f3d124035U, 0xbe1bbb63bdc43b83U, 0xbd6aa2ae3d980045U, 0xbd777b6bbd996396U,
  0xbde911b03e06ca57U, 0x3d2277b8be0bb643U, 0xbd960c5c3d49312dU, 0x3c363b2abd1f0891U,
  0x3daaf44c3da26fb2U, 0xbd842180bdbfb23eU, 0xbdcb9477be495c7fU, 0x3ce34787be895c3fU,
  0x3ccdb8dc3d5f222fU, 0x3afb23a63dbe19c2U, 0xbb05c29d3d7257d8U, 0x3d0efbeabd441991U,
  0xbe2163c7bd55f0edU, 0xbe1f276f3da25117U, 0xbd178a6ebdb7df49U, 0xbd0d8d81bd8c96a5U,
  0x3dc64a173e08e175U, 0x3db657943d903061U, 0x3d37a98d3d1c0f75U, 0x3e3db77e3c146a8dU,
  0xbd2659d3bcb260afU, 0xbe11a237bdde8b2fU, 0xbdce0a0dbe5e2c6cU, 0x3d3a33623cb49ba0U,
  0x3d40b679be0bb839U, 0xbd0710bd3d99bb1fU, 0x3d26438abd13583fU, 0xbd40f8903d224575U,
  0x3d475555bdcd6158U, 0x3d9dd2f7be1fb269U, 0xbda668783df8afd8U, 0xbd86b3813dfd95f6U,
  0x3c32f206bcdbdd22U, 0x3d89e900bd056bddU, 0x3c368048bdbf9501U, 0xbcc78074bdd9ffd5U,
  0xbdbabbcdbdd50e77U, 0xbc983733bdafcd97U, 0xbd9d72f33d57ef57U, 0x3d1940a63e2d1fb7U,
  0xbe3df1fb3c6613e5U, 0x3def9ff83d8a6af1U, 0x3dadd5c6bc7fa9d1U, 0xbd6ef9243c28bd5bU,
  0x3b14809dbe694586U, 0xbc25c048bdafd48fU, 0xbc816ede3cea7a44U, 0xbdadae683bb7c099U,
  0xbde9c08d3e18ab47U, 0xbc219663bdd92d24U, 0x3cae80f63e076431U, 0xbca8b1f83d4eecbeU,
  0x3d460d43bd027820U, 0xbdc68019be0d8afdU, 0xbe0f92e1bc3f773bU, 0x3e044850be2e822aU,
  0x3dca5d113d313524U, 0xbbf486583e12da3fU, 0xbbdb9f72bcaeff8eU, 0x3d8603243e1c3f93U,
  0xbd0c5b513dcbb7dfU, 0xbe0e5d1b3dfcdcc1U, 0xbe4a53673e1c7555U, 0xbe36bd033d601cfbU,
  0xbd70cad3bcbbf2cfU, 0xbd8bb0cb3d8d0109U, 0x3d068321bd1d2824U, 0x3e3b9ba7bd9c21a9U,
  0x3d21d489bc7da396U, 0xbbbf2c5fbd766149U, 0xba683070bdb5d51fU, 0xbd48cda5be188c27U,
  0xbc37bbfebcb56b6fU, 0xbe3405f9bde3c3d5U, 0xbd95c6b13c52276fU, 0x3dab4df6bd8855cbU,
  0x3df4be7c3e0cdcccU, 0xb96445783df49fedU, 0x3d333fe7bb224a56U, 0xbdd8ffd43c943dd7U,
  0xbd94f1b3bde73b6cU, 0xbdbd1ef2bcd4ca0cU, 0x3ce9e003bdb87f51U, 0x3dbffeb83d51a86cU,
  0x3dc9ee34bd29f75eU, 0x3cb59468bd939626U, 0xbcbe18d6be03a9d9U, 0xbdb48f72bd98b0f0U,
  0x3d8459b7be0fc183U, 0x3e583296bdaf8d39U, 0x3e0f28503d4d04d8U, 0xbe5ca84a3dfb3535U,
  0xbc3603243d7b320eU, 0xbde43af43d3ce13aU, 0xbe18e1a73c8f9152U, 0xbe7e3b7c3e05be61U,
  0x3dc965d2bd5ac6a1U, 0xbde22554bda8464aU, 0xbce3c693bc95cb8eU, 0xbd9f7a87bd9c8c9fU,
  0xba6a2322bdb78d69U, 0x3d86f3213d44c7c6U, 0xbda25358bd8f3708U, 0xbccc5b353d3cf485U,
  0x3dd8928ebba1c4abU, 0x3b49120c3beabd85U, 0x3dcd28603d907567U, 0x3d79ad2d3cf0e3b3U,
  0x3d3f8b8d3dc630adU, 0xbda8d6bd3d98156cU, 0xbda438123d0f0407U, 0xbe6b14c5be074ebeU,
  0xbcee11cdbca35ac7U, 0xbdcb78193db42dbdU, 0xbd5e030dbd00613cU, 0xbd2f374d3d928062U,
  0x3bcf8722bd20d509U, 0x3d4c9683be036fb9U, 0xbb8ab20fbd7e338fU, 0xbd808d21be1380edU,
  0xbd88c05abda3df52U, 0xbde59168bd64aa93U, 0x3e10b713be50d668U, 0xbe0147d03e1f11c1U,
  0xbac930dbbd36eb66U, 0x3d4256933e022bdeU, 0x3cbdb6c6bd24dff4U, 0xbdb218cf3dd74418U,
  0xbde5aa6cbe0525a6U, 0x3dad25dcbd29cb74U, 0xbe69b1fd3defccaaU, 0x3bd0a998bd4964c8U,
  0x3d63ad9abe03b25fU, 0x3d41cff13dc08a61U, 0x3de70bc13d2c8fd2U, 0x3d813bf23d45c75dU,
  0xbd9713553d5edf54U, 0xbd9def20bd492defU, 0x3d3fe2d8bd9feae4U, 0xbd3433d1bd93616fU,
  0x3c4ef5b5bcc3e72fU, 0x3d24f354bdaeca5bU, 0xbdd8dd4fbde59a0bU, 0xbc29040dbdcb0522U,
  0xbcf99bbe3caa6761U, 0xbda975ce3d5c249dU, 0xbd4e5cb63d54381cU, 0xbe12d6f23d2a2e2bU,
  0x3cf9c3be3af287dbU, 0x3de27571bd910219U, 0xbd4c3885bd82ee19U, 0x3da85fdebda674e7U,
  0xbdb24952bb97701eU, 0x3ce88dce3c2831e8U, 0xbc7b86d9bc0790f5U, 0xbdcd89353dc21091U,
  0xbcc67c7abcf4b9b0U, 0x3d865ca93ce23d86U, 0xbd8ac773bd8b22dbU, 0xbdb67acc3c9885c2U,
  0x3df91bc13d76a1e7U, 0xbdddc329bddb1268U, 0x3d113d19bccf7149U, 0x3c519fa93d9d4f3bU,
  0xbdd4631dbd384eecU, 0x3c9e8ee13c157d3aU, 0x3da64d3c3dd04aadU, 0xbd7ed5c63dd5044cU,
  0xbd3bf96fbd854b96U, 0xbd4a9829bd2822f6U, 0x3b0e3e9f3d02ac4cU, 0xbdf1a3793cb6d709U,
  0xbda007bdbce283bbU, 0x3ca43c9bbd9e5c08U, 0x3bbc35423c69f4bcU, 0xbbeeae083d592127U,
  0x3d712df93ca63e56U, 0xbd6e674cbd4b2050U, 0x3dac09523d8cad05U, 0x3d78463fbd466b95U,
  0xbda096d4bd5b787dU, 0x3d9f03aebcaebff0U, 0xbe2c00043d0d6b38U, 0x3cc87da2bc542df7U,
  0x3bc1f5913d3e7391U, 0x3d787da23cce100bU, 0xbca1f9c4bdd8b618U, 0xbd23de40bdc0ee2bU,
  0xbd71cccabcc9c1bbU, 0xbca80ac33ceb7eaaU, 0x3c60355cbd693ebaU, 0xbd2a7dce3d96c3dcU,
  0x3d1d2329bb232e55U, 0xbde48c6ebe032137U, 0xbd3ac3f83db02be7U, 0x3d395f523dc6cad9U,
  0x3c74320f3df63d2eU, 0xbd1ce19ebd086a5dU, 0xbdaf85743b03fafdU, 0x3d64d1393b706371U,
  0xbdd30887bd9c5ce3U, 0xbe076c923d0fba2aU, 0x3d481c3a3c727c67U, 0x3cf105b4bdc9df80U,
  0xbcc1f66bbd907941U, 0x3ce971e0bd881c6bU, 0x3ce7bff3bc83f770U, 0xbc0bb8f5bc4f382eU,
  0x3cdb312c3d62345fU, 0xbcd8ebcebcc07d9dU, 0xbd6409953dd9a94aU, 0xbb89198dbdac5f3bU,
  0x3d07487abcd7dc1cU, 0x3d8eb8553d575af3U, 0xbd94770a3b53745cU, 0xbd8a555ebcbaf3edU,
  0xbd2bfcba3b933f05U, 0x3d9485073c346968U, 0xbd068ce93c798a5aU, 0x3d63c798bd24cdc6U,
  0x3dad45f13d4f2a63U, 0x3bebbc2bbd517cd1U, 0xbb9d124f3d9bc0d0U, 0xbaa301d73e3ba520U,
  0xbd16ff153dd0ca50U, 0xbca2cfc7bd8bf521U, 0xbc9932043dbd343dU, 0xbdd81082bb8220e6U,
  0xbd6c054bbe170ad9U, 0xb9b43d7f3d15480fU, 0xbdb748bebca205b9U, 0x3e2b9b933c9dadedU,
  0x3d481d57bbed1496U, 0x3d884420bc65da64U, 0xbce231053d86bf0bU, 0x3ddd33f93c9b3d79U,
  0xbab2484d3d73343cU, 0xbdb48a33bda78707U, 0xbdbe4f30bdcaac81U, 0xbda0aaab3dbf01cdU,
  0xbc992825bc924e30U, 0xbdc2014a3d745274U, 0xbdadae80bd358265U, 0xbd01f37a3d4305a8U,
  0xbc8077a83d9385c2U, 0xbc756dce3d7019e8U, 0xbd2b51853d510e99U, 0x3de57a18bcc1147eU,
  0x3d015f523b895f23U, 0x3d36609abdc38a2cU, 0x3ce2b7193d435197U, 0x3d1ee6fe3cfeb125U,
  0x3d5f5fa2bd1cdd74U, 0xbde6bc80bd23589dU, 0xbb81475e3ce21923U, 0x3c9b30953c3f4ce3U,
  0xbb46aaf6bdacf51fU, 0x3cfff5b83d655b12U, 0xbd5d0367bd6b398dU, 0x3cc883153cba18e4U,
  0x3dadea413cab0bddU, 0xbdbe612b3cf9e9dbU, 0xbda16a53bdd833bbU, 0xbd2e3e7fbcb66bf8U,
  0xbd89fa39bda56e13U, 0x3de58fc43c9f6b1aU, 0xbb8a304bbc763672U, 0x3dd8977bbd8e366eU,
  0x3cc371a73b617c20U, 0xbd1f6331bdb30988U, 0xbde24637be0c812cU, 0xbdc9735a3db5dbc8U,
  0xbdda6727bddbbe40U, 0x3de74a4a3b4b6a1eU, 0x3d8a9f8ebcbbc35dU, 0xbdcf4e7ebe0c3ff5U,
  0xbbff6d8a3d2e8b42U, 0xbdfc63b7bc632e2bU, 0xbd24de01bded9bb6U, 0x3dc32adebe03c9bdU,
  0x3c82a0513da4131eU, 0x3caf1adebdc5da57U, 0xbcd83c3f3d884df1U, 0x3da96e27bda2e2c4U,
  0xbb16e92e3dd9ee07U, 0xbd84dc01bce5698bU, 0xbd8d75b8bb28cc23U, 0xbce5a6123d5400bdU,
  0xbc18dee0bdd82d67U, 0x3d9defbd3cf3fc2cU, 0x3c20948bbc41afddU, 0xbe04cb4cbd76498cU,
  0x3d9c0dd0ba00edc9U, 0x3c82c91d3d4c9ffdU, 0xbe0157e9be2218ffU, 0xbbecf3053d5f3e08U,
  0x3a939a18bc9aa29eU, 0x3e2da4e73d8b7f4fU, 0xbd5137743da6de73U, 0x3d8310d9bceb97b7U,
  0xbd09e67a3d520fffU, 0xbdbf88db3c9749abU, 0xbdf29b483cf90c8fU, 0xbe1a9bccbd42def1U,
  0xbd499d6c3dbfa06eU, 0xbc574973bd8551e0U, 0xbd2ec70a3d5b9ad4U, 0x3d99d97c3d23e32eU,
  0xbda6d748bcf897bcU, 0x3d5983813d3ad93fU, 0xbdd0e3b5bcf0d333U, 0xbc0f44b9bcdd53e3U,
  0x3d303e883d7d82d1U, 0xbca2e6c53dc60de9U, 0x3d98c12bbd25b9e1U, 0x3dd7746a3cc623bbU,
  0xbd65fdf53db22bc7U, 0x3d07c8c1bc335242U, 0xbcb6422a3c9ce500U, 0x3bc59c663d0501efU,
  0x3cc24cf6bd7cfe5eU, 0xbd364acebd1e4ed1U, 0xbca3d972bba3f331U, 0xbd6aabc33c845b66U,
  0x3d5ab593bbb54744U, 0x3d104c733d969b8fU, 0xbd0655e5bdb23264U, 0xbd8de8f33c710d4eU,
  0x3d9989d33db58439U, 0x3df64553bd865343U, 0x3d298b023d674909U, 0x3e07d36e3cf2ff70U,
  0x3a9faa683dbde3f4U, 0x3c25b77f3bf68c82U, 0xbd7a0336bd4798e9U, 0xbe1402efbdd7715eU,
  0xbde46c343c4e2f20U, 0xbd975306bd705183U, 0x3ca9ba693da21cb5U, 0x3db5ebb5bdfc8fb7U,
  0xbe024f8cbd7858eaU, 0x3cdf18c53ced178dU, 0xbd8fe3463c8e5d82U, 0xbb95b0463d5ad284U,
  0x3d9921143c900446U, 0x3de2a5ee3c899b3eU, 0xbd80e6cc3d1ba350U, 0x3d697173bcb55f97U,
  0xbd50239b3dd8e502U, 0x3d4db30d3cdb55f8U, 0xbdf7adb2bd6a1367U, 0xbd0c051abd9f8323U,
  0xbc959b8a3d6a6884U, 0xbd76c1633d2da049U, 0x3d8879d13d105039U, 0x3e3d550c3d1f45f6U,
  0x3ba00c123d92393dU, 0x3d2196563c8dfcd4U, 0x3d66128b3c5da0a4U, 0xbd05ccbc3cc91f11U,
  0x3d6a5b943c95e178U, 0xbde535043daa607fU, 0x3cdd7c17bd83ff58U, 0x3df59c16bb661dcdU,
  0x3bd8d9f33c70974cU, 0xbd70b068bd837ef7U, 0xbda50fe5bbd15940U, 0xbb9aba82bd4960adU,
  0x3d0379fb3aa6d946U, 0xbd6d8f85bd838aeaU, 0x3df10808bd86cc1fU, 0x3d46a6af3bf0ad10U,
  0x3df836873d900f6aU, 0xbd76dc17bd34db99U, 0xbd819f353cd8e4e1U, 0xbd81e1a9bd398a11U,
  0x3dbe014c3d07af3fU, 0x3d135ded3d746d9fU, 0x3d801c983dd09ee2U, 0x3d0219b13cf9c471U,
  0xbdd8a80c3cd007a3U, 0xbd57b9d43caedcb2U, 0xbd0ba3e8bd170becU, 0xbdd6908d3d7a8ac2U,
  0x3dc6dd073d8a8022U, 0xbd81fa063c049342U, 0x3ddb99ffbda8ab03U, 0x3d2624cdbd0460bcU,
  0xbc7375403cd116e7U, 0x3da8e7eebcb755e2U, 0xbd9cdc11bcc2a6dfU, 0xbdb1c4e23d975404U,
  0xbd5c9266bcc2ead9U, 0xbc008b95bb0d1cf2U, 0xbd9c8b673d25ba13U, 0x3d2e8f1d3d45641fU,
  0xbd0200b03dc72978U, 0xbc1f3ed1bd4faf2aU, 0xbd6e6a7d3cbac7f2U, 0xbdc3b64f3d4f32f6U,
  0xbd98cf0abcd9046aU, 0x3cdab26b3d79af3fU, 0x3d24daacbd5e3eefU, 0x3d60f9c0bd3be74bU,
  0x3b549eb0bd7ecda0U, 0xbd1e1405bd1438e9U, 0x3c4c9153bd67668fU, 0x3da7c28bbd606a21U,
  0xbda0d2fbbd21f5edU, 0xbdc3ae0dbd49e4e9U, 0x3d9cc58e3d19cce9U, 0xbd4c26b9bda0a2f1U,
  0xbd669f273d4452b0U, 0x3c9ea33a3d96f767U, 0x3ccf70b9bcf31ad5U, 0x3ceea6b73c5bed2aU,
  0xbd7d38143d0402d9U, 0xbd8f9829bd47344dU, 0xbd5701e1bdd17febU, 0x3de5c271bc68bea3U,
  0x3d05c18dbb811902U, 0xbda85746bc8427e6U, 0xbd5ce8b03dafc48eU, 0x3d4a02a0bd36d555U,
  0x3d9e7618bdb69c70U, 0x3d12f6373c9dcb28U, 0xbdb52b813d9dd810U, 0xbe1215b3bcfec134U,
  0xbe272e9cbd13849bU, 0x3c11fec8bdd8f1f8U, 0xbb1fdf18bd73d1d3U, 0xbe009e9abda29882U,
  0x3d98b209bc1bd667U, 0xbda028523be6a81aU, 0xbdd301163d0e988eU, 0xbe04dfd6bd06a067U,
  0x3d198f743dce2e57U, 0x3db3390a3abf4a51U, 0xbc9f48bbbcabc53fU, 0x3c97d6783d5376fbU,
  0xbd772cf3bce69a2bU, 0xbde79129bbe2e12aU, 0x3dc3a3a83ce860e9U, 0x3e1ab6913c7626e1U,
  0x3d80ed253e295024U, 0x3d4006893d7e7be2U, 0xbdbcdee83e12feb1U, 0xbda845c83cb1463dU,
  0x3d6fc55ebbd3ec06U, 0xbe13df3a3e217d7aU, 0xbe787b17bde3c080U, 0x3d8d8b0bbdbc0a77U,
  0x3e042690bdcbbebdU, 0xbe30a27fbe024adfU, 0x3d6c3e5fbb75fad4U, 0xbe374a433d173a1bU,
  0xbc26b3e73d474235U, 0x3bd0535a3cffd41eU, 0xbd524706bd8c31ddU, 0x3dcf65b0bd902dd6U,
  0x3e2081fa3ddffc8fU, 0xbe0823853d895241U, 0xbcc37a0b3e08be1eU, 0x3dc58d563ccde9dbU,
  0x3d177b983d4a677fU, 0xbcba94903db498d1U, 0xbe477f52bc0b65d1U, 0x3e13c7cb3ca968a6U,
  0xbdf8292bbd7b0121U, 0xbe54b18fbd536628U, 0xbde639cfbc4cb9d5U, 0xbdcc1023be053cdaU,
  0x3e0ea5403db3386eU, 0xbdfefd443d0c7735U, 0xbdb3d7f5bba63e36U, 0xbc9a44a73c052aceU,
  0xbdf45577bc2f429dU, 0x3c974927bdabf61eU, 0x3d90bfbfbdfb024dU, 0xbd3908273dd43384U,
  0x3d3d70b83de9754fU, 0xbc54d15b3e428267U, 0xbb3672b13d288085U, 0x3c28dd6e3e05b1f1U,
  0xbd52a3ecbe532d6cU, 0xbd282c233ca9411bU, 0xbd2e8196bd879397U, 0xbd6bb867bd24e454U,
  0x3d1a1adabcc110f6U, 0xbddadd71bdeac676U, 0xbd81f039bd83c590U, 0xbd0843003e1689c5U,
  0xbcf44417bd169709U, 0x3a890cfdbdb45f11U, 0xbdb57c5b3d7a1c09U, 0xbd2f38803e23247eU,
  0x3c306108be09a326U, 0xbda839043dac240dU, 0xbe064766bd33c250U, 0x3b95be473d7d4ee1U,
  0x3d58d941bd2e0453U, 0x3a0347fbbe1171f0U, 0xbcbc7f49bd3980cbU, 0x39e9f5a0be296969U,
  0xbe2b7dfcbdb62057U, 0xbdd78ef8bcf02725U, 0xbddada9dbe120e16U, 0xbc20af0ebdc200a3U,
  0xbc911b7dbcc312faU, 0x3d1aee0bbddb82fcU, 0xbdb043a2bd10d689U, 0x3cf6f48abc3255edU,
  0x3da8006abda11146U, 0xbd023195bda4fdccU, 0xbd3618253d8afc3eU, 0x3ddce7ddbdcdf285U,
  0x3e47bdb93c243f75U, 0xbd8785603c168109U, 0xbdaec6e2bc89047cU, 0xba85d5f8be1363dbU,
  0x3d1241623da1342dU, 0xbe28bdfb3c8536d2U, 0xbd9a7355bd4eaff7U, 0x3d8b2ec9be0e388dU,
  0x3d175ccf3d7b3c95U, 0xbda084f63d0c5f00U, 0xbd98a512bd76cdafU, 0xbcb88327bd9b98efU,
  0x3d29baea3dd510ffU, 0xbd2093633d051481U, 0xbd3fbc4b3c5b186eU, 0x3cbb47a43d00408bU,
  0xbdd3e451be201835U, 0x3ce554db3c3f9848U, 0xbd31bdc1be357f75U, 0x3d6f8ac23aaa168aU,
  0xbd40d6d93ce5a17dU, 0xbdd519a73c2cff07U, 0xbd45abb33d1089ddU, 0xbd760483be00bc04U,
  0x3db5dd5c3d4f8285U, 0x3dbe64babdf836a5U, 0x3d4ffd143d33038cU, 0x3d2732043e336d79U,
  0x3c2de61b3cc4a254U, 0x3d74ac603d94684eU, 0x3df40f503c946f0bU, 0x3aea8bb93dfc5fa3U,
  0xbc190dacbe84c2b6U, 0xbcf6037a3ce25427U, 0x3b895901bd31f5ecU, 0xbbca3d82bc171f77U,
  0xbe20fdf4bd85eaccU, 0xbcc5b3723d24c1b7U, 0xbe156ef3bb26c34bU, 0xbd787527bd41ee7dU,
  0xbc93d93bbe0294d5U, 0xbd9bf607bdc8f650U, 0xbd8d95acbdf5b059U, 0xbe1bfd49b8e35327U,
  0x3d51bd103d63d82dU, 0x3d0d6506bd814802U, 0xbdb29e8dbd9507d2U, 0xbd230853bb4e78d7U,
  0xbd0abb7dbd231bbcU, 0x3db7545ebdadf165U, 0xbe3d01e2be046ac3U, 0x3d84faeebcfa5714U,
  0x3d51c3e13dbc36feU, 0xbdcffe73be1ff34fU, 0x3e185f7ebe49a679U, 0xbdd624b2bd68727aU,
  0xbda771e83dcfe634U, 0xbdecd9d43d57c2dbU, 0x3e2c2d673dc24a1aU, 0x3b7769893e67c842U,
  0x3db1452e3dd2aad1U, 0xbd992afc3dbd8013U, 0xbdc8333abdcc3b40U, 0x3d9e8f553d0181adU,
  0xbd932efebddab424U, 0x3b9ff715bdf10955U, 0xbca11de9bc74bf86U, 0xbe1e4d6bbd86158aU,
  0x3cbbbf9ebe42ab90U, 0x3e58bd563dc154e1U, 0x3e02e97ebcbf2e6aU, 0xbdfa01893e21b778U,
  0xbd973ba2bde67b03U, 0xbdf4294dbd302b1dU, 0x3db1414d3d8f87f4U, 0xbba8ed013df70397U,
  0x3de7e4b2bd26383fU, 0x3e14b5b33d79f018U, 0x3c748c543d5bef5bU, 0x3dc371c9bb1eb147U,
  0xbba68895bd37f002U, 0x3e13168e3dcb2718U, 0xbe12af0fbc684456U, 0x3e0d00fd3dbe31c8U,
  0x3c02e3213dc2b024U, 0x3c102809bd43bf90U, 0xbd9f02ddbd29ad5bU, 0xbd71d7cabc5041a6U,
  0xbd3f2fa93befe3c0U, 0x3d59ea473e04ce97U, 0x3de711b63e1ade32U, 0xbd705c66bd45d83fU,
  0x3c235c4fbdbeda77U, 0x3d0cdc3fbc8d6b3aU, 0xbd19ea88bd466e77U, 0xbe25359cbe245b3cU,
  0x3e4a713dbc608e92U, 0x3d0929383cec61caU, 0xbdf6e336be120ee5U, 0xbe002fd5bcb156bbU,
  0xbdff8416bca411daU, 0xbe0b04aa3d8bef86U, 0xbc36cdacbd6dff17U, 0xbda03684bd164831U,
  0xbd691bd63dd6c2c9U, 0x3d6c7745bd322b4dU, 0xbd8b6220bdee6504U, 0x3de3aa873e39bb94U,
  0xbc3944153d291ef4U, 0xbd6ae67d3d3e87f6U, 0xbd0d47e6be18982bU, 0x3df89dccbd4cc9a4U,
  0xbcbc50f4be247f89U, 0xbe0d98d4bdf4b4fbU, 0x3d41c1933d8e9e6cU, 0xbdd376b23cc3ff2bU,
  0xbdfff9d63c3072daU, 0x3e048b3a3dbb69ccU, 0x3d3808e93b80534aU, 0x3dfcb52cbd8c3127U,
  0xbd85002abe14ac5bU, 0xbdde3d9dbe32c857U, 0xbd6aa08fbd8abb13U, 0xbc2c4840bc431306U,
  0x3c152c7c3e37ae07U, 0x3d271f1b3c7d7664U, 0x3dfbf0633d0071a2U, 0x3d1a721fbc9b87ecU,
  0xbdddb4c4bd0fb6e8U, 0xbd44e32fbd30bdb1U, 0x3d215a2ebdf2ae78U, 0xbdbf7bf4bd952a62U,
  0x3dae5c6c3c6bd5b2U, 0x3d66981b3dad2f61U, 0x3d82db273e112ab5U, 0xbd19460bbd1a694dU,
  0xbdfbb775bcab8c9bU, 0xbc00343b3da2f820U, 0xbe3c5a2a3db9598bU, 0xbe0535f23cd51371U,
  0xbda81c4dbe15901aU, 0x3d6a37d43df5a865U, 0x3d09be953d142c7dU, 0xbd3c3efc3cfe4a82U,
  0xbe160c95be2ecb75U, 0x3de4e126bce52e2bU, 0xbd927c26bd0874deU, 0x3b224c86bc59a510U,
  0xbe10f05c3d85df6cU, 0xbe9a852cbe2249f2U, 0xbc622a643b1ac1e5U, 0x3d24b0eabdf20f39U,
  0xbc4b2d67be34661cU, 0xbc60942dbda01d2aU, 0x3cc71d963ca0dde1U, 0x3df8a974bcd9386dU,
  0xbe27ec6abdd81bf4U, 0x3dc714c3bcd5ad3aU, 0xbe0a3d7abccd0c30U, 0xbccbd6303e32f39dU,
  0x3df0f2de3c9af4b2U, 0x3dc18a4e3d64c7eaU, 0x3e48d4243c1b5311U, 0xbe3b23873de6851eU,
  0xbe239aaa3ca69554U, 0xbe39bf343dea424aU, 0x3c070047be2cc587U, 0x3d0f077fbd1144b2U,
  0xbdd1d0e33c037225U, 0x3d9969e3be772689U, 0x3d45acd3bd2fa655U, 0x3d5a4a09bd17a316U,
  0xbab0442abd8bb97dU, 0x3e1c32b4bdc96c96U, 0xbcded916bdd8614dU, 0xbd7b50a03c87e271U,
  0xbd7be65bbdb729b6U, 0xbdd26e22bd3d0c48U, 0xbdc0b8b8bd57bdf8U, 0xbdf0f8733d753067U,
  0x3d1f45e43dc51f30U, 0x3c787dcbbd6d47cbU, 0xbc548129bd41d5b4U, 0x3d22fb033d83be27U,
  0xbd0f7de5bd8743b1U, 0xbd82670fbcf37227U, 0xbe19a84c3d81d7e6U, 0xbc0b5d68bd73729aU,
  0x3e0c1a643d4a3562U, 0xbe0a21f7bde8f580U, 0x3d29bf3dbdff327cU, 0xbc2a6914bc134cabU,
  0xbdc90788bdd07665U, 0xbe1de3e2be0e30a5U, 0xbda3e839bdd1e9c1U, 0x3cc48c0cbc97e0bfU,
  0xbdef8edbbcd6df7dU, 0xbc03a649bcdc70b3U, 0xbbcb717a3cfd88e3U, 0x3d685bfebda0ab2aU,
  0xbce4d0633da6b821U, 0xbd9b7a733d539231U, 0xbd1ca81bbd66267cU, 0xbb99d7c2bb326625U,
  0xbcaa0790bcf89a9fU, 0xbd4158ea3caf857dU, 0x3d850e82bcb2583cU, 0xbd0235d13d4045b4U,
  0x3c6c321d3dbde17aU, 0xbcb921d6baf6b5dbU, 0x3ac96481bcc91ca3U, 0x3af743e93c89c1f8U,
  0xbdb59d053bf6fbe1U, 0xbd2588fabca1f505U, 0xbdcc250bbd866ccbU, 0x3de228753be1529bU,
  0xbd738ea93d2dd3b2U, 0xbd267bf73ca1ad8cU, 0xbbe6c1933b742350U, 0x3d8d7ee53d8671a1U,
  0x3d99e12ebc8dbd87U, 0xbd52bd703d6cb10aU, 0xbe1facc7bdb7fa70U, 0xbd1f6f16bc8521f9U,
  0x3c5781c03e29d4aaU, 0xbd462fe9bd93b35bU, 0x3df45c52bd3fedd6U, 0xbd721d8c3d1eed29U,
  0x3d2a1fa3bd9bdb8fU, 0xbd06868ebd2c4fedU, 0x3ccfa0acbddf1bd2U, 0x3bc9dc653d965941U,
  0x3cde2d1c3c3eb5a5U, 0xbda9b3d93d3e1080U, 0x3d56185a3d0a7d7fU, 0x3df174d33d2b25b9U,
  0x3df2ebbe3be2398cU, 0xbd737d423d86edc7U, 0xbd82527cbdb85b58U, 0xbd7688b03c9bda99U,
  0x3e1a821ebca6c99fU, 0xbdbff1d5bc60b115U, 0xbd006987bd43bcccU, 0xbddfbfee3c73c5adU,
  0x3c1be3a2bcab7d2aU, 0xba91ba46bdbb4f33U, 0xba00f295bd8aba65U, 0x3d3b3c7bbda97bd4U,
  0x3a33a6c93d956991U, 0x3d560f12bc709502U, 0x3c91b40f3d8e1996U, 0x3d7a951ebd168607U,
  0x3c1139febc893777U, 0x3d0b18333d0e9334U, 0xbddd4b4dbd2f7727U, 0xbdd866cf3c954d70U,
  0x3c2bdd9c3da67a32U, 0xbd05336a3cd3f139U, 0x3d18361c3cad35ffU, 0xbd5640d13d168380U,
  0x3a18af75bc75558cU, 0xbdc6561fbc851344U, 0xbc293540bcb328a0U, 0xbdac82f43d5f960eU,
  0xbd59b94fbd8fed4dU, 0x3d2aed063d2f4466U, 0x3d6a67f43cf64f72U, 0xbb202f7abdd951ecU,
  0x3cfa081b3d300e44U, 0x3d5cde163d0409a2U, 0xbdd01994ba895807U, 0xbcc179c7bcc1c4c7U,
  0xbc7f88be3d518c86U, 0x3c207d943cf0ee76U, 0x3c4546793d204c9cU, 0xbd9d48b63d2c8521U,
  0x3d0e3371bcc3871bU, 0xbcde1251bd685fb7U, 0x3c6a1fea3d5f67afU, 0xbdb7f8173de172a9U,
  0x3b7cc8c03d0069c8U, 0x3d31d5febd1fabd7U, 0x3d9b78303deff91aU, 0xbb45ad66bd1e721dU,
  0xbd5c99ab3b89b462U, 0xbb2e4dc9bc81662eU, 0xbd5243b23d10ae56U, 0x3d8688b93c9c7fcbU,
  0xbdc4919dbd214c30U, 0xbcd70b3bbd80b8eaU, 0x3d2b779d3d662755U, 0x3c1848453cbf2c32U,
  0xbd34e6083d28a8d7U, 0xbdb32be6bd143e01U, 0xbd2f8a3fbcf9e9d2U, 0xbda3e4a83d45189eU,
  0x3c432805bdb36f50U, 0xbc7543bebdaa8637U, 0x3d64fcaa3bb34c61U, 0x3d3c306ebd0b65aeU,
  0xbd854ec73d86829fU, 0x3d16e85cbd8a44f7U, 0x3bc2bd923b149880U, 0xbb6a661ebcdb4fd0U,
  0xbd543f63bc6bad36U, 0x3d17632cbd9ac12bU, 0x3d7559183c0a0b08U, 0xbd875d34bd88bde6U,
  0xbd8a62563c62a736U, 0xbce56d853d59dd1dU, 0x3d988766bd7f6f41U, 0xbc45666c3daa7df3U,
  0xbbd1a8cebd84774aU, 0xbc946a91bd37aef6U, 0x3d1c1621374b3a87U, 0xbd2050dabd957da0U,
  0x3ce8f6253c630b5dU, 0xbd14d95cbd924014U, 0x3d643e203dabd2d4U, 0x3d06cf41bbb50560U,
  0x3c8529d1bdb05410U, 0x3c95918cbd1ef35cU, 0xbce29eb13d40cb9cU, 0xbd179e553a9ed150U,
  0xbd6cdaaebd8d89e6U, 0x3c11acf53d8e69b8U, 0xbcbba8573c9d35ccU, 0xbd2151043d58d38cU,
  0xbc8ea54abcca4194U, 0xbd2ef5cd3d173b59U, 0x3b2c7e253c91e59aU, 0x3cb00dd03d1bb4dcU,
  0x3baa5af73d4107c2U, 0xbd643714bc6130abU, 0xbd960504bad73269U, 0x3ddb9222bcf0bf05U,
  0xbccc2f16bd50c557U, 0x3da8bfb1bc6707d9U, 0xbd7806023a3141f0U, 0x3d180cf13c04aef5U,
  0xbda4c3b7bc48497aU, 0x3d18e6543ce37f0dU, 0x3b9219bcbc499b52U, 0x3dec15fdbd5d6bc0U,
  0xbd369c55bdb2f89fU, 0x3d1f1e5fbe0bc77dU, 0xbd740dc3bd8db38fU, 0x3d8949633d5588d3U,
  0xbda05a223c723897U, 0xbdbad1c03c06b717U, 0xbcaaa800bd9f52d9U, 0x3c1c4443bd7e762aU,
  0x3cd0c8e7bd46602eU, 0x3d8d1cf9bda14b53U, 0x3c9dada13cb00e6bU, 0x3ce7465dbd895fc0U,
  0x3d6ed0ecbdc8330eU, 0x3cdf5363bde28284U, 0xbcf0a1433d21970dU, 0x3b8503d3bd8e9864U,
  0x3d0f6f8dbdf56924U, 0xbc613fa1be052054U, 0x3daeb12fbc9d65cdU, 0x3d4c71da3d1973bfU,
  0x3d0ee94abdf21357U, 0xbd088385bdffbb61U, 0x3d489c6bbe0ab3a7U, 0xbc9186e43d010cccU,
  0xbc99f7c1bc8724d7U, 0xbba9a0933acf3158U, 0xbb637e153aa6e766U, 0xbc4dc869bcdb59ffU,
  0x3d9c20babd803b72U, 0x3ce04e5ebd17e116U, 0xbd9b4e58bdb16079U, 0x3dea8f1ebded94d6U,
  0x3db35691bde0d471U, 0xbbaa6023bdd7ec6cU, 0x3d6ccc483db8e8aeU, 0x3cb4a61e3d893178U,
  0xba8f8bfe3be97c09U, 0x3d81b333bc3efdb6U, 0x3db9995cbd610c2fU, 0x3cb0e2babdb01c55U,
  0x3e298b593d57e9ccU, 0xbd44ece43d0eb147U, 0xbdfae7acbc2babbeU, 0x3d75b931be11af0bU,
  0x3ce1e66f3d285856U, 0xbd0443d93d3ba3f9U, 0x3d784de0bccbbcd5U, 0xbd86bda33bde901cU,
  0xbce4585dbdcf09d3U, 0xbc3e7388bd25d9adU, 0x3d478e7ebd2f1c2aU, 0x3db88415bcfe8d55U,
  0xbb1f33d8bb9bd039U, 0xbcc8906e3d2f1d6cU, 0x3cdd8a863cb9bdd3U, 0x3d6efc48bda60f72U,
  0x3d6d1e9f3e05c588U, 0xbda39524bd121805U, 0xbd8978eb3d69c73cU, 0x3d404891bd86ad46U,
  0x3d4a1cc1bc857db1U, 0x3d9dde59bd56cf38U, 0xbe1b161dbc545d1bU, 0x3d53b8fbbd8025b5U,
  0xbc9a9f75bd184484U, 0xbdc42da5bd9bd2fcU, 0x3d98b53dbd900a9dU, 0xbc9f45d93d310773U,
  0xbcdc09bdbd81dd83U, 0x3e1cccf3bd94b061U, 0x3e12b8ffbe12aeceU, 0xbb5bd6ddbd350114U,
  0x3dbc22643d0013f7U, 0xbc91727e3d687ba6U, 0xbe0183173c7ddb7aU, 0xbb77ecfcbc8d88c5U,
  0xbd29c8203da15f8dU, 0xbd2d0445bd9629b1U, 0xbc64436dbdf7ed7bU, 0x3e638b043d9c08ebU,
  0x3cb2c4033c9e97c1U, 0x3d75dc3fbd889037U, 0x3dc9d816bd48b8e4U, 0xbc38f927ba171812U,
  0xbd940708bd8bd411U, 0x3e2fabb9bcbd7690U, 0x3d0c844fbda7910eU, 0xbdf9fe4abd7abe6eU,
  0x3e11e4da3cd8fe55U, 0xbdd0490238d22771U, 0xbd2bb3873b9d22f1U, 0x3d11da94bc724e26U,
  0xbda38024bc81bda2U, 0x3dd2f6553d673c74U, 0xbd66d638bd29fca6U, 0xbd98936dbc944b3fU,
  0x3d6d9ccfbd042111U, 0x3ca0c79bbdf19fc3U, 0xbd6025b2bcbb7b2bU, 0xbc4b9f44bafa0fe1U,
  0xbc3ee5103dba07b3U, 0x3e263b74bd88f8abU, 0xbd2b788b3d0a080eU, 0xbc7e7a3abb9f2643U,
  0x3c714fea3d03533eU, 0xbdcc1567bce12d19U, 0xba87879b3c404c63U, 0x3da62e0ebda6cfd7U,
  0xbb0db51f3c387571U, 0xbd182d7c3e357599U, 0xbcab4e293d48edcdU, 0x3e1bdcd33ce3da50U,
  0xbcf6f29abc64463cU, 0xbca4f167bc55a337U, 0x3d75000dbda52a52U, 0x3c35225b3d04990bU,
  0xbd579210bc0c1357U, 0x3a642b043dbebebaU, 0xbd8f10fc3b5f2f3aU, 0x3d6c52943cb894faU,
  0x3dd827a53b4bbb7bU, 0xbd8c74883d9922b0U, 0xbde5ddd3be1fc9b2U, 0x3d07ab2f3d0c99a4U,
  0x3d322d743db0805aU, 0x3d9eadd43c62b2f3U, 0xbd34c967bcd00d98U, 0xbd3f734b3cd28ff4U,
  0x3dc24f64bc293edeU, 0x3d501395bcbf3affU, 0x3d7d5f2ebd8311a6U, 0x3cd67f66bc449772U,
  0x3d65b1313d333e75U, 0xbd795fdbbd42fc3dU, 0x3d432b463ddfe44dU, 0x3da11f103db1a518U,
  0x3d9f0079bcd2cd2cU, 0x3d1a66293c94e973U, 0xba73bd7fbc2e47ebU, 0xbca3a3163e02a159U,
  0xbd72c47dbc2d8580U, 0xbd70eb5abd04bf40U, 0xbd42675bbd302cf4U, 0xbd1244fdbccc9090U,
  0x3cced8a4bd126c6dU, 0xbd2520e13d82f298U, 0xbce434a9bc6de45dU, 0x3d24aafebd8b932cU,
  0x3d91e14ebca92363U, 0x3d27a70bbdb4218cU, 0x3d77c682bc21e78fU, 0xbca1c38a3d08eee2U,
  0xbda239d03c500230U, 0x3d953f10bb9efe98U, 0x3d2c05ecbc8ed299U, 0xbd2c4a99bc3f82daU,
  0x3d12d90abd1c0535U, 0x3d0d658d3d65f5bdU, 0x3d3a65debd4a0745U, 0x3cbc4cfabce203a4U,
  0xbd1607683c89ceb1U, 0x3da8e3f03d391c14U, 0xbdc5339cbd8a8086U, 0xbdd74771bce39a12U,
  0xbc88c4673beb9c26U, 0x3d6e87913d2b5a5dU, 0x3d83be2a3c5e2275U, 0x3cb13bc73ded3a82U,
  0xbe17e72bbdeca060U, 0x3d807d563d4f8064U, 0x3d9cc2403cb3a136U, 0x3d81ff83bccde0efU,
  0xbc7765db3d47e5f6U, 0xbd7f911c3d31f412U, 0x3d7bc27ebd6ef175U, 0xbdaf6eb53dc792feU,
  0x3bc4c2e3bdbc84aeU, 0x3d9268abbd918b88U, 0xbd2e00f8bc029bdeU, 0x3cb29eec3d09a3cbU,
  0x3cf6abe8bc7a1631U, 0xbcf236aabcddd07aU, 0xbd2483f23c8d2d0fU, 0x3bc5e1603d8598c0U,
  0xbcb48bc13d02c4f6U, 0x3dad20d7bd35c39bU, 0xbcce8dc0bccc5b9aU, 0x3dbff1153d5856caU,
  0xbd07ec933d970c4bU, 0xbd42197d3d609f5aU, 0xbdbc5beebcfa87f9U, 0x3d073e06bd57ee8eU,
  0x3d0412c9bd7d5c4aU, 0x3d856ad5bd26376cU, 0xbd6cf7abbe0538a6U, 0x3c8e5bbbbdc5f436U,
  0x3d01a06cbc1345a1U, 0x3d1e29083cfcd0d4U, 0x3c52bd3ebd507fd8U, 0xbd678abd3d6ee4c4U,
  0xbd8662d63d34148dU, 0xbc8d1fe63b8d5d89U, 0x3d2a914cbd923d9fU, 0x3d0c7e973d18de0eU,
  0x3cba7e38bc1bbdf4U, 0x3b2514843c305962U, 0xbcb37ac0bd699a74U, 0x3d87b65d3d27c9baU,
  0xbbcb7e91bc420905U, 0xbd438bf43d028fcdU, 0xbd672fc83d80558cU, 0xbda450d6bd57ddbfU,
  0xbd4e2be6bda7a41eU, 0xbdc32e9f3b53727eU, 0x3da1acd93d8cc0d3U, 0xbc5a3261bce11cd4U,
  0xbc9aa85d3cab6ef2U, 0x3d94ba27bd1471e0U, 0x3d40dd05bb78d981U, 0x3cf833c23d5b2d3fU,
  0x3d1a96f8bd19b84eU, 0xbd0e4b86bda55f16U, 0xbdb2da19bd37d097U, 0x3bc818e7bb7f13f4U,
  0xbbfb9b4ebd9adbe8U, 0xbd3f6e28bd3656e5U, 0xbd6ca5a1bd2ab0dfU, 0xbd7e110dbac1c3ebU,
  0xbdb98363bd95962dU, 0x3c03d0ddbd143995U, 0x3d9381ab3c00df12U, 0xbcdf8292bc58c978U,
  0xbd6d1e85bc60713fU, 0x3dd4b02bbd477dd3U, 0xbc671cdf3d55a923U, 0x3cccfbae3ccafdd7U,
  0xbd7c67a4bce0b0f9U, 0xbd8271b2bd3be7c7U, 0xbdc4c5383d164de7U, 0x3dc54ec23cad5ebeU,
  0xbdc7f3abbd42bf6fU, 0xbd7cd95d3be69433U, 0xbd7deeebbd9b686cU, 0x3da3754e3dc58d16U,
  0x3d83f870bbae9a65U, 0xbda52fa33d04c8beU, 0x3c0a76843a6feb94U, 0x3e235525bcc8d5c7U,
  0x3e1ffa9ebd9fc5dfU, 0x3c8f00e43d194a0eU, 0xbd626ee6bd1c6f0dU, 0x3d36419cbd3b48deU,
  0x3bb5b962bd471523U, 0x3cc5a0723beecc82U, 0xbbd1c0dbbda2b0d6U, 0x3dd325f4bd8fa622U,
  0xbda31246bcc53456U, 0xbda93a443d27cab8U, 0x3b9357cd3cfffbadU, 0x3d9a887cbcb3f9c2U,
  0xbd9cc31e3cbe51bfU, 0xbd4465bcbd520388U, 0xbc03bbe7bd1c044fU, 0xbd81d132bd0ff68dU,
  0xbc485cf43d889fe1U, 0x3d98ef173bdefc61U, 0xbc48a623bd985a09U, 0xbd24b3853b38e019U,
  0x3be27b893cf75a91U, 0x3d4f7df93d1a3418U, 0x3da0e204bd2aee90U, 0x3cff61df3d95246fU,
  0xbdd5d2a93ccffa3cU, 0x3c89eb8fbcd19569U, 0x3c0247a0bd34e60cU, 0xbc06bd523d9c8e4cU,
  0x3da301d63d749aeaU, 0xbc51ee01bda3ed62U, 0x3de9c4073c6a10f8U, 0x3ccf36b8bc917905U,
  0x3c332c923c9e17a8U, 0x3c95dc2b3cab1916U, 0x3cd4fc1abd32d1e2U, 0xbd9f70c73d9254cbU,
  0xbd3a5a6a3d15c9c9U, 0x3dadec1dbd3136e8U, 0x3e27fa92bc2fd2aaU, 0x3b792d773ce02bbaU,
  0xbd8256cfbd1c044cU, 0xbd90474cbcf9781aU, 0xbdb58ddfbc2e0f38U, 0x3c4d6025bb52d2bbU,
  0x3d649ee23dd9fec4U, 0xbdbedc5bbcd9f192U, 0xbd138f133de7f095U, 0x3e0631d33d7b3109U,
  0xbd9a1cbcbd0bf800U, 0xbb509b603d6ec6b9U, 0x3d6853603c274000U, 0x3d2a25653b925081U,
  0x3b9f7ec2bd977ea4U, 0x3c83657d3d2ec815U, 0x3de703673c706200U, 0x3d8759583d9514dbU,
  0x3d48b1883d1adb06U, 0x3d86e65bbcaa8d12U, 0xbdc85243bd898627U, 0x3d1b04303d5a11bcU,
  0xbc9d31a6bcce249aU, 0xbd997fb23d2d0e42U, 0xbcedc546bb47562bU, 0x3da4c1be3ce59765U,
  0xbd7751bebd35768aU, 0x3d4b7acc3c358868U, 0x3dfaebea3dd3eea7U, 0x3d83dc233dadea9eU,
  0xbce67a923d8c166eU, 0x3a8bb8713d092a64U, 0x3d9865fdbda0a7d6U, 0x3d92fd413c9ca466U,
  0xbc8944cf3d698926U, 0x3d0ac0cd3bcbb408U, 0xbceeb466bcb10f18U, 0x3d3ebccd3d490c02U,
  0x3d8aca21bd6f8da5U, 0xbd50b506bc5df96cU, 0xbd16033f3daf1ca9U, 0x3d1eedfa3dfdb60bU,
  0xbc6c7a2e3c93fd7eU, 0x3d1bec503d33fa1eU, 0x3dec196c3cfa55c3U, 0x3d78cf183db6177cU,
  0xbd7b85e7bd35ca53U, 0x3bf77445bdada1e5U, 0x3d51eda3bd1342caU, 0xbdf782f73dd5b147U,
  0xbd90e20cbda1c8b1U, 0x3cf826e8bcd53252U, 0x3d277459bd84cb6eU, 0xbccb5d873d30bbe7U,
  0x3e1b23f73d20e55aU, 0xbb04f4df3d831cdeU, 0x3d3b22993bf09125U, 0x3d5c05823db18f68U,
  0x3c9f5b4dbd1bdcdfU, 0x3d3bef0dbd35f217U, 0x3d85056c3c64ee88U, 0xbd8dc7e0bc0ad56eU,
  0x3d871fe9bc8bb39fU, 0x3d11a100ba65fd6aU, 0x3c1aafd53d8c28b9U, 0xbe0178f33da03302U,
  0xbc9da481bcb75bc8U, 0xbc926b63bbac08c8U, 0xbcb4920abbb0d399U, 0x3cb7b9dfbb99bbf4U,
  0x3dc60c84bc712e9fU, 0xbbc99e54bd273fa8U, 0xba0b90f93a9f22ddU, 0x3d6420163d794ba0U,
  0xbd1fa8b3bda52855U, 0x3cdd4b1d3d652356U, 0x3d66ff4d3de0c130U, 0x3d1031aa3d1d72daU,
  0xbd91890bbd3a0f82U, 0xbca68a5ebd42b2a2U, 0x3d7ee0cdbd38d3f3U, 0xbd0de5403d2f6c71U,
  0xba0dec1dbc4a1e9dU, 0xbdab6148bce12ffaU, 0xbd6f9fa6bbed9fffU, 0xbb30d109bd53afc4U,
  0x3de6ecb83dd97e4cU, 0xbcfa6f5d3c8e3922U, 0x3c2759e1bc990003U, 0xbbeee37ebb0fcc88U,
  0x3d3d850dbd1708a3U, 0xbd0e5073bcb7665cU, 0x3d0772373db35be3U, 0xbc83f5a13dafa5c8U,
  0x3db70e523c7c417cU, 0xbd631266bc406a9aU, 0x3be2e78b3db6ba52U, 0xbcbb0cdc3d882cd6U,
  0x3da281dc3d04e358U, 0x3d90a6d63cb7e0dcU, 0x3db0411b3d6624c0U, 0x3d5e6daf3c31cd07U,
  0x3d643267bb39b5d7U, 0x3dbd27ec3c649752U, 0x3dcb598cbd9b33e6U, 0xbd95044fbd834ec5U,
  0x3c570e34bc79c6f6U, 0xbc7f91d6bbaf2afbU, 0x3bad9e133d50f007U, 0xbcd507403c276200U,
  0x3dbc0fa8bc0a58adU, 0xbcaccbccbb7ae9efU, 0x3d2f98bc3c59123bU, 0xbd2af53d3d5e6e3fU,
