/**
  ******************************************************************************
  * @file    network_data_params.c
  * @author  AST Embedded Analytics Research Platform
  * @date    Thu Apr 13 11:38:04 2023
  * @brief   AI Tool Automatic Code Generator for Embedded NN computing
  ******************************************************************************
  * Copyright (c) 2023 STMicroelectronics.
  * All rights reserved.
  *
  * This software is licensed under terms that can be found in the LICENSE file
  * in the root directory of this software component.
  * If no LICENSE file comes with this software, it is provided AS-IS.
  ******************************************************************************
  */

#include "network_data_params.h"


/**  Activations Section  ****************************************************/
ai_handle g_network_activations_table[1 + 2] = {
  AI_HANDLE_PTR(AI_MAGIC_MARKER),
  AI_HANDLE_PTR(NULL),
  AI_HANDLE_PTR(AI_MAGIC_MARKER),
};




/**  Weights Section  ********************************************************/
AI_ALIGNED(32)
const ai_u64 s_network_weights_array_u64[99605] = {
  0xbb94d6cc3b9f787bU, 0x3c07cf2ebcdef3a8U, 0xbd6d10343d52b45eU, 0x3c6f69163da1a9edU,
  0xbdab082f3de2320dU, 0x3dca6e43be15d6d8U, 0xbcc020683c0800dcU, 0x3de5098cbccad22bU,
  0xbb5a7390bdea17d2U, 0x3dbeb55b3c901288U, 0xbc832f86bd41a395U, 0x3d61e9483be67c97U,
  0xbdc6624abdc3bdf5U, 0xbcc0f6613d9419b7U, 0x3aa53eb73c73ab94U, 0xbd4c21fb3d4c4f00U,
  0xba4c25ecbd408e75U, 0xbcca239f3db9cb56U, 0xbc8c6e5a3cc568cdU, 0x3d86a8e93e0976a1U,
  0xbcb560bebd84f801U, 0x3b1d7f4b3ce3e4f6U, 0x3b58d278bd6c42c9U, 0xbdd372ff3d12f14cU,
  0x3df195e53d2041e6U, 0x3d976f443c4e3fdfU, 0x3de8d6d7bcf84369U, 0x3cb165823e1b59d6U,
  0xbcc73dadbcf0f5a7U, 0x3dcbad0b3cdaacfdU, 0xbcb16a193e17f2b8U, 0xbb009a043c88315fU,
  0x3bbb7d083df96975U, 0x3d894ef1bc0bc700U, 0x3de0ba72bd46d9a0U, 0xbcf13def3a422c70U,
  0xbd6439de3d02fac8U, 0x3e333a473e0ab2e3U, 0xbd8f46503cc6eb6aU, 0xbd4b597cbcd928a5U,
  0x3d38b373bd2b0e5aU, 0x3d6e03a03e151110U, 0x3c774eaabdb749dcU, 0xbd351596bd7a8a1aU,
  0xbda191193da377d4U, 0xbcd08ebdbd671b32U, 0x3dac527b3e0e9085U, 0xbdaac400bd32cf9dU,
  0x3c9ac9333e17469bU, 0x3e0818d7bd61a442U, 0x3da8174f3bf5cd50U, 0x3df71945bd791cb8U,
  0xbdc88a0a3d5911edU, 0x3e48f9e8bcd71c6aU, 0x3dcb19383d1df61dU, 0x3e0d2a1a3d5e8e0cU,
  0xbcbbd0723df25c24U, 0x3e10d11dbd88e1e6U, 0x3e4085c83ca61420U, 0xbd60148abc858ee5U,
  0xbd8781f6bc644b44U, 0xbbd9fdb2bdc7cff7U, 0x3c9372703db9ca47U, 0x3d5d09553da6df9aU,
  0xbc4c2c69bceb1984U, 0x3d1c562abc7776c0U, 0x3d66c3f8bc4db16bU, 0xbd549cb5bdce2707U,
  0xbdb0e8293d817eadU, 0x3dd4e56abda5494eU, 0x3daa9d40bcdfd74aU, 0xbd43d391bd25efefU,
  0x3d239e55bd3acc0cU, 0x3d0f3f4e3da03d0cU, 0xbd794987bc018b81U, 0xbcb7d6a5bd270147U,
  0xbd40f0e3bd54671cU, 0xbbe5b56fbd93e9f4U, 0x3caf27afbd4059f2U, 0x3db6ec47bb8b53c9U,
  0x3b0028dfbd1f1254U, 0xbd17f6503d40eeddU, 0xbc5ba4d43decc138U, 0xbd4f32ebbdb84f74U,
  0x3e0c93b13daca76cU, 0xbbdf182c3d80f006U, 0x3d85f5ce3d412b5eU, 0xbc9ed3aa3da60797U,
  0xbd4cb81d3e1a0e99U, 0xbd0ea3f73d8c5114U, 0xbcdee1a0bd2781efU, 0x3d817cf9bd8c3924U,
  0xbcc34be1bcc02f0eU, 0xbd46baa33d077c37U, 0x3e0dc5f0bdadbeb5U, 0xbd39857cbd1b21d5U,
  0xbc4e97e1bd1d3a7eU, 0x3d634bf03e30ab1cU, 0xbde43cac3dbf9d32U, 0xbd23732e3d5ad3d6U,
  0xbdf327d53e4ca818U, 0x3e0b16cbbd2b1fc7U, 0x3d39712c3de1ea01U, 0xbe1a09f63d130679U,
  0x3e0ee8e43ca553deU, 0xbe5e81283d264ae7U, 0xbe95e80ebe07bcf8U, 0xbd71a0333e4b2965U,
  0xbe04263ebe34f28aU, 0x3dcd87393ddc091cU, 0xbe07c1fdbe3f154eU, 0x3e18ca8cbec376c6U,
  0xbdb41f4b3d545809U, 0xbb43dbaf3e354dedU, 0xbe3120cf3e2cb857U, 0xbe25c10abe1e23e3U,
  0xbd47c92abe9e4c5cU, 0xbe363fe9be260c29U, 0xbe73d88a3e18ee21U, 0x3dda2e44be1fccd1U,
  0x3c7596c3be6d389fU, 0x3d3ae966be86d536U, 0x3e8a02dabe96e998U, 0xbe931e383e0f3518U,
  0x3e363442be927398U, 0xbe0f7515be5f81a8U, 0xbe9470853d0a7affU, 0x3de245e3bed07a04U,
  0xbe0a5f33beba0229U, 0x3e308e513e5e6699U, 0xbe35d429beaf8dceU, 0xbdef8ea63e21f1abU,
  0x3d6986cb3d27d6caU, 0xbdd832bbbe46b7b2U, 0xbda38ecd3c8cd4fcU, 0xbe2647d3be4508c8U,
  0xbdc2596c3dd67de3U, 0x3e6d00b6bc2d321eU, 0x3e81a6873c5e1dd0U, 0xbe2877213da6d6afU,
  0x3cf3b86b3d82c61fU, 0xbe9f7926be9e3b18U, 0x3dd9a4d3be322b4bU, 0xbe654e85bd8c83c9U,
  0xbde42390be00aceeU, 0x3e7f622f3e3f461cU, 0x3e661c4fbe51ea71U, 0x3e3fbdfe3db0fbfbU,
  0xbe4dca183d14d450U, 0x3de49eed3dcf97efU, 0x3d3e75913d96d70dU, 0xbd66c66b3c1b105cU,
  0x3e01320ebe63e502U, 0xbe0ed407be34452fU, 0xbea8ac2c3d9672a5U, 0x3e387ab13e342393U,
  0x3e4835303e4cad85U, 0x3d5bbda73e0ee8c1U, 0xbe9b0491bdc0ce5fU, 0x3e4123383e45886dU,
  0xbe4100bc3e4c8ec7U, 0xbd9de5cfbd8ccf0bU, 0xbde68ca43de8ad08U, 0x3ba63b4c3e20c2b4U,
  0xbe81f6c4b9cf82fbU, 0xbe2b5869be46b73eU, 0x3d2598ba3e5bbdc1U, 0x3d20ce6d3de58ed3U,
  0x3e3cf6733d8f1bf3U, 0x3d05c374be752b62U, 0x3d678889bde4569bU, 0xbe6b818a3e6ae6d9U,
  0x3e2abbbf3de6824dU, 0xbc665f48bd8893b4U, 0x3e53206d3e0092c3U, 0x3df101a33db9b877U,
  0xbe91f3ddbe289c76U, 0x3eac6ea23e144a29U, 0x3e196327bddbfd85U, 0x3e537f073c9ab684U,
  0xbbb24cecbded14baU, 0x3cc08abe3cfe2669U, 0x3e5a69183dee43e8U, 0x3e9bca2c3d7d3b7cU,
  0xbce05c46bdf1e36fU, 0xbde634fb3e27fcdeU, 0x3d837f7dbe9d8a52U, 0x3e092b213dc5086aU,
  0xbec00adcbe818f57U, 0xbe11e3aabeaf667bU, 0x3d2ace00be656d9fU, 0x3e46cc593e9645aaU,
  0xbdd9d67abdfe26eeU, 0xbe592339bb012230U, 0xbe4a920fbd32e052U, 0x3e1c3de7bd9474b9U,
  0x3c0094a2bd89b002U, 0xbeb39f43bd97d545U, 0xbd2838293cbac51bU, 0xbdd370f93d36210dU,
  0xbdc939573d0e5968U, 0xbe00a1593e0ec7acU, 0x3d0df2b73d8cdd14U, 0xbe3bc81dbe24aa41U,
  0x3e179c51be26e16eU, 0xbd0dd79e3d8c6770U, 0xbe5ee2243e2b643fU, 0xbd043b433c8e62fbU,
  0x3c7536143cb0c30aU, 0xbecce31cbe8919f4U, 0xbe85f0c13e3da4aeU, 0xbeb8f9d13e046249U,
  0x3e1b89593dbdbd7fU, 0x3db4e3f5be8f06b5U, 0xbad7971d3d965749U, 0xbe0401e4bdfe3f99U,
  0xbe54e110be693f9dU, 0x3cd6fc093dd22ea5U, 0xbe049677bd29e0b8U, 0xbed219d93e5caa95U,
  0x3d1efb853e3fff9eU, 0xbe66d3d7bdd2a205U, 0x3e32f2343e75b01dU, 0x3e827c3c3d5261ddU,
  0xbdebac88be3e14cbU, 0xbe898325bdbbbb8fU, 0x3e18b048be4b3b08U, 0x3d6c9f09bc7ad6daU,
  0xbc0b14323e5b2363U, 0x3e35cd5cbecced91U, 0xbdfdca29be2740f3U, 0xbe551fa4be91c7f5U,
  0xbe105822be98d0c2U, 0xbde0f17b3d9e36f2U, 0xbe85aaccbc63ea57U, 0xbe70212abe68d19fU,
  0x3dd20e22bdddac63U, 0xbcd2a87fbe718dc0U, 0x3d584e88bc421affU, 0x3d18cd91bdf0a689U,
  0xbe2a949dbdec1472U, 0x3d0366fcb998b3dfU, 0x3de2796a3df91b57U, 0x3dd843753ccfb125U,
  0x3dd82f43bcea8a31U, 0xbd42c73b3e195fdaU, 0xbdb9e259be9a2144U, 0xbdca05bdbe3c8ac4U,
  0xbde10a0f3dbc1afaU, 0xbed11dd23c19b2b1U, 0x3df7bd513e2ed76aU, 0xbe02a80a3e9954b4U,
  0x3d2bef273d19c910U, 0xbd9d9f99beb35824U, 0xbd9b50bebeaa5588U, 0xbe29568b3d2bcb04U,
  0x3d48955ebe65f0eaU, 0xbeb13a403dc82097U, 0xbe116a483e7a284eU, 0xbe6e66bdbe9b3a71U,
  0x3e405d993d3d886cU, 0x3de4402e3e467c4bU, 0xbe1698b8bddce2ecU, 0xbe8eb4fbbee3f05cU,
  0x3e5c88083ce8bdabU, 0xbd515a35be71f6f1U, 0x3dc2ca57bec1efb6U, 0x3ddca9353e8d3cefU,
  0x3dff8a82bcef1d6dU, 0xbe316cf53e530071U, 0x3e12fedcbcae7663U, 0xbda47806bc269b7dU,
  0xbe811d03bd845b86U, 0xbe0eb9123de4deefU, 0xbde0d1eebe27c18bU, 0x3d74f7babdf1069fU,
  0x3dd79e37be39b421U, 0x3dd9636cbe16994bU, 0xbed6ba6cbe956492U, 0x3d0c17eabe4c77c3U,
  0xbc5861fbbe19710bU, 0xbe3f140fbdff0b59U, 0xbe4915f4be4e96a0U, 0xbdc008c53d45fcd1U,
  0xbdd7e3debd54ef67U, 0xbd03beb1bd079082U, 0x3cbd23723da7d57eU, 0x3e743b41bea4ebc2U,
  0x3e6fa3ebbe96f322U, 0x3e1dd8bb3e41e1ecU, 0xbdbb8fddbcd91059U, 0xbe0cd0033d76e9fdU,
  0xbdf41e883e336f6cU, 0x3da30fedbde7a1dbU, 0xbe32ad03bd3dfe3fU, 0xbe5db55c3e3f92fdU,
  0xbe216225bc8db5adU, 0x3de49d44bcd42862U, 0x3e51d492beaf3efbU, 0x3e71c846be8496daU,
  0x3e8344e13ccdb77fU, 0x3d1bd48cbe73ecbaU, 0xb9292c0d3de0c74bU, 0x3e3a26fc3ddecbc6U,
  0xbe8209083e12ef7eU, 0x3e062cc83e0b19b9U, 0xbec2969dbeb089c6U, 0x3dc2cc96bdf4b0d5U,
  0x3e86869cbe01caa4U, 0x3d8a7af33c4d60d8U, 0xbee1d507be7a539eU, 0x3e7e29de3e15bda9U,
  0xbd944bc93ba40ea2U, 0xbea244ee3de6c21dU, 0xbea8adf6bdb4314aU, 0x3d601f2a3e125423U,
  0xbbff2d86bd0bed49U, 0xbef4163cbea5c0b4U, 0x3e81aa5dbeb28050U, 0xbe28faf3be20925bU,
  0x3d7bbf62be3718a4U, 0x3e198142bbd27c57U, 0x3e2ceb94beb904c9U, 0x3e2b33163def3920U,
  0x3d97f134be9088beU, 0xbf09be71bdef50a0U, 0xb9f00bdcbe72a1efU, 0x3d15d1c2be51afcaU,
  0x3db3e3953e353620U, 0xbe41b60ebe42ab5bU, 0xbe59293f3d7f56d3U, 0xbd8e80563d5763cdU,
  0xbd55d23abdf06d5cU, 0x3e0d844d3e297ebaU, 0x3da25f9e3d7c0514U, 0xbdb549583dbb3235U,
  0xbe09ba2dbeb2169dU, 0xbe6e0c30be36081cU, 0x3d1594613e6c44fcU, 0xbe2f82303e1aa8dfU,
  0xbde581d2bdd684beU, 0xbe2b96993dbfc19fU, 0xbe7de4dd3debd1fbU, 0x3e0d498b3d9cda37U,
  0xbe2e43ddbe927555U, 0x3d47bebabda9289eU, 0xbdec22ff3e5d5b9fU, 0xbe8d184dbe30806eU,
  0xbc101cb33d49a8bcU, 0xbbb52899bde6e0caU, 0x3da9051dbd5b9896U, 0x3e70349abd2361dfU,
  0x3da623243cf10eb4U, 0xbe874d883d417d65U, 0x3e3a3785bb5536baU, 0x3d8af23e3d986c15U,
  0xbe8294213d830f19U, 0xbe2f25d2bc8a1f3fU, 0xbeb8d84ebea3abb2U, 0x3e787848bdf94d84U,
  0xbdf1fa16bd8cc9adU, 0x3dd740f93e1bf6b6U, 0xbd5da7ecbc8298acU, 0xbdc69a683c58f07aU,
  0x3c2cc7a7be1d3d46U, 0xbdaab77a3e73091dU, 0x3e17faafbe90c5b5U, 0xbd34a20abec1606fU,
  0xbe5d4205bde64949U, 0x3e65d98b3e841129U, 0xbe742bbd3d2931b0U, 0x3e17929a3e81ddacU,
  0xbda13ac33d65b008U, 0x3dde691f3e2a6c88U, 0xbe834d24bca56b53U, 0xbe64cfa5be280a77U,
  0x3dd243f9bd3ad980U, 0xbe1379373d4e8b5eU, 0xbdd36a783e7f31c8U, 0xbe089c3fbe0d953eU,
  0x3e7bc7e4bd3d2ce6U, 0x3e281b92be4edd7aU, 0xbd578c7c3e2e2146U, 0xbd8487e43d93af1eU,
  0xbe4ade19bdf8dbe3U, 0xbd687b613cf9b146U, 0x3d99406b3dee1bcfU, 0x3e492dbc3de7918eU,
  0x3d9d6385be0a9d39U, 0x3d8e6a1dbc47ace4U, 0xbe263ee33ea7bf3bU, 0xbb86d524be115320U,
  0xbed7d7cabd27b186U, 0xbec1cec03e14f59fU, 0x3db65c4a3d90ad21U, 0x3e3fadb8bdeefae7U,
  0x3d8df5413e22fe82U, 0xbe354a663d9ac336U, 0x3ca539553e1927bfU, 0x3dbadc2dbdd2fb93U,
  0x3d8e8f8bbe4a4cb8U, 0xbdabd03cbe6ad7feU, 0x3d0d7b5ebdd09fc8U, 0xbd9d3cd53d9704eaU,
  0xbdc711b73d5e4910U, 0xbe04f6243dde2171U, 0x3de10a863e01d081U, 0xbea92d463deafccfU,
  0x3e5b6a563d42e318U, 0xbdfaca2dbbe49a94U, 0x3e882364bea1041fU, 0xbe536ae43e0ea35eU,
  0x3d7941a83e181c7aU, 0xbd74ecba3e012e4cU, 0x3e76922cbec35a1cU, 0x3de46f00bd2aa26aU,
  0xbe6cb5093e1f4ba4U, 0x3e245f263e8237bcU, 0xbe5f5cce3e0c44ecU, 0xbea348d3be5ea785U,
  0x3c9f0753bec8c8c4U, 0xbe56737a3de64b10U, 0xbe51773abe9ad3acU, 0x3e08841c3d861bcbU,
  0xbd86c4a23e340367U, 0x3e0504f13daf7880U, 0x3c5bbce83e3c6f02U, 0x3d48e820bde13c93U,
  0x3e05eee8be0479e9U, 0xbe8e1869bdf514adU, 0x3e1665143e0e7459U, 0x3dbc755cbd2cfef9U,
  0xbe19e3ea3e0e5ac3U, 0x3d7fc175be0759a3U, 0xbddaa8a03e34eef4U, 0x3e8ab782bdc62aa2U,
  0xbea7a4efbeab8980U, 0xbe7b0dc6bd61f190U, 0x3cca7a88be8a8bf1U, 0x3e041ce13e0748a6U,
  0xbe4c25d13dbc1fa6U, 0xbd773df73c3229d3U, 0xbe38f965bed2e98aU, 0x3ca8a62c3e43ee0fU,
  0x3e1d71b43e56cbd8U, 0xbd245a8abd887cbfU, 0xbe37428a3e31b743U, 0x3e126bd73d63c13aU,
  0xbdb8ea6ebe8769c3U, 0xbdfc62d53b9212cfU, 0x3e62e81abe7ebbe0U, 0xbea71658be852583U,
  0xbdfcab95bdcd168eU, 0xbd5962023e638f6fU, 0x3d45571aba40167cU, 0xbd800cfe3d02334dU,
  0x3ce7bd633da087fcU, 0xbc9de72bbe20df37U, 0xbe288d8d3b38e5dcU, 0x3e217d92bda58dedU,
  0xbe6cbaf93d228fc7U, 0x3def7b223db5947dU, 0x3e37ec79be141659U, 0xbe717c6dbe1a4a98U,
  0x3c97cd9c3d2a1429U, 0x3e659540bdf124ceU, 0x3d957b4e3d1fe981U, 0x3d2665633d932836U,
  0x3cd9200b3e5ced1bU, 0xbe121564be511693U, 0xbeb1f81fbd9f88c4U, 0x3dfb00e43db53cbaU,
  0x3e0948d6bc2491deU, 0x3e3377b1be04fd2aU, 0x3e55acc2be8d5f92U, 0x3d466ff5bbbced8aU,
  0x3e54feaa3e448f87U, 0xbe63d5533db5ca70U, 0xbcb7dc2ebe0b30f8U, 0xbec20f5c3e1c273bU,
  0x3e322b31be7eb25cU, 0xbe197840be872016U, 0xbe9d15223d40aa4dU, 0xbe3a266f3e19f0b6U,
  0xbd0062f4bd140d4cU, 0x3e1c6757bdd28c68U, 0xbdd086893dc293a4U, 0x3e04f28e3e82181dU,
  0x3df2b779bd9143c9U, 0x3e3f197e3d64b0b4U, 0x3e21cd75bda88621U, 0xbe082d1d3da8c158U,
  0xbc7ca6e0beb00f64U, 0x3e08241ebbd5784eU, 0x3db97d15bd374e38U, 0xbca6f68c3e04d3f5U,
  0x3e61b847bd45fe74U, 0xbe41dcb9be00d3d9U, 0x3db0ad2c3e7b50d5U, 0x3e0c3fce3dd12986U,
  0xbec91b5ebe94807eU, 0xbed4d584bd3d4c6cU, 0x3bec76533e239b68U, 0x3e3a866c3dd946e0U,
  0x3e4fe9b5bead6a14U, 0x3e48adc0bdcd194aU, 0x3ccd27a03e2a0b17U, 0x3d7ec3d9bea06789U,
  0x3e167f44bebcba71U, 0x3d710df0bed3a99cU, 0xbe2f06733d7e70b3U, 0x3da364cabe7aff97U,
  0xbdff9ab63deba906U, 0x3c1aed4cbea809d8U, 0xbee94f803da29054U, 0xbbaddfe83d4464f4U,
  0x3e475b433d8e473fU, 0xbe7201be3dc66659U, 0xbe349e20be0896d0U, 0x3e3a41493e867b97U,
  0xbd942a36be1fa271U, 0x3db9f4c13e216e25U, 0xbe6ababcbe8a2d39U, 0x3cdad6a23c30d4a8U,
  0x3e0841acbec7d7ffU, 0xba2860c13d812c98U, 0x3dd1df86be904339U, 0x3c177fe73dc269c0U,
  0x3d7171f8be9ac0acU, 0x3e8123323e64ff09U, 0xbe0d8b66be6207beU, 0xbdc7b9cdbe1d53c9U,
  0xbd3ab7dabe691f3cU, 0xbde6cc4e3e89d9adU, 0x3db26fee3d65fea8U, 0x3d22293ebd724f94U,
  0x3d2f55e8be9d4b54U, 0x3d940134bd1720d7U, 0x3e2c77b13dcc937bU, 0xbc9f6d053d9a3b50U,
  0xbde6e6c7be23bf36U, 0xbddb77163e4174e8U, 0xbca6b104bdb8ee6bU, 0x3d271267be133901U,
  0xbdc07cdabd3f62d0U, 0x3daffcf9be2b6b46U, 0xbe0e6d68be2097dbU, 0xbb63c32dbc9ac719U,
  0x3eb0319d3e2abfd1U, 0xbecab7d1bddca633U, 0xbefc3a37be51db95U, 0x3e31d9c63cd41328U,
  0x3dd07dfc3e77c131U, 0x3e250e85be65435fU, 0xbe39ea243e337616U, 0xbbc866243db47acaU,
  0x3e4d7aacbe33c232U, 0x3d358410bead794aU, 0x3d840e033e6141faU, 0xbe7861973de9b3a1U,
  0xbe02037fbe933630U, 0x3e88adae3d980ed9U, 0xbeaf132ebe174a6aU, 0xbd19d8b7be2da36eU,
  0xbd89aa543d66508dU, 0xbaa6bd67be8dc572U, 0xbe9b8ee63d9e30d8U, 0xbdb5e9133e2feefbU,
  0xbdf4ac40be85d8c0U, 0xbe464e99be8f00ecU, 0x3e6c6602bd978e8cU, 0xbdd7fce2bea58d0fU,
  0xbe437fa13d3411ceU, 0x3cca4d0ebe4594d0U, 0xbd27d586bc3c3f52U, 0x3e1374d3be589ee6U,
  0x3dad9b4f3da4e737U, 0xbc478ddbbd8462a8U, 0x3c74095abdd01c7bU, 0xbd81a536bdb546ffU,
  0xbbdf1dccbd8cb052U, 0x3e0ea7773e1eb892U, 0xbed770ec3e415b72U, 0xbe86b93d3d8cd2e1U,
  0xbe7450ecbcd50db4U, 0xbc0e742ebe42aad3U, 0xbe16f03ebed6f5eaU, 0xbeb39c00be506561U,
  0x3c587782be6203d8U, 0xbccab05d3e1c8f45U, 0xbdfc0f73be7f8b32U, 0x3e5350383e356226U,
  0x3e3477fa3ea4190eU, 0x3d9f40c5bd63a81fU, 0xbde52efebdccc085U, 0xbd5f0448bc90e4f7U,
  0x3e79ada33dca8273U, 0x3e87fdce3c57489fU, 0xbe4d4852be7b44e9U, 0xbe200461bcd02c7eU,
  0x3d8960db3e0e65e6U, 0x3e1540193e38a4a6U, 0xbdb97e1c3d0a724eU, 0x3a6582c03d8e3008U,
  0xbe2b63443e3c8a8eU, 0xbe26d176bda8f040U, 0x3e2eb2353dae468fU, 0x3d2f3f9f3ce2cfb0U,
  0xbea368913c5b9544U, 0xbb85c97a3e1fbcdaU, 0x3e515287bc19b4dbU, 0xbe8790893ca240b9U,
  0xbe458985be51fc23U, 0x3e121f0cbd9ad1d8U, 0x3c9ac792bd73f0adU, 0xbca1ff153d908dd7U,
  0xbea2e8ad3e41d87cU, 0x3e4b72dd3e478f8aU, 0xbd0e9b07bc592c08U, 0x3e04bde1beb5e699U,
  0x3b2731c43df8a9f1U, 0x3d9ec2d63e5b0b63U, 0xbd8cad013e93bb68U, 0xbdcd2a65bd070425U,
  0x3e2cd16bbd8d8938U, 0x3e0c3e4cbe37f979U, 0xbe928e223e35209aU, 0xbe87dcae3e1f711dU,
  0xbe69a3033dede419U, 0x3d7147263d8a1dabU, 0x3e34f7143e5b592cU, 0xbd8a399e3e7a11cfU,
  0x3e7c1f3ebe16ea3eU, 0xbcbab91abe17a3eaU, 0xbe05c4e6bd42a7d7U, 0xbe0e7fcf3cc397aaU,
  0xbea2f5b23e8f6593U, 0xbe43b696bd8f81ecU, 0xbe8124bfbe6de4d2U, 0x3d4008c6bd0df1baU,
  0x3e1ba812bd0f37b1U, 0x3e5618f03e1becf8U, 0xbeaa645abe421666U, 0xbe70adae3e4ebb16U,
  0xbdb6d6d2be3e68c0U, 0xbe8e28793e821c9aU, 0xbe8720d03e310b12U, 0xbd569de63e13f8f6U,
  0x3dff04d1beaa4178U, 0x3cc84cd1bdf726bbU, 0x3e5d2e2cbe62b186U, 0xbe0846c43e8058cdU,
  0xbe0a4159be924d6bU, 0x3e3f2ed63bf79f22U, 0x3e35b93c3de020d8U, 0xbe1061c4be87f3a8U,
  0xbd01644ebe904b08U, 0x3e3f88343e1adfacU, 0x3e6f54ae3d9f86a1U, 0xbea762d4bdab3828U,
  0xbe8e83afbdb1fdb4U, 0xbe1e236abeae0328U, 0x3dcb5971be8dde49U, 0x3da73dca3e0fd521U,
  0xbdaee3683de09ee9U, 0xbe51cda1bd6594ceU, 0x3c1c1fcd3e29cd54U, 0xbd1e6d3fbc54be47U,
  0xbde2d69c3e46422aU, 0xbd62e06f3e408685U, 0xbd6301d8bb68eb46U, 0xbe3a36a0be877d68U,
  0x3c8301553cff1747U, 0xbd346584bc9f75d2U, 0x3cead929bde8b3dcU, 0x3db2eef7bdecb064U,
  0xbe9e25aebe426867U, 0x3d069978be0af02dU, 0x3e43800d3ddfaef1U, 0xbd7a5cb93dcd5d66U,
  0xbebcadc63d6bdf28U, 0xbdadd4d6be5da017U, 0xbda9f5afbe0e5578U, 0xbdb12b203dcd719dU,
  0xbaa82019bec65e1eU, 0xbe3b2e6ebdb603c0U, 0xbc7880fe3d98e24aU, 0x3e5cd2293e6f9751U,
  0xbe0ef7f93e319276U, 0x3e1d4d463e355405U, 0xbde1dbc43da0726aU, 0xbe30b567be171913U,
  0xbe81a7253e7c93c0U, 0x3e23473dbe2f98f3U, 0xbe816787be2cd40bU, 0xbb613885be4e2d05U,
  0xbe8ce9edbe06c260U, 0x3c72b406beaa36baU, 0xbe1c49e1beb54054U, 0xbd94b6933e6d4944U,
  0xbd86b14dbe1d610eU, 0xbe24581a3e920b08U, 0xbd176eb8bda7338fU, 0xbdee30bcbe4645fcU,
  0x3e74b21cbdcb8367U, 0xbd66d760bcfa9531U, 0xbcca8729be3f2597U, 0x3e6593aabddb1814U,
  0xbea5c0093e1a44a5U, 0xbe4b5de23d3e3164U, 0x3defb8d8bd21bd6fU, 0x3da41d023ddd707eU,
  0x3d43c654be137c94U, 0xbd25799a3ab0b109U, 0xbdbbeac03dccf214U, 0xbe146720bdc9c40dU,
  0x3e1975283e165509U, 0x3c853badbdea0b68U, 0x3d78e563bd0fa5daU, 0x3d449e9abe6152d2U,
  0x3b8278d0bd274490U, 0x3e7fa1fabdcc2e96U, 0x3daba4a0bd62294fU, 0xbe8741bbbe505d78U,
  0x3e379681bd65b47bU, 0xbea060d9be1fb043U, 0xbeb413f53dcfbe94U, 0x3df980a6bdbcf864U,
  0xbdb0ff7bbd3eeedcU, 0xbe4d07dfbe02dc80U, 0x3d61ce533c21f00cU, 0xbe06f5fc3e6e5ff9U,
  0xbe659cf9be13501dU, 0x3dad40323e896cb1U, 0x3d9c32363cc05ecfU, 0x3de3fd693e7a1c93U,
  0xbe4e73873e612090U, 0xbde5796abef3277cU, 0x3e3c551f3d7e627eU, 0xbe0dea71be48ca41U,
  0x3e892023bde6747fU, 0xbe94e7a43e3365c6U, 0xbe500c2b3e29b3f7U, 0x3d11e069beb6ad7bU,
  0xbde85cd1bda40988U, 0xbe19e0523d99b219U, 0x3a58662ebe0b9b4eU, 0xbdb49c4fbd53903eU,
  0xbbe363d83e1c8f9aU, 0xbdef49293e1c7c88U, 0xbe04f7bd3e65a09eU, 0xbe3e429cbe7c4d03U,
  0xbd27bd30be8522aaU, 0xbed36d68bdb7128dU, 0x3e46b60f3da38f37U, 0xbc3ddeddbe1818d9U,
  0xbd540e9dbea0d9f7U, 0xbdd7e51f3d854f9cU, 0x3dd534153ddb8eb2U, 0xbcc4a0283e382c4aU,
  0x3d570ad4beb35d54U, 0x3e6bc03bbe499835U, 0xbe16d137be2ce337U, 0xbdedde6abddcb647U,
  0x3dadf936be0b88b9U, 0xbecc8f173dfd9527U, 0xbe90910f3e3b0b51U, 0xbe22f24cbdba4044U,
  0x3e98ef51be81dc0cU, 0x3e6a26533dd8323bU, 0x3e360fbc3e0e8f5fU, 0xbe97cc1e3c306717U,
  0xbdf8f853bd7192b2U, 0xbe93c3bcbd78e805U, 0xbe76139b3c01993dU, 0x3d672381bcae51c5U,
  0xbeadcc7c3e8132b8U, 0x3e25a0863d9d17b0U, 0xbd231c2cbe67aefcU, 0x3e3c7f39be3d1052U,
  0xbea1771abe2c0d88U, 0xbda8a80e3e6a8eceU, 0x3d496437be993518U, 0x3dc652c83e044eeaU,
  0xb8ea15a6bcdafe46U, 0xbe2983123e02ee79U, 0x3d200ac43e6b2803U, 0xbe60dc913d45814eU,
  0xbc3befafbdd16046U, 0xbe88fe55bdcf4ccaU, 0xbe0b6ad7be408997U, 0xbe6c30573dbef091U,
  0xbb0a4cdfbdea03a5U, 0xbeb91deb3e198924U, 0xbed803e9bdf9810bU, 0x3e285441bec53620U,
  0xbe4c73ff3d83fe46U, 0xbddbf4febe490352U, 0xbe7c6ea5be8e8459U, 0xbe2c96843e80a86cU,
  0xbdfec0d53e57f51eU, 0xbd154870be371d4fU, 0xbd4b0285be052f1dU, 0xbd3aa934be87fa1cU,
  0xbda13fbebecb167fU, 0xbe8788483dc29cbeU, 0x3e9e74813e2caa05U, 0xbc5ebab33ddb074eU,
  0xbdeef755bd71fac7U, 0x3e35ff993e139951U, 0xbdfd050c3ddd2236U, 0x3d002d7fbd8e157fU,
  0xbe177db43d2a689dU, 0xbdcfe83fbeb0275dU, 0x3e1fbde7bd7c68f1U, 0x3d3bc16abe7e01cbU,
  0x3e4fdd813dcdb7a7U, 0xbe6973f0beba5c6aU, 0x3e875533bee7c303U, 0xbdbc1f09be8d22e2U,
  0xbbec8edbbe26c06cU, 0xbd44e9583dca6d13U, 0x3e0b669bbdc5e3d2U, 0x3ccfe8ecbe8223eeU,
  0xbe623f11bd39d86eU, 0xbc9e32ca3e789141U, 0xbad0858bbe426ed3U, 0xbe5b4359be955f61U,
  0x3dc6c6ed3de1533eU, 0xbcf51a9dbd8ca8c0U, 0x3c6f6832be46d8c5U, 0xbe5458d93e19854fU,
  0x3e0a94dc3dca03a4U, 0xbd925b8a3d9046deU, 0xbea34c72bd820862U, 0x3e11d94cbe952c33U,
  0x3e30c7a73e8bcf80U, 0xbe84cd643e1c6d65U, 0x3df7f23e3dceb839U, 0xbe0770f33e58bbd2U,
  0xbe7bc750bc5cd0a9U, 0x3db8a5acbddd8799U, 0xbd9ca73d3e2601bcU, 0xbdce9dc23dee4312U,
  0xbe0e2c1ebd5f8ab6U, 0x3d6ac038bcbf8e8bU, 0xbe8233333d5667d1U, 0xbea607fa3cf157f4U,
  0x3e43d883bdf5ce4cU, 0xbeafc7bdbe30537aU, 0xbd8836073e1b7942U, 0xbe86e8513e1bf577U,
  0x3dffac19bd828a27U, 0x3dfa04063df0270dU, 0x3dd960c2be4b2a21U, 0xbe9c8e3dbdb76948U,
  0xbdfe0154be6e0ceeU, 0xbe24b2bdbe9737e5U, 0xbcdab00bbe399482U, 0x3e1700e23d411de8U,
  0x3e852ddabc96fcafU, 0x3cacc11f3df0bbd9U, 0x3df544793dec469bU, 0xbdf278793e2d6a33U,
  0x3df965b93dd007cbU, 0x3e190a483e732251U, 0x3e537ea83d83c326U, 0xbd8f941b3e62ccb4U,
  0xbe24b9383d950e7aU, 0xbed190593e452b07U, 0xbdff78c63d081b72U, 0x3e9e0a01bdaf2a60U,
  0x3e2f3dfebd1718daU, 0xbe63288c3cf1c46dU, 0xbe44e3d53ce3131bU, 0x3deb8cddbe736785U,
  0x3e64befbbd623f59U, 0x3af14d5fbd2b387fU, 0xbe8d2fcb3e3bcb2cU, 0x3db6b622bd91ab46U,
  0xbd492e3abe19b0e2U, 0xbd1a43fcbd13a0e6U, 0x3eb42976be050b43U, 0x3ea1513e3da4dbf2U,
  0xbe8a1e093d907682U, 0xbc92911e3df92ad4U, 0xbeb6ae1fbeabe3e2U, 0xbee0abddbe84ec15U,
  0xbe0f4bce3e060105U, 0xbe3d7be9be444d8dU, 0x3d85886f3e99a6c0U, 0x3e2406abbed5f6adU,
  0x3e0a2311bd975e76U, 0xbd188aa73ddb039aU, 0xbca8a02cbb6d10c8U, 0xbe655deb3e228198U,
  0xbdbda6abbd00e497U, 0x3e0bd142bddc2dc0U, 0x3e69f0343dca1b80U, 0xbd13f4703e0c6b5bU,
  0xbd9d4483beb4260eU, 0xbec55033be0f0ed2U, 0xbe1d44fa3da10881U, 0x3dc2e7953d0fda91U,
  0xbe4988043da450b4U, 0x3c6ba06fbdc22a3cU, 0x3dde84b23c7f460cU, 0x3e0d0dddbd4c960bU,
  0xbe8bf75abe04cdabU, 0x3e008e68bde64369U, 0xbc6b5de3be7f57deU, 0xbe115f833e452c6eU,
  0xbe313d76bdcf7439U, 0xbd4e87bd3ddf21e8U, 0x3d5f946e3cb86dc5U, 0xbc3380133dee530fU,
  0xbd061fbbbe11ef30U, 0x3c4078a83e84e9c5U, 0x3e52bd623d17d629U, 0xbe9591a63e8140fdU,
  0x3d2e4528bc918599U, 0xbe16e027be7180deU, 0x3dee7c4cbdd1e8caU, 0xbe38f89a3e009ee2U,
  0x3df197953e29056cU, 0xbd4348973d141fcaU, 0x3e09ea76bd032d51U, 0x3e1ce85a3e16bef8U,
  0xbd8e813b3d52279cU, 0x3dc0698fbe63cc58U, 0xbdd07a183e2972b8U, 0x3e2027f23dfdaf10U,
  0x3dbff0f23e758ed7U, 0xbd4b7e5abe4cf04cU, 0x3da40c05bcd92d42U, 0x3db92102bd44c4e3U,
  0xbebaa1c6bbf86e7aU, 0x3e266fb23dd4b2c0U, 0xbea58a3bbe8bcb9eU, 0x3cead5a5be5064bbU,
  0xbc31e82a3dd12794U, 0xbdd7d42e3e8a4907U, 0xbda0b75ebd92dc22U, 0xbda0d5efbe5b1a3eU,
  0xbdc3f6613e9d6c4eU, 0xbe6d1756be49035eU, 0x3d8cb7ff3e3f98f6U, 0xbe4b2be4bdca48feU,
  0xbe1d94b03e6e8570U, 0x3da5a8cabda484d7U, 0x3e51cb0b3e6602f5U, 0xbc6f379ebd643119U,
  0xbb0867fbbc120151U, 0x3de5607abe8646eaU, 0x3dda8addbe882db9U, 0x3de8cdd13e5f002dU,
  0xbe6532853e04a632U, 0x3d3c42debe2a63d2U, 0x3e5e4ef03dd1337fU, 0xbe19c9da3cc5e975U,
  0xbe8bdd8cbd3c910aU, 0x3dc6d47dbd996cefU, 0x3d8e8d8a3db35166U, 0xbd295226bdb690e7U,
  0x3e305093bd1fdc6aU, 0x3e1a2771be2d576eU, 0x3e287b47bd2634c2U, 0x3be2abd2bebb95f7U,
  0xbe323f233e3e8aedU, 0x3e24ab8ebe0d5c1eU, 0x3d1365dd3e09c828U, 0xbdaed489be00d553U,
  0x3e0a912b3c697275U, 0xbc7ee0053e810b96U, 0xbd01ae5c3e1eb58cU, 0xbbf7eed8be29727eU,
  0xbe66c94ebdc8328bU, 0xbdaab5243db690b4U, 0xbceed8893dfe2559U, 0x3e5fc0d0be8808e8U,
  0xbe01c0d53dc14f93U, 0x3db4eb003c0ad6c5U, 0xbef2d4e53df076acU, 0xbed328d4be3b5191U,
  0x3e3cfc313d995181U, 0x3e24532c3e0a80a6U, 0x3d99061d3e4c4bc8U, 0xbe12bfd93e3566fcU,
  0x3cd71f473e6c0787U, 0xbdac907e3dcb9d42U, 0xbdb327b739d0eeb0U, 0xbe41a129be20b105U,
  0xbcbf6f5fbed5602aU, 0xbe1ad0913dde50a9U, 0x3d83eb5e3d4fd527U, 0xbe688b273d0c763eU,
  0xbe4eb0763e11cb63U, 0xbe23fed13e929360U, 0xbe4df9913e1e1f6aU, 0x3de407293e4b9a6dU,
  0xbee60329bdd9c3eaU, 0xbe1431f23e479299U, 0xbdfe41c3be5a826cU, 0xbd7c06fcbe1dec35U,
  0xbd1827c4be8654f6U, 0x3e435413be91a9a3U, 0xbdf39f5a3e37480fU, 0xbe3207933e653079U,
  0x3d2dee6bbe7f3b7cU, 0xbc45eecf3d0b772bU, 0xbd9634603dfdcde8U, 0xbc223afabd9d1fb1U,
  0x3db2e064bea52826U, 0xbe53b1e7bdc65e9cU, 0xbd9566923d5683a2U, 0xbd3216793c8faf0aU,
  0x3e1e5b823e4a147fU, 0x3e2f38e23e7223a8U, 0xbddda5393bec41daU, 0x3e4d5d383e02bdd8U,
  0x3d776c743d721982U, 0xbcea2b153e5b07aaU, 0xbea7542cbd1b8730U, 0xbe98aaf8bd8ed6a9U,
  0x3dcfb37cbdd311c0U, 0xbc9af0dc3e1ed0ebU, 0xbd429df4be26d0edU, 0xbea8b7843e7b4becU,
  0x3e21ed79beb514d1U, 0x3de1d17dbb4292e1U, 0xbd2236d1bdf6658aU, 0x3c675a3b3cc203aeU,
  0xbe52ae193d8027b2U, 0x3e2272d6bec442faU, 0x3e150d64be262856U, 0xbea0af633e584399U,
  0xbcab9691be3cd300U, 0x3db445b33e869d4dU, 0xbe61cdc33db31903U, 0x3da68280bcba2295U,
  0xbe39dc293ddf7f80U, 0x3e327a1d3dfeb2a7U, 0x3ea0c5bf3d8115a9U, 0x3c748a343d6e1cfaU,
  0xbda8b8aebe84ed01U, 0x3e862c7e3dda13d1U, 0x3d220f003e2a80caU, 0x3cc822b0bd599603U,
  0xbe24ac0e3df416c5U, 0x3e93ad2c3da18ac8U, 0xbba6e85fbdace120U, 0x3e1d8651be580ac6U,
  0x3de767f63a1dca5dU, 0x3e6d70dbbc504c70U, 0xbe8ceef23e2a6cc9U, 0xbe672332be835263U,
  0x3e42e4353e83e8e9U, 0x3dfd7e19be995f47U, 0x3da4523abb9e7508U, 0x3d4fe47e3d7b73d5U,
  0x3e437dbd3e02f09cU, 0xbec9c74abec3d735U, 0xbe00080c3e138451U, 0xbda84d783e6b30acU,
  0xbebdadf73d18069dU, 0xbdffb4243de453e5U, 0x3d1fda3a3e16adabU, 0x3a83d2c43c085628U,
  0xbddf17613dcff9b0U, 0xbe1d0991bda4c3c4U, 0x3e6d1557bcfbe54aU, 0xbf1e4a2e3e2800a9U,
  0xbd889bcc3e158ae1U, 0x3d8b9370beb18ca2U, 0xbd0c21543de0be96U, 0x3cbf81b9bdc46560U,
  0xbd68256bbd1ad2d6U, 0xbe6261703d977f84U, 0xbe4b9170bebd2c97U, 0xbe6b2ea43e505b1cU,
  0x3e1a5142be2d3190U, 0x3e29be26bd75be9fU, 0xbe3e15ef3d6a22fdU, 0xbe86bf55beb5ec56U,
  0xbd8460103d8076e2U, 0xbddbbf7dbdc6bd88U, 0xbee55a41be1db90eU, 0x3e39900b3d504258U,
  0xbe8fc6e63dc63f4bU, 0xbe40fb7f3ddd0888U, 0x3dd3819abe2584ccU, 0x3e626ea43e44e2d3U,
  0xbdc718ddbd88f786U, 0x3df7fde6bdbab945U, 0x3e42466cbe41715cU, 0x3db05b9b3e1a5fddU,
  0xbeadc3b9bdedc469U, 0x3e3b2a2e3dea5b2fU, 0x3c22a4a13d5275a7U, 0x3de0ca6fbeb5f4c9U,
  0xbdfe8465bda673e5U, 0xbda35d233c6bbab6U, 0x3cff3f3b3cf36184U, 0xbd1bb55abd8a0569U,
  0x3d273f2f3e17a7f4U, 0xbd9020d0bc341270U, 0x3d41ce243d1325f4U, 0xba6a1800bd105797U,
  0xbbc8e700bc230460U, 0xbd3f2beb3c6b62e0U, 0x391bbe003d962812U, 0xbca64c44bd83d67dU,
  0xbafa56c0bd07073aU, 0xbd61c0ba3cd6c018U, 0xbb1d6de03d0978f6U, 0x3d15c22e3d563538U,
  0xbd86138fbcb8dd6aU, 0xbd758a02bd3f0b8dU, 0x3d81a57ebcb3a986U, 0xbcf17d8abd977d17U,
  0xbcecf3f63d1da8d4U, 0xbd3566e23d45c1f4U, 0xbb4159453b8ab194U, 0xbd941302bd96fbfbU,
  0x3cc8d207bdb21999U, 0xbcef51953c0328a2U, 0x3d872e0b3dac56b3U, 0xbe1585d7bdc116d3U,
  0xb9551e66bb191065U, 0xbd636f89bcf3b44aU, 0xbc5c9474bda06709U, 0xbd128360bd0ea4fbU,
  0xbd87fb883c8d4cf8U, 0xbd05b8cd3c0d7888U, 0x3c75e69cbd7094ddU, 0x3d1b8cb7bca71df5U,
  0x3d2bc4923d105863U, 0xbddad48ebd7b0b76U, 0xbdb56d70bd6a9f0aU, 0xbe22ca59bd896291U,
  0xbddbcd5cbdaa9b53U, 0xbd4f3e79bd85e469U, 0x3d790e2abd328c12U, 0xbc46acdf3c530180U,
  0xbdea9435bd3c6fa2U, 0xbd2883a1bc4e1c14U, 0x3c7a62a0bca0aa50U, 0x3cfaec803c957d40U,
  0x3b52c3bebca5af7dU, 0x3de9e2f83db303f4U, 0xbd3b967e3d07665bU, 0x3ba457f43ca595baU,
  0x3c314df1bd8826b5U, 0xbddf97aa3c3d1bcdU, 0xbe8471bcbdea4fcfU, 0xbdda7a04be26c811U,
  0xbceee962bd02f85bU, 0xbc5fdd42be28b84dU, 0x3ccccc803c1a4d9cU, 0xbc61341fbc9961b8U,
  0xbb745ca03dbf34f1U, 0xbc804e093d22af3aU, 0xbcb11d1f3d3232d4U, 0xbd9e1fc3bd2666a1U,
  0xbd072f9d3d9fb03eU, 0x3cfa3694bc41690fU, 0x3d968616bd034b7dU, 0xbd96d41fbaf6ef2aU,
  0xbc95ed24bdeed285U, 0xbe16100cbd2bf4f5U, 0xbdde3b3dbd1530faU, 0xbd77b0c9bcb003a2U,
  0xbd85d43dbdd1ceb3U, 0x3df940e23c9b5fd7U, 0x3cd511eb3df8306fU, 0x3ad38e80bd8c7d65U,
  0x3d8b68633d5240f9U, 0x3de4eac23db20a55U, 0x3dfe8f343debfb93U, 0x3d2797353caea5caU,
  0x3e02101bbc851c97U, 0x3d7f5485bc9d989fU, 0xbd6530c03db7e161U, 0xbdc2c3113c88856dU,
  0xbdffe8ebbd84bdaaU, 0x3dcd6f59bdc87f52U, 0x3db832b93d255ab1U, 0x3e15df6a3d400ccaU,
  0x3e220fbe3dc9ca84U, 0xbd42cf383d1245d2U, 0x3cfcf924bc72d5a5U, 0x3e0d91543dbbbe08U,
  0x3c0366053dd1c10eU, 0x3e0a469c3dfc32aaU, 0x3dc45f45bc5da3feU, 0xbe0ab3dc3bd2557aU,
  0xbe15f65a3abb75b2U, 0xbd191821be260908U, 0xbddb2a49be122c35U, 0xbc7d3824bdee685cU,
  0x3deb73273d963c21U, 0x3e0672f43e7f0df4U, 0x3a2413a8bb7478bdU, 0xbca13c0fbd73e33fU,
  0x3e01158e3d2ca87fU, 0x3e3a38e33e151f6bU, 0x3d5243753dcb4908U, 0x3d8f002e3e51f065U,
  0xbd0066df3c325f03U, 0xbde5a1c7bde11ed6U, 0xbd6747b1bdeb2e64U, 0xbd6f15dbbe431314U,
  0xbd8612dabd837f19U, 0xbe01bc15be1b333bU, 0x3d973b37bd81f0fbU, 0x3a67ae8e3e5586c8U,
  0xbda7452d3c94e479U, 0x3c3816cabcff0850U, 0x3d86e98fbc75eb28U, 0x3dd4adbd3daddf9bU,
  0x3d81f0c13d977529U, 0x3b22e05e3d6791c4U, 0x3a0cefd1bdb66acfU, 0x3d90c02a3d69300dU,
  0xbe2297debe034c59U, 0xbce36f1d3cad20d7U, 0x3d2b6b783d44fd2fU, 0xbd314931bca82050U,
  0xbba4a1f9bd58f35dU, 0x3d8986713e3b5281U, 0x3d8ba0923de0ad26U, 0xbdb33e8ebdaa7976U,
  0xbc81f9d6bd90557fU, 0xbcd133443c3b41feU, 0xbd19a2a73db3c38dU, 0xbd99e4a13d6c02b4U,
  0xbda4e7963cbab53fU, 0x3b9e9d303d668f3cU, 0xbd2169a2bd51bea9U, 0xbcaa04ea3b46974cU,
  0x3cced209bd848504U, 0x3db173083d381d50U, 0x3de16907bbafe2ceU, 0x3d0b12783dea58ecU,
  0x3d8d5e1b3df765d5U, 0xbd9761cfbd80a073U, 0xbdba74263aca7d0dU, 0x3dd0ae35bcbc1993U,
  0xbda8e045bca07265U, 0x3d125a2ebdd89a05U, 0x3d37c0d7bc8cdfeaU, 0x3d862fe63d78851aU,
  0xbdba4a8a3a9ec61eU, 0x3cdc46203d73dd96U, 0x3e01d6683d28cedeU, 0x3ddb3ee03ba9416cU,
  0x3e367e2f3df7c58bU, 0xbca68d583e296992U, 0x3d21b9693e093af5U, 0xbd9a8bb93d640127U,
  0xbd7611a7be2485daU, 0x3dd002653dc0569dU, 0x3a9e27103da3e216U, 0xbda467a1bdadf06fU,
  0x3ddd70503b8aa895U, 0x3ddd653f3e390a63U, 0x3c80da863ddc8e22U, 0xbdc1a553bd9ae673U,
  0x3c77eeefbc959a9bU, 0x3d42d0b4bca35dc1U, 0x3e4e3d973d3201aaU, 0x3e0a06323e8cb799U,
  0x3dc7a10c3e073212U, 0xbd8d5390bd4d65eeU, 0x3cb49fecbd7b82fcU, 0x3dde20113cdeeca9U,
  0x3c889b9f3e1cae49U, 0x3d3f18a3bc1f7a49U, 0x3e00c2083c300c72U, 0x3e2c214a3d19910eU,
  0xbd9eb55f3db995abU, 0xbba5c763bdccb957U, 0x3d1e8296bd356088U, 0x3dc31f2a3d3c3d20U,
  0x3e0b12773d3e6161U, 0x3d0bb4393e063d42U, 0xbd8a8bcb3da8544cU, 0xbd15a9f83c704ab0U,
  0xbd5f0258bd5ec467U, 0xbb89b4003c1f011bU, 0xbd9f14453d9a3969U, 0xbb8d6ca4bd180862U,
  0x3db8cb933dd1de87U, 0x3d935604bca5cec7U, 0xba31cb553c3ddb37U, 0xbdd24fecbdb4bcc7U,
  0x3ca02e123ca1696cU, 0x3a2312d83df384f4U, 0x3da249013cce70bcU, 0x3d065391bc715263U,
  0xbde2646d3e0dc14bU, 0xbd283e1d3d85b5b5U, 0xbd7eebe6bdb48a9cU, 0xbd9ef166be295a46U,
  0xbd0520f23ca8b988U, 0xbd90f689bdc68e8bU, 0xbc78ad7a3cb32bf6U, 0x3cf69df8bd0bb145U,
  0xbd6169ddbd2cd354U, 0xbc4d8c5d3d084208U, 0x3de2dcfc3c00fa54U, 0xbd14d7fcba2e928bU,
  0xbb5a55453cfb2223U, 0x3c5ccdc53d487dcdU, 0xbccb94cabd37a1f3U, 0xbae172ec3d424aecU,
  0xbe2ebadf3e00468fU, 0xbc735675bdcb2104U, 0x3d5f6f083d5486a6U, 0xbcb5f82fbc98ba4dU,
  0xbdd750aabe1a138cU, 0x3dc1ad903d2dba44U, 0xbd20a5123d7b6774U, 0xbd202fa7bd99208cU,
  0x3d4d5a13bd60bbb4U, 0x3cfebb9e3d96380fU, 0x3dc6464d3d2061f2U, 0x3cfa8e2dbc83f500U,
  0xbd362e9a3ded75f3U, 0xbc86d51fba01c34cU, 0xbdac6e14bda38c0aU, 0xbe09133abdc1e7daU,
  0x3d40ea42bdc9d64dU, 0xbe44ab2dbd28efb0U, 0xbe1f71a7bda50f84U, 0x3e0ee9253d4682afU,
  0x3dcce5f93d2fc40dU, 0xbb066c64bd7aa1b1U, 0x3c8dc9bfbc987902U, 0xbda253c3bcd711b3U,
  0x3e1226973c297021U, 0x3d6fadb43e0c14bbU, 0xb9d545973cc1021aU, 0xbd3397743c65b010U,
  0xbba5db43bcaff75eU, 0x3d610f82be240c67U, 0xbc98ac13bda6de9cU, 0xbdb73b27bdc026d3U,
  0xbb415e2ebe1a44e7U, 0x3e1f53f43cd3ddf9U, 0x3c3514013deef509U, 0xbbdc18393dd5ceefU,
  0xbd876d39bdfe0a67U, 0x3cf0e32dbd440141U, 0x3e25b7c43df0f200U, 0xbe1365dc3e204394U,
  0xbd833f813b08d796U, 0xbbedb267be07262bU, 0x3c0f351cbbec2387U, 0x3d6679cbbccb52eeU,
  0xbda50580bd7a4433U, 0xbd23dc453d5569f2U, 0x3de3d9843cb7b5f8U, 0x3e4227d93e1c8bb5U,
  0x3dd205973e268475U, 0xbde79e9f3c026d97U, 0xbda32b283bfc4faaU, 0xbccac55abd90ac08U,
  0x3e67ff903e174fe0U, 0xbd3f54893cfd3b21U, 0x3d863c81bd1ed08bU, 0xbcc548ff3d585fe0U,
  0x3dfb6f9d3d0c88deU, 0x3e01ff9cbbbcdf9dU, 0xbcd31675bda8f313U, 0x3d4559e23d90a718U,
  0x3d6ecd293cc1a489U, 0x3e121b8c3e422d01U, 0x3de928083ccdf586U, 0xbc98c5773c41d02eU,
  0xbe12f3383d43aacdU, 0xbd8f79adbe155db0U, 0x3dd1aa143c5f79a4U, 0xbdbb5159bc968178U,
  0x3da95026bc05b0deU, 0xbccce2cabcaea6d4U, 0xbc750adebd3c3bccU, 0x3d466db2bd0f5463U,
  0xbcf242683cc1f37cU, 0x3c97d365bca374bbU, 0x3da5cca33c842e07U, 0x3c5c60ca3ddcc345U,
  0x3bc333afbcec6395U, 0xbc0caf81bc44391aU, 0xbda40e5abdb06f12U, 0x3d157f3ebdcaa16dU,
  0x3dc1b9df3cec963eU, 0xbbfdc9ba3d13c019U, 0xbcb36855bd14be00U, 0x3bcc5144bd18e039U,
  0x3cd5ad5f3d2bc55dU, 0x3d8bc71cbcede729U, 0x3d7440b73d996614U, 0x3d6a96a6bc034aa3U,
  0x3da3485c3c80d902U, 0xbce0526d3bc545b5U, 0x3d7877f8bd5a63b0U, 0x3d45b0403dc07062U,
  0xbdaa15c3bb83c813U, 0x3cddcca8be117511U, 0xbd2bbc473dccab51U, 0xbcafb3dabda7c7e6U,
  0xbd0959313ca67349U, 0xbce12435bd81532dU, 0xbd721374bd1b5cc1U, 0xbbdcd6763d15cb95U,
  0xbd9da784bd631f78U, 0xbd909452bdea29e9U, 0xbd581c16bd64cd5eU, 0x3d92cf77bd62f350U,
  0x3cf76b41bcc664bdU, 0x3dcd8aeb3d8e885aU, 0xbd6eecc0bcb6f756U, 0x3d8e25f03dbf8bf0U,
  0xbca7395d3db26fc0U, 0xbdaec575be3b4bddU, 0x3be9401f3d469795U, 0x3cc5e9e43d9f3ff4U,
  0xbd2a20f3bd883cb8U, 0xbc6abc9dbc30beb2U, 0xbe42dc71bde0b15fU, 0xbe176e26bc885e01U,
  0xbd027c65bdaa9bb9U, 0x3d736f933ca0e517U, 0x3db87603bd6c64ffU, 0xbb3dff013d569726U,
  0x3e3aba783de70611U, 0x3dbbf7803ddcfb03U, 0x3cb08a29bd166f41U, 0xbdd20a53bdd5325dU,
  0xbc17d1403d3b9cb0U, 0xbc7bb0783c569b48U, 0xbd9d3925bdb12f15U, 0xbe76b516bd638d8fU,
  0xbe52eb2fbe705b11U, 0x3bf664c6be143fa9U, 0xbc558573bd7571abU, 0x3d3f6cc9bd1e1d39U,
  0x3d1cfc083e2c7bdbU, 0xbd3eef373e200dffU, 0x3d360a7e3e0d7138U, 0x3e10044c3dbd9dc5U,
  0x3cfb4daebd6c3be8U, 0x3d9aac60bcc8bf65U, 0x3d997dc03d85c74fU, 0xbb31cd203d188380U,
  0x3bd0d6c1bd07ebdbU, 0xbd9f41c8bd9cb991U, 0xbe0f310fbd92edc7U, 0xbde846febe36edecU,
  0xbddb7ff9bddeb5c5U, 0xbe16a310be1065b4U, 0xbe1d3bcebe0fdb28U, 0xbd23b1c3bd16384eU,
  0xbdf3aa78bc59d12eU, 0xbdbb74c9bb9c2b81U, 0xba59995ebe003134U, 0xbdc9b832be0fbf73U,
  0xbd4359cebcd9c280U, 0xbd4067873d913566U, 0xbc4d9bd4bd6715f0U, 0xbda6ab77bc85642eU,
  0xbe276af5be40db2aU, 0xbe046ae1bdd9a4acU, 0xbe2fad58be3208e5U, 0xbdc047edbe490608U,
  0xbe55b7d8be3bf797U, 0xbd94a535bd9370b4U, 0xbd3305dbbd6d8ec5U, 0x3c33f4423cf1b2aaU,
  0x3c53174e3d0f1b2fU, 0xbd97ac40bb179badU, 0x3ccb7c78bd9d2f87U, 0x3d6d49c8bd03884bU,
  0xbb940b50bd840c72U, 0xbcd0e8203d506183U, 0xbd97099cbc67c1cbU, 0x3bc601a0bc4ebcd4U,
  0xbcfe9b12be123988U, 0x3c95b0fb3d87c095U, 0x3b971504be0e8d61U, 0xbe114d3bbc72b933U,
  0x3d08650dbd9a335aU, 0xbdbcbe9bbdbf275cU, 0xbdbe773fbd50a4c9U, 0xbc3558383d89e0aaU,
  0xbc1514a8bd07f78fU, 0xbb474b20bd8ddd61U, 0x3d81287c3d3fb17cU, 0x3d11e2e8bd4f4f11U,
  0xbca217723c38d548U, 0xbd9e410cbb964eb0U, 0xbc8473643d6a6a9cU, 0x3d496b963ca9f1a0U,
  0x3c9437ac3d8d6660U, 0xbd590528bcc7aff8U, 0xbd6714d4bb1114e0U, 0xbd974cff3d127cc2U,
  0xbd8b770abd672917U, 0xbd3b193fbb9ff790U, 0x3d9b5fa4bd0b59c2U, 0xbc0f9678bd45d23cU,
  0x3d947d16bd9cbdbcU, 0xbd95b0ca3a22cdcdU, 0x3d8238ee3cf6aac7U, 0xbcd79ec83d5f93edU,
  0x3e0c5abf3df767d4U, 0x3cb478a33e3a1df2U, 0xbc51257fbd96967bU, 0x3c95764ebd437425U,
  0xbcf97741bc3d649aU, 0x3cf639953cbb1cd1U, 0x3d26e685bcab67edU, 0xbd223042bd4022c6U,
  0x3d999f563cfc7d84U, 0x3c4872b8bd838a85U, 0x3cbb3034bd832928U, 0x3d671c853d43142bU,
  0x3ddcb4f53d0174cfU, 0x3e769b1d3e061cdeU, 0x3e04a8963e6037a6U, 0x3e171a733e17b8c2U,
  0xbbeb94a93d1f6d3bU, 0x3c45bcf2bcf75238U, 0x3df4d8d8bdce6d24U, 0x3d6fd9dc3e083b89U,
  0xbce0d7f23dab56ffU, 0x3d53a89cbd93bf46U, 0x3d12cb40bd3459d8U, 0xbd47b8213d2b58eaU,
  0x3d3a42223d42544cU, 0x3d19fa323df76bb5U, 0x3e0d78fa3c809bb3U, 0x3e42ecfe3e76ce01U,
  0x3dccbd023e2fd630U, 0x3d43dc443d8b5666U, 0xbcfe7bd83d69f9ceU, 0xbe4a36a3be521bffU,
  0xbd60661fbdc3e4e1U, 0x3e8a5ab73d5448fdU, 0x3db7e6763e34f006U, 0x3cf0cda63d7f297eU,
  0x3b95fb80bd279090U, 0x3d58c9ac3d081c5cU, 0x3dac6ad23d6ee5b4U, 0x3adf30ad3bab2fb5U,
  0x3e507a443e267345U, 0x3e36a1313e4d50d5U, 0x3d3674393e1f061dU, 0xbc87c2373d220970U,
  0xbdd3c246be061294U, 0xbe5f16a7be7b99f3U, 0xbe4225b1be63081fU, 0x3e16c5363d8c1e01U,
  0xbd67acd63e6f6f8cU, 0xbe0aa1b8bd5054fcU, 0x3d46ea24bd66a0eaU, 0xbd3eedc8bb211c80U,
  0x3df5221abd9afd68U, 0x3c0a38093c29409bU, 0x3e3d70bc3d879633U, 0x3e89b5803e6c18f6U,
  0x3d3671a13daa8497U, 0xbe801b31bd543899U, 0xbe6130cebe51d066U, 0xbe9bd889be7eebe9U,
  0xbe803d2abe98ada5U, 0xbafa4ebc3bf8f7c3U, 0xbc6bea583df2f30bU, 0x3daef1003da16081U,
  0x3d9c328f3d9374e8U, 0xbd7956b2bc983138U, 0xbdc94de2bc8c6073U, 0x3cdf7fe6bd846273U,
  0x3db86eb33e1ce351U, 0x3e6b57ea3e50ef55U, 0xbe077d083ded1178U, 0xbedce539be15638aU,
  0xbe40f5edbe8cb6f3U, 0xbd80c623be066282U, 0xbdc9de26be1f6fcaU, 0x3e2a28633c237824U,
  0x3de2373f3daff994U, 0x3def2ee03e1b3bbfU, 0xbd06c6ecbd0c2b29U, 0xbcfdd191bb350940U,
  0xbd8cdf693d01136fU, 0x3e2f4e3d3e03cb40U, 0x3e09d17f3c676e58U, 0x3dcfb3c83d89427bU,
  0x3ca88795bcb18b09U, 0xbef84f37be57f892U, 0xbe25c3edbef179f2U, 0xbd48f68dbd8d9a1dU,
  0x3e02fd63bd92591fU, 0x3e1641b83e3feb29U, 0x3d32a60a3c9ffd0cU, 0xbc22e7bcbe2e1495U,
  0x3d1bec60bcf59043U, 0x3d6b62493b83a9c0U, 0xbdf50545bcac18f6U, 0x3e3678ec3e2bc0e8U,
  0x3be076b83d1242deU, 0x3e73a2773d7174f3U, 0xbc856747bc9bab58U, 0xbf0127ebbed6b2d4U,
  0xbe29d575bee34d6bU, 0xbd3346853d8f7fd1U, 0x3d95ba443e05d619U, 0x3e2e5e9c3e3941c9U,
  0xbe3a69c13da95c11U, 0xbe5a22f1be5d3631U, 0xbd7a77f3be463936U, 0x3dc79fadbc6f9c38U,
  0xbd4f95c73c4f43afU, 0x3d08bf053e87c270U, 0xbc2214f1bd2581cbU, 0x3e5eed0f3e27f05bU,
  0xbc21e1d73d652f79U, 0xbef2d22ebe8db23aU, 0x3d4c5fc8bea3e4a9U, 0x3e0765683e1f9434U,
  0x3e4259603e2130c8U, 0x3e473be33e71a187U, 0xbd44ebca3df59896U, 0xbe093585bd528708U,
  0xbe0a8a69be3b0911U, 0x3dc6ea14bd09ac0cU, 0x3d672e31bca66996U, 0x3dc31cb13e547c47U,
  0x39a452a8be0a7150U, 0x3e1d5f6c3e64c4e6U, 0xbdfa18c4bd37224cU, 0xbe3f46f2be69772fU,
  0x3e47022bbdc6d1ecU, 0x3e2b73853e253615U, 0x3d80fe873d5eed0dU, 0x3e1e98173e5f4ac5U,
  0x3d2fe5a13dde7caeU, 0x3bf83ce63d90ef17U, 0xbdc04429bd8581c6U, 0xbaee594e3c959178U,
  0xbd9770d93aaf9386U, 0x3daaeda73cb94693U, 0x3d30baecbe116cd5U, 0x3dd65feb3e31324cU,
  0xbe2f33cabe0a6b16U, 0xbe19d5f8bdc96df1U, 0x3e3755cd3dfaef0bU, 0x3d8d58453dca8c10U,
  0xbca1e8e33c87a9c3U, 0x3e21d1e0bd03ab58U, 0x3dd8689f3d817c8cU, 0x3d5017443dc874dbU,
  0x3d0307613da384d5U, 0xbbb1712f3d626e82U, 0xbc1d3264be0be379U, 0xbcf27ed8bc2fcc50U,
  0x3d5613e43d14970cU, 0x3d86bc903b8a41afU, 0xbe02082cbd97bee0U, 0xbd100c50bdd67ad1U,
  0x3e1eba0cbd22da48U, 0x3c1d36f63d69341cU, 0x3d9efa5fbda81d35U, 0x3e5522403d2c5789U,
  0x3d51ccfb3cab060eU, 0x3da18d563db99e93U, 0xbc095204bd2f46e9U, 0xbbd39590bc84aafeU,
  0xbda6c425bd902277U, 0x3e55192b3cdd1cd0U, 0xbd3ba2b53e2f3992U, 0x3dfc23d43c95b081U,
  0xbe18b2b6bda53b5bU, 0xbb847400bda48d2bU, 0x3d9468b1bc667471U, 0x3d83e3c33c14ae55U,
  0x3d551315bce3f8d3U, 0x3deb59fe3be4ac99U, 0x3e26dc403d81d735U, 0x3d7bafa73e15d45eU,
  0xbd1ea1e73dd5c4fdU, 0xbb1f841fbc6f4640U, 0xbc3a2457bdcf5716U, 0x3df260573c20baaeU,
  0xbc6076403d3cf071U, 0x3e0a93703d44a66bU, 0x3c80d04abd3ff5c4U, 0x3d68d0c73d90d264U,
  0x3ddca66d3dbf5829U, 0x3cd4e61b3e18f9aaU, 0xbe3944b4be2e9b49U, 0x3dd83806be04f6c4U,
  0x3e0ae8fe3e4ab89cU, 0x3e00eba73d955695U, 0xbd3437553befc03cU, 0x3c4ce9b03c9e6e48U,
  0x3d8f52c53d8398ffU, 0x3d20a322bcc5b00fU, 0x3da6162bbcd95cc7U, 0xbc8cbd6d3dc8860cU,
  0xbcebe1e7bcecaa3aU, 0x3d44d2a73ce289b8U, 0x3cd9bd273c9fd966U, 0x3d00b41a3c892ef4U,
  0xbdd44d8ebe44087cU, 0x3d8dce5e3cb538b8U, 0x3d5cad983dff6e2aU, 0x3d39e35dbe07b286U,
  0x3d0a0e2a3d01c580U, 0xbc48b1a83d484f10U, 0x3de676393d488dc1U, 0x3c5d20fe3d6a9f83U,
  0xbcfc8c5c3d3aee3dU, 0x3a70ee963db98569U, 0x3c611e203d43739aU, 0xbd6e1569bac7a314U,
  0xbda14546be3120b8U, 0xbd3cba523d848cd5U, 0x3d103c563bbcc908U, 0xbd7ec62cbd5438f1U,
  0xbcfc566b3d20c1e6U, 0x3d611c44bb9868ceU, 0xbd64cac1bd0eb13aU, 0xbcc658eebc925e44U,
  0x3d82f0b3bd8d6677U, 0xbdc62bb5bd366237U, 0xbe3454e7bd03d24bU, 0x3dcd9ce13c1b60e4U,
  0x3cb926c93df2c97aU, 0xbda93ed43d65eaceU, 0xbe23400fbe348596U, 0x3d0886e9bc86b0cbU,
  0x3da7cb653ce00285U, 0xbd832658bc54be39U, 0x3d840a623d620d33U, 0x3e39fc68b8c13943U,
  0xbd8d0615bc5c8d7eU, 0xbc835885bd7670adU, 0xbe009965bc3e0e2aU, 0xbda6ede53aa73bf3U,
  0xbe17ed33bda58cdeU, 0x3da505a63c715427U, 0x3e0660e03d8767f5U, 0xbd038be0bd4c708eU,
  0x3d523b92be1ece44U, 0xbc94564a3e32b21cU, 0xbdbecc7b3d56a1d2U, 0xbc11906abde91de9U,
  0x3d46cdf33d972bf9U, 0x3ac701993d870f51U, 0x3d84ac963da4f058U, 0xbd295e8b3ae04900U,
  0xbd55390abd6e86f4U, 0xbcd66c58bd8f1cf3U, 0xbce838f6bdb6d436U, 0xbc3b7c663dbf8c6bU,
  0x3d97fd0f3b41f6d4U, 0xbe131ed1bd4ce8feU, 0x3daa2fe1bd34bed2U, 0x3cd42ded3dd1130fU,
  0xbe18fb5dbd46b495U, 0xbd98f204bdf00c96U, 0x3dd386393c6d4639U, 0x3cdcb22a3e6c5024U,
  0xbc1d8606bd288d78U, 0xbd12e529bb3d8180U, 0xbe2269a4bc3cc0c3U, 0xbc329d6cbda2b083U,
  0x3d94ff343d83c916U, 0x3e1091d23cd3e85eU, 0xbdabb7603c6cabbcU, 0xbc670ee9bd8653e9U,
  0x3e3aa8c83ce8b5ebU, 0x3d98cf573e0b0644U, 0xbe0837753d833ee5U, 0xbd963493bdcafa30U,
  0x3e3c5a7e3cb6d5e3U, 0x3ca475083d172245U, 0xbd8f85aabd55e61eU, 0xbc4383703d8750c2U,
  0xbdfca5c3bd81cd08U, 0x3cdcffef3cb0b20eU, 0x3d84a4d43dad08d3U, 0x3e33f8fe3e66d9cbU,
  0xbcff82963c4a91d8U, 0xbc6c9331bc8e5690U, 0x3dcb9fee3dc0db6fU, 0x3b82a0d53e0a7243U,
  0x3a864cc7bd195da2U, 0x3d1ecb93bd276cb6U, 0xbd17d1ea3b966716U, 0x3deeac72bd332de6U,
  0x3d074ce23d911f94U, 0x3d6a54203c87b070U, 0xbd3042f3bd934741U, 0x3e8151673e103b7bU,
  0x3e601f243e7eb580U, 0x3dd1cf983e6007a3U, 0xbd5c74a3bcf2c333U, 0xbcfefd88bde0827aU,
  0xbd3c2a913c91fe63U, 0x3d4f00503dd2a95dU, 0xbd782edbbd7a9288U, 0xbe078ba5bdd49913U,
  0xbe171176bd509996U, 0xbd2a83fdbde67a21U, 0x3d880366bc87ab26U, 0xbd97821b3d6cd424U,
  0xbe082e0a3ceac400U, 0x3e502a023e143f35U, 0x3e8546143e6f2446U, 0xbd120d843dd917f3U,
  0xbe88bc1bbe0f91f2U, 0xbe253657be1e0b0aU, 0x3d66c8fa3ce0e6c7U, 0xbd49bf853dc551a2U,
  0xbe243a60bda7e092U, 0xbd3edc5fbce76a85U, 0xbe24e3fbbdabb5cbU, 0x3d8548e4be696b83U,
  0x3c15e8803b146c3eU, 0xbb894a203d2ce5e8U, 0xbca3829bbc4977c0U, 0x3e62c7683e5c0536U,
  0x3e0665d03e088fb9U, 0x3dab15363cc5ed70U, 0xbd4228ddbdc36de5U, 0xbcfe582fbce0a504U,
  0x3df5e3e23df0edf5U, 0xbdea6c293da062cdU, 0x3cd573e0bd8836d6U, 0x3db3c24cbd88c308U,
  0xbc56c03f3dc5886cU, 0xbd12bf95be1b3905U, 0xbc99abd23d54ddc0U, 0x3d546c54bd6f7bf7U,
  0xbce0c6883cc8d4b8U, 0x3c4199ca3ce54561U, 0xbe4108e1be175717U, 0xbd9a102bbd0af4e3U,
  0x3c6627d1be122168U, 0xbd3c1b533d912b8aU, 0x3e3640443ce6e69bU, 0x3d04316c3dbee165U,
  0x3d4e8ae03c597de9U, 0x3dcb10eb3db90ac8U, 0x3d3d0e2c3cde265aU, 0x3c9621923d1f29c1U,
  0xbd8dca6f3c80d284U, 0x3d4080f03d5a9f64U, 0x3b1af3403d550db8U, 0xbcfe78443d0a2a97U,
  0xbddc5ac93c97c63bU, 0xbcd8c35fbd96fd02U, 0x3dea44fbbd8bf121U, 0xbd8ab2ce3d3be445U,
  0xbd2e67e5bdab1565U, 0xbd0369e1ba44275fU, 0x3c9abd0b3d6fe00bU, 0xbd641e95bddf5b1bU,
  0x3d6884c63ddd2a64U, 0x3d0de110bd25e7fcU, 0xbd98971abd9e894eU, 0xbd84b140bc3cafe8U,
  0x3cc57fc43d627150U, 0x3d30e9533d326ea1U, 0x3d4a69f8bca77f4cU, 0x3ddbd16fbc16a7c4U,
  0xbc9c8891bb70c6a1U, 0x3c4687e8bd06d4d2U, 0xbd3b5572bd99c00bU, 0xbd5f43bdbe098354U,
  0xbd98850bbd23db3eU, 0x3db56ed9bd9bd73dU, 0x3de685813d5806a2U, 0xbc97cfba3cedd2f0U,
  0x3c08dc583c9f67a8U, 0x3d86c9283d3d89f6U, 0xbc336348bd6b0570U, 0x3b8482d03d9e30b2U,
  0x3b0b5da0bd6da78aU, 0x3d6ce0b8bd4f51d2U, 0xbaf12f00bcce8da0U, 0x3be68b64bcd21ed0U,
  0x3cf4ce663cbf35aeU, 0x3ce67e20bd903062U, 0x3d82765abcb80daaU, 0x3ce716583d3153b2U,
  0xbd535becbd74aae0U, 0xbd92a0f63d1bcff8U, 0xbd208e3ebc231fd8U, 0x3d0b8056bc5cdb70U,
  0xbd6496d23d811f22U, 0xbd21a49f3ce562f8U, 0xbd7ab7b0bc353995U, 0x3cfa8c05bcd12345U,
  0xbd550a56bcce3909U, 0x3c731d8abd575007U, 0xbca8e6073c21a344U, 0xbc9f70633d863e11U,
  0xbcc97c33bbcc02d8U, 0x3d48db33bcc38da7U, 0xbd1afadabd813608U, 0x3d51da4c3d3542a0U,
  0x3d9725c2bc59b990U, 0xbd93e2e23d04b3ccU, 0x3d39edd93cede16cU, 0xbd1ae001bba3ef54U,
  0xbce6b649bdaf1b84U, 0xbdca5111bd214c0dU, 0xbe0b3354bd857496U, 0xbd7600aebe1afd51U,
  0xbe18c9fbbe0143abU, 0xbcbf4664bd869dc8U, 0xbdd00f66bddec158U, 0xbddbc4d0bdce2c64U,
  0x3b9a524cbdbeaa90U, 0xbcfc6e7f3d343dd9U, 0x3d900074bc5ef750U, 0x3c111e003d77cdecU,
  0x3cf418d63d6478c5U, 0x3d9ec80a3d80ddeaU, 0x3bc7f43f3db01c58U, 0xbb38e0bb3d29fc14U,
  0x3cc6a5a93d92976dU, 0xbd83dc933d51c7d7U, 0xbe4efbd8bd369c75U, 0xbe3d9436bddd0c80U,
  0xbe0a3a4fbd875bafU, 0xbdc4dfc0be3a370bU, 0xbddad6b33cd45714U, 0x3c4b73c4bd4cbb47U,
  0xbafaaf80bd0fc3faU, 0x3d83a6413cfe9f60U, 0xb9dc6dd53dd7d875U, 0xbd135a563ddda266U,
  0x3da2d8b73e21298eU, 0x3da6f9b23de74446U, 0x3d4fee103b8a0152U, 0x3da8aceb3e1c3f6bU,
  0xbccddc983cb01e23U, 0xbe028a65bb409d70U, 0x3d0c01773cf1ae9aU, 0xbc969426bd417a23U,
  0x3bc5a99cbc8f503cU, 0x3d40e17fbd3df18fU, 0xbd0a29873d6d7d7fU, 0x3d84ecda3c49d4d8U,
  0x3d8e32ad3c8d0657U, 0x3e10982a3e1805ddU, 0xbd104bae3d1a7e56U, 0x3c8912cf3ba1c287U,
  0x3da886ef3caf03d8U, 0x3dcd9db13dc44710U, 0xbcabf5ce3d8c5097U, 0x3dcd56ab3bf6a57dU,
  0xbd71f9f7bc20d907U, 0xbd8f8be33a901890U, 0xbdeca628bd3e0d6eU, 0xbdc10231bd98685bU,
  0x3ce6badb3d98faadU, 0xbcf8dcdc3a406180U, 0xbc3ace033d01110bU, 0x3d73fad23c94eb3aU,
  0xbd968ecbbe0d6f5aU, 0x3c84f1b03d859cfdU, 0x3dc1bd7e3dbbbf78U, 0x3d2c5ec8bc7c3151U,
  0x3e552b573d395df8U, 0x3ddac3aa3deaeb31U, 0xbd64190039ba4efdU, 0xbd2dc73abe165898U,
  0x3d3a5fd9be1a5052U, 0x3d2a295abd7eb215U, 0xbd35cc363ce7e9b6U, 0x3d7e2375bd8ad96fU,
  0xbe07bba5bd65a953U, 0x3b595833bd71e686U, 0xbc13cb613c499686U, 0x3d3c819e3da66d63U,
  0x3cefa74e3e346136U, 0x3d943e393d4c4b3cU, 0x3d4b71fb3dfb209eU, 0x3c13c6dc3d312818U,
  0xbe08245dbd3b1214U, 0xbd9559d6bde37847U, 0xbcac1ea1bd80f6a8U, 0xbd51649b3d27245cU,
  0xbd2b59e2bda036abU, 0x3d03fa133d6e0228U, 0x3d24074b3da63e15U, 0x3b3a2d3a3d88e282U,
  0x3d7a341b3cbbdb2dU, 0x3d76ecbe3d3541bdU, 0x3e1a3afd3e0842a0U, 0x3d9f47693e03842bU,
  0x3dbcab8c3dda6837U, 0xbd495aec3e1b67e4U, 0xbd7d9e4a3ca02512U, 0xbd29479abe2c6274U,
  0xbc8f83a13d984cf0U, 0xbde325463c9ca1fcU, 0x3d81e7e03d7788e9U, 0xbc05fb953d4481c0U,
  0x3d87b1a03dd22420U, 0x3dbd8b033e175646U, 0x3dd2c8753d9597d9U, 0x3d8c511b3df664ddU,
  0x3d66d2d43e2ae3d6U, 0x3de52bf13d3c34e9U, 0x3e1200063e396908U, 0x3dbb41c73e3b1abdU,
  0xbe0040b53d15dc90U, 0xbdd4da76be129465U, 0x3e0516993d5d79a2U, 0x3c9bf2c13dbd6a26U,
  0xbd3a4c523d8d4bf7U, 0x3d3779c5bd961b82U, 0x3e03ec283be1ef68U, 0x3d0d506e3d4967d1U,
  0x3d84d84b3d81926dU, 0xbd0ec0833c9805e7U, 0xbc9130b2bdbc12b4U, 0x3d89ad20bc6887a7U,
  0x3d8fc5a83d919bbbU, 0x3e001f943dd69960U, 0xbab07d07bca65d7bU, 0xbd030da03b28cb69U,
  0xbc371c383cdb2eb0U, 0xbd84eeebbcf6e6f7U, 0x3d0182253c1edf4eU, 0x3caf9257bd86a573U,
  0xbbe59995bdc27a38U, 0x3d879fb5bbe5f7f7U, 0xbde16ef53dc0f94cU, 0xbe0d0bf6bd65f2eaU,
  0xbdb386d0be019f06U, 0x3dca3e50bd85644dU, 0xbd0af1ab3c5fdcfbU, 0xbd0d328cbdc781f3U,
  0xbd820fab3da1c06eU, 0xbe5e4f2cbda1680fU, 0x3d6892aebdaab130U, 0x3d2f4ff53c4c1a37U,
  0xbcb895b9bc8cb520U, 0xbd881c05bdc176a9U, 0x3d50c9f93ceba8c3U, 0xbd11bd66bd099d48U,
  0xbe2b4470bc00e897U, 0xbe30d63abe877a04U, 0xbdee6bf4be34eb27U, 0x3d242c6abd5f9357U,
  0xbe17d16bbca3e394U, 0xbbbf1bb8bc9574b1U, 0xbd2aa47b3c004fd2U, 0xbd95d5afbdc9255fU,
  0xbc899ae7bd00aa12U, 0xbb64444e3c233bf6U, 0x3d11adac3d89dc04U, 0x3d6718a13d050e64U,
  0xbd4114e33cd16b65U, 0xbdb126c8be0f851eU, 0xbdca6fc6bd9f07c1U, 0xbe196dd9be426e8cU,
  0xbd89d70abdcba68eU, 0x3d8f6dc0bd6808afU, 0x3cc0abfebca7a7a0U, 0xbc54471abe15c971U,
  0xbe6e6b493c80fe4aU, 0xbdbf7f01bdc73d3bU, 0x3d56f89cbd9c689eU, 0x3d4985163d43f9b5U,
  0x3d7724973d33b717U, 0x3d4a95383d571253U, 0xbda912973d8117e5U, 0x3c42d93fbd10a495U,
  0x3da355fe3da04cb1U, 0xbdfbea3dbd1f86c4U, 0xbd4ff0aa3c692f06U, 0x3d528d9b3dc982a5U,
  0xbd5fe2583d12615eU, 0xbdc93ac2bd917831U, 0xbe44476fbe05cea4U, 0xbd48be00bd6fb710U,
  0x3b475fc8bd25d4b9U, 0x3d7e00d23cd64df4U, 0x3b5dfeed3de7b5ebU, 0xbd03c9da3d035199U,
  0xbd73cad9bcac4088U, 0x3cab84ccbe1ce325U, 0x3dc4a6663e07eec9U, 0xbd3301c1bd2bd6adU,
  0x3cdcda59bce0c015U, 0x3e30c7c43ded03f1U, 0x3d57c21b3d060d35U, 0xbdc4fe363d0ba854U,
  0x3c5d128bbe043b53U, 0xbd52aa00bdab067fU, 0xbd017e6fbdb7d07bU, 0x3e03da703e0f5472U,
  0xbd941fe93e4ba1abU, 0x3da45e62bbc94c80U, 0x3c8477d53c6968d2U, 0xbd77ae0cbd70ccb0U,
  0x3cf7e66d3d38a95bU, 0x3d22bdee3ded00c9U, 0x3dd8f9fb3dbc5c67U, 0x3e1d5a873e230915U,
  0x3bda602abd73bdd3U, 0xbd1dc264be0b7ad4U, 0x3b421d0bbd8bbe34U, 0x3c774339bd44a50bU,
  0x3dd2af1a3d603c4cU, 0x3dfd51953dfe7184U, 0x3c8548f43e342a65U, 0x3d8139f3bd210c78U,
  0x3dc138d43d753eb1U, 0xbd68bd24bd2a98fcU, 0x3cb53c04bd3e2020U, 0x3da62f8e3e0da409U,
  0x3e0edac33caaa600U, 0x3ca9af023daf7322U, 0xbd75eee8bd01f158U, 0xbe04809bbd70ea3aU,
  0x3d20ee6fbc6a29caU, 0x3d61e9b63c940cf3U, 0x3d36a6fa3e0b9527U, 0x3d1c957dbb3d2932U,
  0x3e0b51df3e2304c7U, 0xbcef68f6ba7ecf9aU, 0x3db4f2b5bd6c1f9fU, 0x3d2acdeb3b76683aU,
  0x3cfd61ea3bfc99e6U, 0x3cda2ab73b5aa0d7U, 0xbc01e5523bd9624fU, 0x3cfb459c3dc265cfU,
  0xbe10c3c5bdb88f62U, 0xbcd95822bda4d82fU, 0x3dd8ce373d9652e6U, 0x3d0946cd3dd9b10dU,
  0x3d60b7e33e2fa616U, 0xbd6543ae3cab4f4eU, 0x3d835c543df26440U, 0x3b9d52813d8a518aU,
  0x3c9cadd3bd851e6eU, 0xbc317648bdb30b63U, 0x3bf2eca7bdc00b0fU, 0xbdfc2b46bc3f1187U,
  0xbcef0a64bd396e03U, 0xbd293158bd8c4016U, 0xbe3d13e6be4df5ceU, 0xbdf48243bdd1f645U,
  0x3dca4125bc283d40U, 0x3e02d7253d9d4a79U, 0x3b462ea03e5dde0bU, 0x3d55e7203d8e6545U,
  0xbd80d6fabce3be6cU, 0x3d82644dbd97c2c3U, 0xbc1b02803d8dfbbfU, 0xbd87f4b8bd753bceU,
  0xbd99afa9bd989bf6U, 0xbde2ea713da4118dU, 0x3b18f2ccbe226cdfU, 0xbd8e7bcabc56ce9eU,
  0xbe17300abe47904cU, 0xbdb33d88bcea4f6dU, 0x3cc4194c3d903b75U, 0x3e32ab5d3da56fcbU,
  0xbd60dff93db97bbcU, 0x3cf951d6bb45921fU, 0xbd2b0e2cbdc5bda2U, 0x3d3f4c06bd497d7aU,
  0x3d4cc3e3bcca33fbU, 0xbe174a5bbd8436adU, 0x3bfdac25bdf9b41bU, 0xbd729ec7bd0ac265U,
  0xbe15d168bdd73602U, 0xbbb4aeeebdb74133U, 0xbd69ebedbe07ea39U, 0xbc566177bda98835U,
  0x3e2644193a8fdca3U, 0x3d77e81f3e05368cU, 0x3d8099d83d798dd4U, 0x3d2fba69bcaecfedU,
  0x3d8fe614bc87aef9U, 0xbd557ecabcc79bb4U, 0x3d8a12713da78b35U, 0xbd8cb4e43d0e02cfU,
  0xbd85398ebdd6fcf3U, 0xbd6166e6be2c4eb8U, 0xbda6b86dbc68e5b6U, 0xbcc15fabbdd79a8aU,
  0xbd7a5f16bdc82ea9U, 0xbd473ac53bf6f40cU, 0x3cfd2f533d5d3a9eU, 0x3dbdd608bc8ddc34U,
  0x3e59c91a3e17ffa0U, 0x3c6219103db31836U, 0x3d0a581f3c0b6dadU, 0xbd93f4d53cf68f14U,
  0x3e0d384b3cb5cfe8U, 0xbcbef80f3de38279U, 0x3d39fc603d88506cU, 0xbde0db60bda80007U,
  0xbdbb25a7bd869edaU, 0x3dabcc323d3dcc94U, 0xbc9cdeef3d6f9fb0U, 0x3cbfbad8bd93b205U,
  0x3df7803fbd856e84U, 0x3d538eeb3de23741U, 0x3e3a6dd73d800ec7U, 0x3c684bff3e71d796U,
  0xbd84a11dbe1cfff3U, 0x3d7b4d70bcf97fe8U, 0x3d9bd94abdacec23U, 0x3cdb7dda3d57c4fbU,
  0x3db1f635bd6a394fU, 0x3d9621f63ddfae89U, 0x3c7a166bbd2897f3U, 0x3d58b41f3e12eb59U,
  0xbbef838bbbbd4397U, 0xbda382b6bd32b558U, 0x3d44045ebc86a878U, 0xbe00abeabcbf377dU,
  0x3cacde0c3a959002U, 0x3dd6dcf83dbbb7fbU, 0xbd9e1cabbd181881U, 0x3d7f70983d0c0a90U,
  0xba372de73d254b71U, 0xbd66a01abd495572U, 0x3df8be90bd1fb1beU, 0x3d4c89913d99ec9bU,
  0xbd332ca63ccbf759U, 0x3e0836f13dab35f0U, 0x3e6562683de7840cU, 0x3cdd9a483d8f9180U,
  0x3c88b0e3bcf09977U, 0xbe0d9bfdbdcc06b7U, 0x3d1f70aebd6e689eU, 0x3d5fb8a03e066208U,
  0xbce604dab9f613d1U, 0xbd52eca2bbd84710U, 0x3d26675e3d4b400cU, 0xbd523962bdab9197U,
  0x3c219e663c86c27dU, 0x3d05a9c43c915291U, 0xbb8d02c5bd44720dU, 0xbc443ec1be09ef64U,
  0x3d255989bc80a303U, 0x3db35653bc39b719U, 0xbb48177f3db801d4U, 0xbe2eae97be440034U,
  0xbd2e7ad7bb89db18U, 0x3cfafb783e06e1e6U, 0x3c4993e03d39f9acU, 0x3c316f703d7edcbcU,
  0xbce78a8abd862ec3U, 0x3cd1c45fbd84f0c0U, 0x3d8b505b3dce4688U, 0x3d0116703dcbbb8cU,
  0xbc2bbbd03d271bddU, 0xbd549926bd307140U, 0xbd655072bd88cdefU, 0x3dae4e1dbc0ef885U,
  0xbd587afabae58967U, 0xbd98495abdf5a6d7U, 0xbd95dc4bbd731677U, 0x3cd1dea03cc799e0U,
  0x3d9a6c34bd1a7b1fU, 0x3d8ad37abd0f4b3fU, 0xbd913aa13d11e86eU, 0xbcfb25e43bee9510U,
  0x3d9c400cbd42ea42U, 0xbd9aeac23abc7980U, 0xbcf3b3cabd80cd63U, 0xbdb6660d3d257317U,
  0xbd21b52dbcd6868cU, 0x3bd854c0bd473abeU, 0x3d9f011ebd933913U, 0xbd36578f3d602424U,
  0x3cc322543d87c7d6U, 0xbce4a0c6bd854d38U, 0xbce29b363d730850U, 0x3ce348b03d4f6840U,
  0xbc7a0c083d9e59c6U, 0xbd12fdee3d957b64U, 0xbd8fa0b53d03761aU, 0x3d723b863bb4741bU,
  0xbddb067dbd6c75d1U, 0x3d61c11c3c9d881dU, 0xbb3c63bc3b771720U, 0xba3c4e2e3d15a6ceU,
  0x3d3dac7abd6a0194U, 0x39e355e5bdc0633fU, 0x3d399a863d1ae315U, 0xbca9eaf63bc5d5c0U,
  0xbd4e215cbd520b46U, 0xbceacdeabd94278aU, 0xbc8753ca3c8c4fbaU, 0x3d860df83bb52037U,
  0xbd0f7583bd44193fU, 0xbdf5e9c6bd1883eeU, 0xbe1a362cbe61091aU, 0xbe319b66bda0fe53U,
  0xbd20de99be51c428U, 0xbd82fde4bc2fd074U, 0xbdc7da52bda3ff56U, 0xbdab265ebd23f80eU,
  0x3c3240cdbd0d8400U, 0xbdb3115abd84c3b5U, 0x3c28d7f8bd7b24d6U, 0xbd5b9863bcc28254U,
  0xbd899cc2bd26448eU, 0xbd8eccf33d925025U, 0xbe12b183bd9f863aU, 0xbe55a99dbe5e9148U,
  0xbd5bed53be758cd5U, 0xbe1a2dabbd639cb2U, 0xbe5b56c4be542e5cU, 0xbe7a08e3be1bef0eU,
  0x3c5a9d23bda5ae73U, 0xbdb23fe4bb127d15U, 0xbe3c9524be067c95U, 0xbe2da213bde5b572U,
  0xbd6ab3e0bda65a48U, 0xbd989988bd7b337aU, 0xbcc49b2d3d2e1640U, 0xbdfe57d8bd88c296U,
  0xbe1caf6ebd3ff90cU, 0xbd8ce8a5bdbf932dU, 0x3cfde607be1b8557U, 0x3b335c8bbccfe2eeU,
  0xbc7333763d7fd770U, 0xbd8ef3ebbd3c023bU, 0xbc1714813d30369aU, 0xbe0030153d2bf251U,
  0xbd9ed535bdbeaef0U, 0xbd00f4333d928825U, 0xbc4e9c38bda89c5dU, 0xbd2f70e7bd3e4919U,
  0xbd955e903bf2698cU, 0x3c05216fbdaddd90U, 0xbde83569bb79c4d4U, 0xbdc57d74bc400f8cU,
  0x3d2998853c8086a0U, 0x3ceb91683c754304U, 0x3d638a223c0d3565U, 0x3d93f6003d8515a8U,
  0xbdef2e823d0e86a2U, 0x3c6656d1bd86cae8U, 0x3cef0aac3c6c03a6U, 0x3d15481a3deb4922U,
  0xbdae33b0bdc6c267U, 0x3d277f8a3c8b361cU, 0x3c897545bd991adeU, 0x3d8afd21bd6e8352U,
  0xbd55a84bbd89f315U, 0xbdebf791bbb7301cU, 0xbd84d902bce54505U, 0x3b02f4bebdb3828fU,
  0xbde1e9403cfc4d7dU, 0x3d5acfb9bce220c5U, 0xbcca29ab3d2766e6U, 0x3de1ce5d3d455ee5U,
  0x3db096dfbc57dd0aU, 0x3c046144bcecf738U, 0x3d641fec3da54425U, 0x3c8ea5d73c9e4914U,
  0x3c022ccabdc1c704U, 0x3c6e43c43d6c3e58U, 0x3da89d0e3dbcce21U, 0xbcc4b9e43cea6759U,
  0xbdc7dfe0bc769d79U, 0x3bd0b08abdec3ceaU, 0xbdd97737bcdc629cU, 0xbdef8235be2d3995U,
  0xbd1447213db24799U, 0x3df501e83d9ff8ffU, 0x3dbd70ddbc9aee6fU, 0xbdf694d4bb5625ebU,
  0x3de34302bc9a9d88U, 0xbdcfa5b53cd6b5e8U, 0xbcc7f4bc3e09310cU, 0x3d297777bcd68b65U,
  0x3d4ef613bb18a1b2U, 0x3dc24ed43da97dbaU, 0xbd9e9b3dbc3e15d5U, 0xbe0c3ef2be34ac02U,
  0xbc418801bd82b7bcU, 0x3d6331bcbd8c2c82U, 0xbcc7da723da592a4U, 0x3d8720dfbd7cd665U,
  0x3d2c68ed3db767ffU, 0x3e2205b13d976709U, 0x3d1bc71b3dd9db92U, 0xbd325f4e3d2ecdeaU,
  0x3ca2e2403db65850U, 0xbda9ffc7bda10dbfU, 0x3d92a720bcf3e8a9U, 0x3c5d344f3e157424U,
  0xbd3300dcbc5b01e3U, 0xbe510fadbda40f6fU, 0xbe012b5bbdf9d2deU, 0xbd24c35b3d5325d3U,
  0x3d2318e03ceb22f8U, 0x3d95aedb3d2edb09U, 0xbc55cbf43ddca9ebU, 0x3e7621a13d8ec4cfU,
  0x3dcadb473e4c584aU, 0x3d61d0be3a0c43eaU, 0xbca398cabdb23a9dU, 0xbdb7455cbbfda123U,
  0x3d604f92bdb302f2U, 0x3c6b98353d4dca1fU, 0xbe4ba517bd40e0b2U, 0xbeb53976bdc64584U,
  0xbe07090fbe954f81U, 0x3cf4a91abe0a04e8U, 0x3e1087ab3dc8d811U, 0x3a90c8bf3d834ab1U,
  0x3d30cfdebcd36a1eU, 0x3ded0af43e2456f7U, 0x3a1317d43e1f5c6eU, 0xbd96746f3d4caa67U,
  0xbe59ef1fbdefe877U, 0xbdb37257be0af43eU, 0x3d8552d9bd9f3696U, 0xbdeae4fa3d2acca5U,
  0xbdef1a1dbe22bb4eU, 0xbd9271aabc991276U, 0xbe183b53bde8a114U, 0x3cadc3813c0b5ad6U,
  0x3d2cce133db56f7cU, 0xbd6d596a3d921dd3U, 0x3c71a1b0bcb491ecU, 0x3c9a3c3d3c5b25b8U,
  0xbd465e3a3d7d1442U, 0xbd8164f4bd94eaf4U, 0xbdcc1d4fbe0125a1U, 0xbddc4f4fbd73d51cU,
  0x3db10d223c55043bU, 0xbcaebca9bc226f51U, 0x3ce46cb43dcde81dU, 0x3d8559f53decd6e6U,
  0xbd6d7090bc928de6U, 0x3cb7e93fbc4dc4bdU, 0x3b55e038bce78b20U, 0x3ce249eebdc10c86U,
  0xbcdaa3afbd35db73U, 0xbd0914aebe059cd9U, 0xbd118aa53d3e4f4aU, 0x3c5e6c7f3d99e22cU,
  0xbdd866dfbd78c78aU, 0xbd73ef383ca24dcdU, 0x3d630d443ddf887eU, 0x3e2c2eaf3de49a3bU,
  0x3e24448a3e21203cU, 0x3d6255fd3dfe412fU, 0xbbb51c753c19e61eU, 0x3c9454dcbbe0de61U,
  0xbdc9e9b73baadd73U, 0xbe13b41cbda15154U, 0xbd09b539bdb1f880U, 0xbe350191bd809ce4U,
  0xbc94a089bd8464b4U, 0xbbff8bc13d0cebecU, 0xbde7e322be3a4659U, 0x3c9556f53c829b8eU,
  0x3e0dc32f3d012dc2U, 0x3e376b1d3e0b23fbU, 0x3ca5cbabbb209b2bU, 0x3d7d42f43e286954U,
  0x3d9b4b8b3e1634faU, 0xbd9fa4d4bcaa4d95U, 0xbe23fa68be17c67cU, 0xbd86cf6ebe26b6fdU,
  0x3d83ff48bb707098U, 0xbcf91a6d3ccbc83cU, 0xbd7459073bfd15fcU, 0x3c35be253d051735U,
  0xbd9e86b23e2f050aU, 0xbdfb9291be07da81U, 0xbda80c74bca02a58U, 0x3dad5b133e025cfdU,
  0x3e159df03d0aee99U, 0x3da82d643e0a5937U, 0xbcd9d6b73d11e0e4U, 0xbe06e62dbd284cf5U,
  0xbe97380ebe837b76U, 0xbe151151be864e15U, 0x3d934485bc7becb2U, 0xbe011f62bc16c07cU,
  0xbb9474613cc30191U, 0x3d2ca61dbd82c25fU, 0xbde6fd7c3db77320U, 0xbe0a8050be46b591U,
  0xbdbc6344bdc4cd59U, 0xbd82034dbe09314aU, 0x3d8c6e62bd1e9cb4U, 0x3e160f6b3db6e87cU,
  0x3dcc636b3d040d28U, 0xbcfbfefc3ca6e0cdU, 0xbe6651a8bc806c3fU, 0xbe03925ebe172e5eU,
  0xbcf9d01e3dc50f16U, 0xbe1251b23d7b0b63U, 0xbcc5fe1abd87364cU, 0x3d9ae782bd1d1fb5U,
  0xbd8dc3cb3d8df563U, 0xbe37364bbda2b225U, 0xbdc2cae0be0354e5U, 0xbe00e0efbe319f78U,
  0xbb4ec0e3bddb3221U, 0x3e2f611f3d21210cU, 0x3cb1786d3e017627U, 0xbbe537443d1a90ceU,
  0xbe07deecbdc636eaU, 0xbcefc3e6be264433U, 0x3a67c0ff3c81a851U, 0xbc1aef7f3dbaa6f5U,
  0x3d26ddc93a8a35f8U, 0x3d333b85bcb15f8eU, 0x3cb04c8e3c309717U, 0xbd51a431bddb4318U,
  0xbe88182ebe3ed9feU, 0xbeb2553dbebd0356U, 0xbcfed522be0c3185U, 0x3dc17a2d3d0ece6bU,
  0x3e1442983dd93a16U, 0x3d7242c73dba6fbcU, 0x3a09df7d3d60eae5U, 0x3d2c058ebcfe6e8fU,
  0x3d42255b3d9d746dU, 0x3d150bdabd3581ddU, 0xbdaa9a713c88a98fU, 0xbd4e98c93d12efe0U,
  0x3ce80850bdb9e456U, 0xba79e776bdf4118bU, 0xbe87b2dfbc759352U, 0xbe569c20be9707b6U,
  0xbe330e69be93ef10U, 0x3b8575fabe216f28U, 0x3cf9746cbd59d6dbU, 0x3d7e62f93dc297f2U,
  0x3d9e7f883e316452U, 0xbbfe2d4ebdc9fa8aU, 0xbd2a2426bceb3c66U, 0xbdbc6208be1ab768U,
  0xbcff43203c01798dU, 0xbd7f7404bd505f15U, 0xbd3af838bce050a1U, 0xbda3c7573d941c6bU,
  0xbdc85d28bd924adeU, 0xbdcc4658be60bca7U, 0xbdb024bebe55f675U, 0xbe0aabcebe5a76aeU,
  0xbcce217cbd9ad7c1U, 0x3d4e741f3c52f77cU, 0xbc7464743e317365U, 0xbc4205fe3d7cff0fU,
  0xbd9352483cf2cc2aU, 0xbe7354a9be1df398U, 0xbd8b01c7bb69fd6eU, 0x3d9183383d9f9ddbU,
  0x3d28e2663dd2eb57U, 0x3da7d4823dae8730U, 0x3d10583fbd0c269aU, 0xbb9fe0bd3d2775cbU,
  0xbd1f9cd0bd79bf9bU, 0xbe181a3cbdbf1e4dU, 0xbc24fddfbd81c323U, 0x3d4938d2bb499251U,
  0xbd8992d03d1d8ec8U, 0xbd8bae3cbcb58035U, 0x3cc4d29dbdb92accU, 0xbdfc3359be6b88dbU,
  0xbd566ababda3c2c1U, 0x3d3cb2113c6c1a2aU, 0x3c5d6874bbae3cd9U, 0x3dadec8b3e61228aU,
  0x3dd121163d3cab11U, 0x3de593773d68ccf6U, 0x3da4e4bcbbe3057dU, 0xbda4e553bd263e01U,
  0x3cf79d27bce367aeU, 0x3ddd56b2bdb8be29U, 0xbdc88d463db8a9ceU, 0xbda884f6bdc698adU,
  0xbd4c96abbd7cb2fdU, 0xbd863333be4bfaddU, 0x3c246adebd58fe93U, 0xbd8f65a93c3b28c8U,
  0x3e34e5673c9a1d41U, 0x3e4f29443e38523eU, 0x3e4248e03e5fbf4dU, 0x3d96661a3e2771e5U,
  0x3d2552b03da87f12U, 0xbd1fc5e53d48aef3U, 0x3ca74b183d242dceU, 0x3db2b8883dec1d17U,
  0xbb96d1c23d98cafeU, 0xbd6c89d4bd8490e1U, 0xbd75d76cbd0ef003U, 0xbc54c637bd936506U,
  0xbd0166a43d6ee7e2U, 0xbd0915a7bd2dc23bU, 0x3e3da5283d8b2d23U, 0x3d574d623d2615c6U,
  0xbd143d8e3d4590a5U, 0x3e0dc6a3bcf71b31U, 0x3d751d2f3d35b93aU, 0x3c6709633b203362U,
  0x3d1882813cc95f43U, 0xbd66d30f3d9da84eU, 0x3c9ac5e1bd513a38U, 0xbd42cc32bdf7c640U,
  0xbcf07fb6bd96168bU, 0x3d025e02bde0b35dU, 0xbd8f3de7bd813df0U, 0x3cee3644bd1e8445U,
  0xbbd23202bce54ee3U, 0xbd6e65a1be177fe0U, 0xbda2617dbd9230bbU, 0xbd83b7403de7c2a4U,
  0xbd38b2d83d8a2914U, 0xbaa106f43cb62701U, 0xbd057c15bbb9ce54U, 0xbe02bfd0bd4154c9U,
  0xbe30e8a6bcdd8bd3U, 0x3a46f26bbe17e3fdU, 0x3b21efd3bcf374adU, 0xbc4433cbbdb9947fU,
  0xb81028003c3bacb0U, 0x3d578d143d0c64b8U, 0xbcef3379bd4bbae4U, 0xbdbcd732bc6d64caU,
  0xbdb45f04be1c8c4fU, 0x3d67ab89bc22984aU, 0xbe2f2619bd1188cbU, 0xbd7930edbe199524U,
  0x3d395dadbe431640U, 0xbdcd2289bce3d748U, 0xbe50dd23be09330dU, 0x3b8fc9ed3ca3bc83U,
  0xbc3acfcd3dfbdbadU, 0xbda4cfc63cb67b53U, 0xbc5074083d68fd74U, 0x3d1133a8bcf67436U,
  0x3a6b2c80bd11ce19U, 0x3c52c4c8bd4129c0U, 0xbdd41296bd84972dU, 0xbcd6f416bdef2511U,
  0xbdd74894bdda6a1fU, 0xbce3f384bd623f45U, 0x3ba6ff3dbc010d0bU, 0xbdc7121bbddb3ca6U,
  0xbd85a720bca08c30U, 0xbd1efdc33cbb161cU, 0x3c8ab710bd302a13U, 0x3cc8b5fcbd731668U,
  0x3cc3c150bd8599a5U, 0xbd5781393d06f9aeU, 0xbceb8f60bd03108cU, 0x3d80f14ebd8fb362U,
  0x3d1e32063c7ea138U, 0xbd8c89dcbd8d2577U, 0xbd7f5250bd6a446cU, 0xbd9828bc3d01b25eU,
  0x3d9d8eea3c975084U, 0xbd90e351bcf4a604U, 0xbd31a41f3c938794U, 0x3d4832843ccf5130U,
  0x3b4f4e003cd4d0c0U, 0xbd8c6b88bd60b7a9U, 0x3d6a5af4ba02c800U, 0xbcf2970c3c1ee3d8U,
  0xbd46f6883d70e89cU, 0xbd82b8d6bd2aead0U, 0x3c407b60bd7c4d50U, 0xbd90baa83d4ca6b4U,
  0x3d29cb373d158378U, 0xbdb8bbbd3d96c59eU, 0x3d60b5693d0e26a2U, 0x3d52a49fbd407f73U,
  0x3d8129623cdfec89U, 0x3dfe0e113df8833fU, 0xbd3e4a4b3da2767aU, 0x3d548a743d4558bcU,
  0xbd929b7cbd68bffbU, 0xbd3e0dedbd3a2021U, 0xbd7d6a1dbbbcef18U, 0xbd1b56643c0f6468U,
  0x3cfe7928bd814e17U, 0x3d3ce94bbdb34244U, 0xbc861eb8bd982c75U, 0x3d14224bbddb7e15U,
  0x3d190b54bc86f563U, 0x3d751a53bd709e99U, 0x3e017da73e20f28dU, 0x3dd5126d3d2de90aU,
  0x3dcc6a253a044e99U, 0x3da591163d6cf6b8U, 0x3d54599cbcd45380U, 0xbc979a5abd6b15daU,
  0xbcd535893d4bfe13U, 0xbcd48c9d3d40f356U, 0x3ad1e10dbd9a747fU, 0xbd63d1bc3c94d799U,
  0xbe6dd17fbd60e013U, 0xbe712c15be328e72U, 0xbdbb4f26be034577U, 0xbc6f1f39bdd986b5U,
  0x3d57fc0b3dd9e8b4U, 0x3dae86223d59cde0U, 0x3c1968b33b6f1c47U, 0xbe147b50be303926U,
  0xbc041900bd90955cU, 0x3d6ae1803c2ee8d0U, 0x3d8abdec3d20bc4cU, 0xbc90d86ebe0f273bU,
  0xbe1f9b7fbd4752f1U, 0xbe35249fbdf1ea72U, 0xbe3ba040bdbb80a8U, 0xbe3ca18ebe56f28cU,
  0x3dbf025ebd1a463dU, 0x3d420a333d493f0eU, 0xbd2eaa70bdc0bda5U, 0x3d1d90c5be055d45U,
  0x3e1519a83c9bc985U, 0x3d99dfc73e338fc5U, 0xbd8239b43e18fc48U, 0x3c9e28703d3fc016U,
  0x3d85dd343d1bcb72U, 0xbc5479553d74af02U, 0x3d8784c9bb92c1daU, 0xbe3fd79fbd8738b2U,
  0xbe48f4b9be782997U, 0xbdb4059ebe47434eU, 0x3d88f58ebd315c0eU, 0x3e2753ab3cb38b53U,
  0x3d754bf53c841027U, 0x3cceb5f13d3bd4a2U, 0x3dcf0f613d423d24U, 0xbe0faeccba91d909U,
  0xbb2eaad43d66ddc9U, 0x3d3bcdcfb8632800U, 0x3d4d0f933ca4c810U, 0xbd3c87e43e1f5d32U,
  0xbd057c4bbc87d8a2U, 0xbecbe61cbe87cbacU, 0xbe7b8df4be9a1152U, 0xbc85e43dbe343690U,
  0x3ba65fbabdbbb40fU, 0x3e00d9e4bd060f7cU, 0x3dd61ceb3da18ab1U, 0xbc81710a3dff38d8U,
  0x3c93b2ae3bd5638dU, 0xbc89fe873ca05727U, 0xbcfe5c563d5ffa91U, 0xbcfa55c43d9711fcU,
  0x3bbb0d88bdde994cU, 0x3ceb2586bd3d61a2U, 0xbd76682ebd80776bU, 0xbec8654bbe81031dU,
  0xbe3916adbead1248U, 0xbca6a86d3cd1e2afU, 0x3d8a3019bb75b397U, 0xbbd51df6bd091fccU,
  0x3e0655ebbc87573dU, 0x3d1701f73dbbaca4U, 0x3e496a263d7016b5U, 0xbc7966703dd2cb67U,
  0xbcf013bfbdca1e07U, 0xbd5751153c4bfb0bU, 0x3de5995dbde37a21U, 0xbc1128d33dd168ffU,
  0xbe28a06abd4a40acU, 0xbe82688fbe749c75U, 0xbd09db3bbe3093a9U, 0x3db949023cc113f9U,
  0x3d9b60db3dc7483fU, 0xbe0e66ce3d39c816U, 0x3db65fe83b718948U, 0x3da0121c3b4bc634U,
  0x3e76bd773dc5a330U, 0x3e42f4ba3e9a1959U, 0xbd419d633db90132U, 0xbda57d3abd6d3531U,
  0x3d6f36bb3ca80e82U, 0xbdc655743d27c6a2U, 0xbe17364ebdac6101U, 0xbe2ff317bea8c0bfU,
  0x3cbababa3cf32f11U, 0x3e47fa6a3dfb0bd4U, 0x3cee63f63ce8429dU, 0xbe37840dbdc1d765U,
  0xbb9bf00ebe09a756U, 0x3d866dab3d1ee01eU, 0x3e04d1693e1f4022U, 0x3deba4863e7c6788U,
  0x3d885c173df3fb9eU, 0x3a788bf83d0d625aU, 0xbe080b6abd4755b7U, 0xbddc69223d386caaU,
  0xbe90b540be75cf21U, 0xbdc34050be8b4bb3U, 0x3dbe2edb3c96965eU, 0x3db255ba3de0fa93U,
  0x3d7542893dfdbccfU, 0xbe2423d8bd10ec85U, 0xbd28039bbe03421dU, 0x3db2e6b1bb4be5dfU,
  0x3e873db63e5f9b93U, 0x3e55f7ce3ea7314bU, 0x3da8acc83dd26718U, 0x3cc46c823c8d4372U,
  0xbca4cf91bd1fad69U, 0x3d018984bdb7c109U, 0xbe40971abe672c4eU, 0xbcae95c6bdcfd901U,
  0x3d27a0ab3d438524U, 0x3c8903713d437d65U, 0x3cf90a0d3e10afc4U, 0x393dfc143d432df8U,
  0x3b55240f3db39cb2U, 0x3d02f47a3cd5a81dU, 0x3e7bdd073e3f2d0aU, 0x3e1188863ec7384bU,
  0x3e096e5f3d39a665U, 0x3cb3abd23cdc8940U, 0xbdc8b7f2bd8ab964U, 0xbd102a1fbcf64782U,
  0xbe194a05bd6063b8U, 0x3c77b8d4bca8c63cU, 0x3d4777523d887636U, 0x3e1148e4bd4689c4U,
  0x3e2339fc3e1e62a5U, 0x3e48a10f3d819f47U, 0x3894e5ae3e1ab098U, 0xbccab608bd00b47eU,
  0x3e251f893d0c767dU, 0xbe175b2e3a75c766U, 0xbd0e9626bdce217bU, 0x3d89ea2f3bd9917eU,
  0xbddcf2aabdd163f1U, 0xbe44ce33bd2197cfU, 0xbe10b18ebddb999eU, 0x3cb6f631bdc313beU,
  0xbe1bd4d2bd752e35U, 0x3d38a6acbda5f8f0U, 0x3e351a513e3c7263U, 0xbc3382973de0207bU,
  0xbc800ba93be95170U, 0xbbb7664cbd592794U, 0x3c6ac13e3d779ec5U, 0xbd98690cbd00e07bU,
  0xbcc82804bda42681U, 0xbd8779823cf2d65eU, 0xbe022bd6bce52568U, 0xbcbaa56dbd8cc832U,
  0xbd9f7b42bcde3b38U, 0xbdc632cfbdce7193U, 0xbd30703fbd7dcd8cU, 0x3db70ff0bd1c7b25U,
  0x3dbc3ee03e0e7eb2U, 0xbd4b9d4d3cb8775fU, 0xbe774ccabe281ff9U, 0xbb82fd87be3ab015U,
  0xbe28268cbd3d52f0U, 0xbdb53f5ebe367aa0U, 0x3d687a8cbda915d2U, 0xbad2d340bba87cb5U,
  0xbe0bb60a3d6230dcU, 0xbc94ad3abc9279e7U, 0xbd922c8e3d8de19fU, 0xbe068714bde515a6U,
  0x3db00ba4bd69b60cU, 0x3ccba2723cb1bad5U, 0x3dd86bb13e366b42U, 0xbd4643bfbd283615U,
  0xbe9b2589be0311e0U, 0xbda3a944be84ea8eU, 0xbe8762e8be1b8eedU, 0x3cc876eebdb6314eU,
  0x3c6a812bbd7a6874U, 0xbd7750a4baf18700U, 0xbdb19ed4bd92069dU, 0x3dbc5df93e007573U,
  0xbdc75040bd2e5653U, 0xbb55d0c3bde3cae8U, 0x3d30ffbd3c133ea7U, 0x3d437ca2bdc56d36U,
  0x3d4a653b3da08df4U, 0xbdec1ba0bcb06d17U, 0xbee770bdbe332845U, 0xbe8eb44cbe949548U,
  0xbe22fa5bbe817f1eU, 0xbe0a0849bdd7f365U, 0xbdb7d783bd0d39a9U, 0x3b1a1928bc15e7a8U,
  0x3d8a382ebdcfbf87U, 0x3db83ed6bd133441U, 0xbd73ffac3def363dU, 0xbb56927ebd5f617aU,
  0xbd139a443d37e548U, 0xbd05c9cbbddd84aeU, 0x3c875dc23dc700f8U, 0xbc91b3c33c7e38a6U,
  0xbec1b2e2be3c51c8U, 0xbe689d4fbe48c0f1U, 0xbdfc0e30be8963f7U, 0xbda2fd5bbdf59e00U,
  0xbdb53ace3b7b0ae6U, 0x3d206421bd03dbaeU, 0xbe157840bd929dc0U, 0xba8875babd13bb46U,
  0xbd98f895bd572862U, 0xbd6f4c383b57e1a4U, 0x3daa6ccc3cd89b3aU, 0x3c33f8d2bd9bb708U,
  0x3e32fa39bbf94fc8U, 0xbd5c45dd3c90e117U, 0xbe99f829be97ce4eU, 0xbe33e85abe402373U,
  0xbdcd7dabbe12a677U, 0xbc31249cbc656719U, 0xbcea3bb13db2a9c7U, 0xbd863b213d86ea0bU,
  0xbe5b0c63be02d5bdU, 0xbe06c408be4893f5U, 0x3c7a33aabdb9ec53U, 0xbd5239f33da56a1fU,
  0x3d834f003e0837d5U, 0xbc2bef19bd5fa743U, 0x3d200c4f3bb27606U, 0xbdcef7723d277510U,
  0xbebeeceebe8e7384U, 0xbd6393d0be2d7eb6U, 0xbe363b97bdd3b0c8U, 0xbdabdcb5bdcdf30dU,
  0xbda12d493e0f0682U, 0x3cf8293fbd10e9a7U, 0xbe24fefb3ce03eb2U, 0xbd9c4832be819810U,
  0x3d5ce9043c02aba3U, 0xbca875da3de73c11U, 0xbda458523d4cbfcdU, 0x3d459399bd745afbU,
  0x3d7be2a83d38e2c7U, 0xbe0c08f4bc06f692U, 0xbe97ec47be9ef003U, 0xbe4af2fbbe28aa18U,
  0xbbbefcbfbe0b9b0dU, 0x3d951a06bb978903U, 0x3c96b1453e1c59c4U, 0xbd66b252bc5817deU,
  0xbe3a0ee2bccaccbfU, 0xbd424dc2be17b867U, 0x3da36887bc064e08U, 0x3cab6062bbf0b50bU,
  0x3cc31ac43de8b686U, 0x3db21706bd1ba417U, 0xbd1118ab3e16bca3U, 0xbe3bc414be10079dU,
  0xbe82bc61beb31c46U, 0xbe7e6ba9be8d03c6U, 0x3c275a0cbe75b3dcU, 0xbd878a8dbcb52dbfU,
  0x3d486b4c3d13858fU, 0x3bf2a18a3d6e9577U, 0xbe2268b0bd4a75caU, 0xbd9375b2bdaae614U,
  0x3cfecb5abd805751U, 0x3cee86f93cd3d8d5U, 0x3cefd9943db070b7U, 0x3dcacec73cab93a1U,
  0xbdbf28fd3df673dcU, 0xbe8bdad7be60f0d7U, 0xbeac3097bedab62dU, 0xbe41bc02be6925f0U,
  0x3d15f063be9ef6ecU, 0x3d2567613d871f28U, 0xbc266120bd857b28U, 0xbd952949bd0b5f57U,
  0xbd812920bc53e100U, 0xbcf2e1ddbdf13132U, 0x3e025ea3bd18552dU, 0x3db0886a3dd39d0fU,
  0xbc3b90543d8af8f7U, 0x3e3feeac3e03dc91U, 0x3d5cfba93cc780efU, 0xbe597240be0fa518U,
  0xbe8f833cbe749debU, 0xbda4c6c0bd4b7770U, 0xbd5f0632bd3b5082U, 0xbd50a3d4bc8d2f5dU,
  0xbc26d7e0bce978a0U, 0xbcfac538bd887678U, 0xbd8b9b3b3c9f01a8U, 0xbdb879fcbde57c71U,
  0x3ddfabf1bc1471edU, 0x3e2071983db27c82U, 0x3db2facf3d174a95U, 0x3e009c3f3dd8855aU,
  0x3dc6506fbd58a22dU, 0xbe076a32bdfd3830U, 0xbd555034be548095U, 0xbc3fcc8fbd8de1f6U,
  0x3caefbe23c8cb789U, 0x3d3df2e33d0e0b97U, 0x3c08eff03d4a3ad2U, 0x3cf8e01cbce664dcU,
  0xbd0e7ad6bb511e06U, 0xbd5f98c4bc98abf1U, 0x3e07c04c3da7d692U, 0x3dd68b933dc0b90aU,
  0x3d5c07ae3c9664f7U, 0x3e0bfe6d3d98ec0eU, 0x3d2e8e543d526a64U, 0x3e0d53eb3d202038U,
  0x3c618dc7bb2d00abU, 0x3d51d0ed3e16b8ccU, 0xbd94faf03d1aae85U, 0xbc579a84be14472dU,
  0x3c55a0383d5635dbU, 0x3d838c9cbca941f2U, 0xbd25e4783d8f3380U, 0x3dc16a213e009b55U,
  0x3e34c7393ddd9fe1U, 0x3e0a924d3e035df3U, 0x3e1690fd3d74cbcbU, 0x3db934333e391e99U,
  0x3e4e82063e4da0ddU, 0x3e20a5a63e52afd0U, 0x3e00fd8a3dd6f06dU, 0xbbc790e2bd40daabU,
  0x3d0c4cad3d68e3ddU, 0xbc9e50bb3d00b6daU, 0xbd0d3117bd0aacaeU, 0xbd038a3abd92fc7aU,
  0x3d0ab9963d17b93cU, 0xbd8a1accbcf71af6U, 0x3d23a0b6bd48d668U, 0x3e2d785c3d3a5af7U,
  0x3e5b7d85bbaff12eU, 0x3e076e363e1ed88eU, 0x3d77c3d43e2cc59bU, 0x3daae4c13de84199U,
  0x3cfe3b293de32328U, 0xbd4b74ed3b046630U, 0x3d7a586c3cee62e3U, 0xbd8c2a723d1a7112U,
  0xbc2927a03b7e0940U, 0xbcb43e70bd761a3cU, 0x3d6d4c90bd7155ccU, 0xbd7172b53caa7754U,
  0x3d92e7bebb5ed0e0U, 0x3d89ce963caaa9e4U, 0x3cf88554bd4b2cc6U, 0xbcb8d5613d7c10faU,
  0x3d4d29e03d52e800U, 0x3ca4a8fc3d729980U, 0x3bc245b0bd3f0cbeU, 0x3d395e323d429018U,
  0x3cebbcf0bd20a4d9U, 0xbd87b8703d195b1eU, 0xbd7984ecbd906353U, 0x3d3935b6bd5f2f41U,
  0xbd6e88aa3d1ba3deU, 0xbd016335bc74f2b8U, 0x3d982f8c3d281392U, 0x3d38efa93cd15703U,
  0xbe09620abda41279U, 0xbd670583bdfb85ffU, 0xbd28c3eb3dbb5cefU, 0xbcee3970bd87b6ecU,
  0xbdba42fcbd771efdU, 0xbd8ebb253d6089feU, 0xbb14a5203c9b9688U, 0x3c59d4403ce0b73cU,
  0xbc7e0f083cce426cU, 0xbc491b38bd392591U, 0xbe1490fb3c819db8U, 0xba2a63b3bdb14a0eU,
  0xbd4f13cc3d5894b9U, 0xbc7f809f3d890d1cU, 0xbdce384cbe27e08bU, 0xbe25800abe89524fU,
  0xbc5a00bebe1c5f81U, 0xbcd6efe9bcf9cfcfU, 0xbcd766d2bdafe7c4U, 0xb9e56d4cbd7ea3c1U,
  0xbd376558bbf7dbc4U, 0x3b0fc6dfbdc612dbU, 0x3d2cb2ce3d4b306cU, 0xbd13a3bb3b866f90U,
  0xbdeb8ecb3cd47312U, 0xbddccab1bddaf233U, 0xbd9cf1423c395fcfU, 0xbe6696d8be2b5cc6U,
  0xbe33152ebe2f5acfU, 0xbd5176aebd9c3589U, 0xbdb598f3be132499U, 0xbdc4bfd0bb29a3f8U,
  0xbdd3f3c9bd3bb1c1U, 0x3cdfb9d5bd531311U, 0xbdd8c3683c66e4edU, 0xbd9c2211bbb8f82dU,
  0x3d03e53cbd3c091aU, 0x3d2a459e3c6c0b60U, 0xbd83bc3d3d56c46aU, 0xbcdc1e9fbd1d6fe7U,
  0x3d08a30fbdd17b93U, 0xbd85503fbdbcfaeaU, 0x3cbdc9cabce20088U, 0x3e222b2e3e018392U,
  0x3d613e063d016623U, 0xbe26ab2c3d5e8a66U, 0xbda32e90bdee2a93U, 0xbdd4503bbd61cd74U,
  0xbd872f0bbde7f191U, 0x3c89e907bcda26d1U, 0xbc160e1c3da4478dU, 0xbca45334bd7b22a1U,
  0xbe005f3d3d48de04U, 0xbe63608dbe231b38U, 0xbca39339bd7c12baU, 0xbd874452bd5b222cU,
  0x3e2931923dd154e6U, 0xbda603e23dce2653U, 0xbdcb995abd241b9cU, 0xbcd0b6823d2727ecU,
  0xbd31cb86bd9b3752U, 0xbcbd0b32be099d65U, 0x3c74d906ba930c2fU, 0x3ce0726bbd888138U,
  0x3d4e1bae3d4e6b78U, 0xbd07c6183d531f38U, 0xbe3e7cc3bcdf112eU, 0xbdd29ddbbda38ce0U,
  0xbc80ccdabdcc9ce8U, 0x3d22eea43b841c3eU, 0x3db9c8753daf6434U, 0xbe3ebd2e3d977c07U,
  0xbdcc1988be179e0bU, 0xbc6de26ebd8ee2f0U, 0xbceba729be0e73f8U, 0xbe7110aebe6625b2U,
  0x3e2dc3b1bd86b0aaU, 0x3dd1c5fc3d9f3082U, 0x3d73c8f63e37c786U, 0xbd3ce8dfbb7c717dU,
  0xbd96cfcabd7cafd2U, 0xbceb0d26bd9a8b22U, 0xbcc0962ebdc9aee7U, 0x3dc388223b8372a9U,
  0x3e049fdc3e392ea3U, 0xbe096f583cb0fb4dU, 0xbdd95b55be080d05U, 0xbd566ed0bdcc0220U,
  0xbdf2a920be002e86U, 0xbe19904bbe72f362U, 0x3e0b8bbd3cad9f65U, 0x3dee5c7c3e138990U,
  0x3c6cec4e3e63f068U, 0x3d535cfbbbeb9285U, 0xbb6446efbca79026U, 0xbd91f061be39b9a7U,
  0xbca6a14dbc5f6f26U, 0x3df0c5333d7d525dU, 0x3db0f73c3e23b2e7U, 0xbd8a574c3d955a13U,
  0xbdb1d1bebe02cfd7U, 0xbda190763cb30e26U, 0xbcb46251bdff0dfaU, 0xbdaf348dbdc109b6U,
  0x3dba0fd63d58bf26U, 0x3dd19f3e3e654969U, 0xbbeb31d23dc62b8fU, 0x3d243cd0bda16396U,
  0xbc4c9d1abd4acd4cU, 0xbdc1e48bbd8cd629U, 0xbd68ebee3d83fad2U, 0x3e49a4383dc1ed15U,
  0x3d1c57993e11ac7dU, 0xbe2000003d00555aU, 0xbe1b8b3fbe64a2e2U, 0x3d267283bdd6bfcdU,
  0xbd1951f2bcfb3f9fU, 0x3ddc6c43bb90efd0U, 0x3e6631353e42edceU, 0x3e920de43e4c9364U,
  0x3c80c5313d8ae854U, 0xbd4b983a3ca997e3U, 0xbe3c5efcbcdf45e5U, 0xbdb687eabdc61d1fU,
  0xbd99beb3babf4598U, 0x3e2305693c723431U, 0x3e05bcee3bd70663U, 0xbd11d8ec3d340ae1U,
  0xbce888b6be13dffbU, 0xbd8a94d9bde3562dU, 0x3d86173dbd9931bbU, 0x3e5d67f53de94e78U,
  0x3e2ab5f33e486268U, 0x3e35a87a3e729209U, 0x3d0226df3de8523eU, 0xbd2dce2d3bf7b867U,
  0xbe4644ddbe1d1f6eU, 0xbbaf452dbd02ad4cU, 0x3c2b9478bd6b92fbU, 0x3d2413a3bd2cc1fbU,
  0x3e13965d3d9fbd9bU, 0x3d9629513e0276c8U, 0xbd90e8b0bdac409aU, 0xbe0578b4bdca4d64U,
  0xbd0d7bd0bdd91802U, 0x3d6304303d036919U, 0xbc003bd83cf01401U, 0x3dd8dd943de9b51eU,
  0x3d4d936a3e0d1541U, 0xbdca1e323b2a83f0U, 0x3d2ca0a9bdc5f360U, 0x3caa49193d700660U,
  0xbd8f907b3b8cbf1fU, 0xbd50e9053dbc6b6aU, 0x3c100ee73d0832b0U, 0x3c625f0c3e09d086U,
  0xbe0f4df7bda15ef9U, 0xbdb376a2bdb4c9baU, 0x3d48de72bd3d4a99U, 0x3d8ab6dabc4e6b41U,
  0xbd24febe3d6d0790U, 0x3d8e01633d89f604U, 0xb9c1427a3e782659U, 0xbcca5fe83d6a5374U,
  0xbd8d6d71be121d11U, 0x3d2a294d3d8f19adU, 0xbc9a1bd7bbc65a8cU, 0x3da6e78dbd3bbc37U,
  0x3d2a01793cb69ed1U, 0xbdd21b203d36faf2U, 0xbdf43ad4bd3cac6eU, 0xbde8b345bdd05ae1U,
  0xb97445d43b84b675U, 0x3c829cc3bc156738U, 0xbdf04e3d3d468917U, 0x3dcae57ebd6e5f53U,
  0x3c5fa0793e209a87U, 0xbdeb9559bd86db35U, 0xbe3c550bbddf9daaU, 0xbe22b205bca14dd7U,
  0xbc35328a3d0301e4U, 0x3c7101a43d718555U, 0xbd50dec3bd7c7c97U, 0xbd7959febe25165fU,
  0x3caf8539bd5a481eU, 0x3d90c437bda63061U, 0x3d1465c13d03fce3U, 0xbdfbcb47be2f2fd3U,
  0xbdf629d3bd9b8e6aU, 0x3df50b8dbd2ae2beU, 0xbd846930bd93dbacU, 0xbcc37cbd3a5134d9U,
  0xbdc7ca7e3ab41f36U, 0xbe7c5c11bdd9b0f2U, 0x3c6cce7dbdb40478U, 0x3e1b78b53db2c094U,
  0xbd11a2583d8c1513U, 0xbd1be30ebc88af68U, 0x3c584d08bd303886U, 0xbda65a113b3e9380U,
  0xbd5ada4dbc93a19cU, 0xbdadf007be5d2b84U, 0xbc9f5608be07b2a0U, 0xbd34d6cfbd46a25aU,
  0xbc403a5e3d0768cbU, 0x3c840067baeb382cU, 0xbcc33af2bc6bb610U, 0xbe86f67cbe3dea77U,
  0x3d911944be0099abU, 0x3de2a8613d8db4d8U, 0xbd491d373dd139d1U, 0x3b82b869bd115001U,
  0x3ca540c3bdb63984U, 0xbdbb87873ccf57dcU, 0xbdf5d199bd84f7afU, 0xbdf8dd64bdf4a966U,
  0x3d9e67a1bdc3668dU, 0x3c945d533daac183U, 0xbc656ba93d4f76c6U, 0xbd43ced03b9aa7f0U,
  0xbd39b3c4bba7c8adU, 0xbc056993bd21567cU, 0xbc00ccd3bdc43d34U, 0xbd2732b4bd01c4e3U,
  0x3dae2351bd1abe0dU, 0x3e07c4343e4e7964U, 0xbd812a51bd2fc527U, 0xbd4bfffabdb2c25cU,
  0x3bcce3b9bc064a75U, 0xbcb64b0abde458e2U, 0x3e2f1100bd4ce6bfU, 0xbac12e6d3dd0bbdaU,
  0x3d5c2592ba8465c2U, 0xbd69c5613ce257d3U, 0xbd080d0ebd268288U, 0xbc8295fcbdd4aa45U,
  0xbce4d2d53d7c79c1U, 0xbd8eb19ebc924423U, 0x3da377edbd5e973aU, 0x3e00eeeb3e2d5e9fU,
  0xbdad0355bc0caabfU, 0xbe1d92d3be510aa8U, 0xbc076ccabc8e0f63U, 0xbc254438be082dc4U,
  0x3d38384e3e0abdf3U, 0x3de4c55e3e0c06edU, 0x3d2fe5843bdc847bU, 0xbb0127403a6cf937U,
  0xbc437d0cbdcd5b27U, 0x3c8ecb50bc99949aU, 0xbd5ff51c3d2ba74cU, 0xbd3fe43dbdef344dU,
  0x3df465a33d0fcde2U, 0xbcae8c8d3e15603eU, 0xbe29cd8b3c5b6880U, 0xbe2fe56abe88f436U,
  0xbdd3393ebda78acbU, 0xbd846823be15d57fU, 0xbceb30053cdcb321U, 0x3cb26bc83d8a7717U,
  0x3d6b69ddbd64bce9U, 0x3b8002d7bd42e68dU, 0xbd00d4a2bd0dbd5bU, 0xbda0f2e1bd8972b1U,
  0x3db4825b3ca393b7U, 0xbc192c893ae81253U, 0x3dcc4880bdaa82f7U, 0x3d8128ce3e533bbaU,
  0xbdcc99d6bd89149bU, 0xbe1d61e7be33783dU, 0xbe1d17a4bddbe7f9U, 0xbcf90b83bdfe0dfcU,
  0x3dde73edbca76f23U, 0xbe379ba0bb906460U, 0xbdac2717be0b37b1U, 0xbc32ee993d672240U,
  0xbd8b269ebc083149U, 0xbde537ffbe440bd1U, 0x3d0ae443bd84ae0cU, 0x3c95a776bd01e60cU,
  0x3e18a9eb3d762cf7U, 0x3e087da53e04e222U, 0xbd6af9ebbcec9217U, 0xbe43af4abe19344fU,
  0xbd0e5c00bd2b0883U, 0x3def9606bd121744U, 0x3dcef72e3e018fafU, 0xbd938b67bdf1fbd3U,
  0x3d8f3ee5bd01b406U, 0x3ce9c230bd884571U, 0xbdeb09d8bcb492d8U, 0xbddf0976be28c130U,
  0xbdaf4b2fbdad2363U, 0x3c85cf29bd225b95U, 0xbc15fbd0bd6a404bU, 0x3d2c367e3ddabdb2U,
  0x3daf73a53d93cad8U, 0x3b04e3fbbde3c5d4U, 0xbd6d5a70bd46dfd0U, 0xbd06e757bd159388U,
  0xbdd005d33d0ecabbU, 0xbd009aebbdff9ddbU, 0x3c5e22f3bcc908e3U, 0x3c820dd4bcfa71aaU,
  0xbe0bda54bd1a1d9eU, 0xbded6e30bd70d862U, 0xbe0e1e8ebe146c55U, 0xbd02cda4bdb79741U,
  0x3e036f3cbd0736b5U, 0x3e2127713e254dceU, 0x3dd7b4683e290638U, 0x3c48414f3da91db7U,
  0xbc7eb392bd550345U, 0x3da425d63d3b5088U, 0xbd289c3cbdbbae12U, 0x3b24adf7be19d3bdU,
  0xbcd4c1223d166227U, 0x3c8638883cae8a88U, 0x3d4b6d143d152c55U, 0xbe0f6234bd901777U,
  0xbe41a479be8a7c37U, 0x3c8b2cf3bd8dd7eeU, 0x3dd20cbc3ded09a2U, 0x3dc0e00b3e00a165U,
  0x3dfa2bc33d880046U, 0x3d074ae73d6f3049U, 0x3da670ad3e0c1d16U, 0xbde7f2d1bd39f11eU,
  0xbd13b02ebd6c6d99U, 0x3c467d39bd817c49U, 0x3d837a963d1f6f08U, 0xbcb39fc4bc705318U,
  0x3dae37e5bcb90ee9U, 0xbda5e752bd67e707U, 0xbe0d333dbe01d112U, 0xbdecc173be2fcdabU,
  0x3d341c96bdc52f33U, 0x3dadd8093e046e74U, 0x3e5b343b3e48d401U, 0x3e1fc7d93e9a4d28U,
  0xbd633ff23decd34cU, 0xbe5c8b7ebe252b14U, 0x3c8b09edbde2ec2dU, 0x3c5f8c2bbd78a1d9U,
  0x3d7338143d5a6106U, 0x3d0f82ce3d8ada18U, 0x3ce9f9d4bd7872dcU, 0xbe22bd61bdcbafc8U,
  0xbe3a6b03bdee91baU, 0xbdca5ea2bdade5f3U, 0xbdb3c31cbddd42a5U, 0xbda496d4bd57a342U,
  0x3e18cabdbd6c1000U, 0xbd52f9a6bd2ec53eU, 0xbdf14398bda1c60fU, 0x3d177c61bdca5979U,
  0x3c7382fabc486156U, 0x3d381fb7bca2b42cU, 0xbd731a183cc6f434U, 0x3d16626abd00acc7U,
  0xbd31c8b03c4195c0U, 0xbd80ae6b3b3c6d66U, 0xbd1b0ee9bbdfff2eU, 0xbe25dc78bc5a750cU,
  0xbdda26afbdbefa26U, 0x3d79fbdc3c81e43fU, 0xbdabd287bd99fa77U, 0x3d1c70b7bc5a15c4U,
  0x3dba9ab23d8516c8U, 0xbd3a59bfbd9dad0bU, 0xbce33c3d3d8302afU, 0xbb1e91a03d896b8cU,
  0x3c95e45cbd95f59aU, 0x38bc0000bd973d00U, 0xbd89e1233c499c88U, 0xbd725aaa3d99c1d8U,
  0xbd76edda3d4e8014U, 0x3c7de8b03d86915eU, 0x3cc6518cbd185a1dU, 0xbcf42e63bd965dc1U,
  0x3d3c5875bd8d7b62U, 0x3d852496bd729419U, 0x3d462a20bc930536U, 0xbd306ad6bc254e90U,
  0xbbf49dc03d822642U, 0x3d8677ac3ce21310U, 0x3bc3b120bd9bd5deU, 0x3c8ff344bd8ff734U,
  0xbb8621503d622020U, 0x3d126662bd7f3036U, 0xbe10d7b03d5df0acU, 0xbd9500a5bda455a1U,
  0x3d0805c6bcb78eedU, 0xbcb0d9ebbd99ffd3U, 0x3c158748bc12b0efU, 0xbe07297abd2e37c5U,
  0xbd6d2a08bc88d993U, 0xbe20120cbd7ece71U, 0xba85e9a9bd9cecdcU, 0xbcbb8c80bd48d27eU,
  0x3d0930d8bc86d1beU, 0x3d9b6388bd595d60U, 0x3d07aea23d86c6f2U, 0x3d4df085bdc29736U,
  0xbd623961bdba0dcdU, 0xbd27e0c1bc25c538U, 0xbd7d19d9bd1aa909U, 0xbd602a74be2f4dc7U,
  0x3c04252d3dceeb26U, 0x3ded7f673c81d915U, 0xbe185cbcbc27883bU, 0xbe133de5bdd66a38U,
  0xbe14ea36bd91529eU, 0x3d5c1d633c16f7f0U, 0xbd4888c7bd983b4fU, 0xbb3bcf00bd127c36U,
  0x3d6961b0bcaa0bbeU, 0xbd397eba3ca849feU, 0xbdaf053cbd8df239U, 0x3d3d13ddbdc12dc8U,
  0x3c9e25d23d7ca740U, 0x3e2ac8bf3c1ecda0U, 0x3e24594a3e21d456U, 0x3e24cbee3e337b0bU,
  0x3c8364903d3f9f55U, 0xbdb1df5bbcbf75c0U, 0xbdaf28a9bce5bc72U, 0x3c6e457abdaf68a7U,
  0x3c0cbc48bb91c0edU, 0xbd0374ebbce29988U, 0xbd995b273d957cdbU, 0x3d6cc6073c6e335dU,
  0xbc879fa3bd3f084fU, 0x3cb3b5583d79a795U, 0x3ca7f2a7bd40a9dbU, 0x3d146df33c70b9ebU,
  0x3e4310433d482ca6U, 0x3debef643e24a049U, 0x3d35ed833e12027aU, 0xbd2630913d880ed6U,
  0xbd38b4b4bdf91078U, 0xbe0df16f3d0cae9fU, 0xbd38359e3d5c12d3U, 0xbd58f15d3c65ba58U,
  0x3d7887abbc599c15U, 0xbbea292abca572e7U, 0xbe06d9cebd6c5c77U, 0xbd50bce5bd5e1f48U,
  0x3d58f5a6bc41dcc4U, 0x3da59a5c3bb10a8fU, 0x3e284cb8ba129612U, 0x3e3851353e4e1652U,
  0x3c95f5363e36b4eeU, 0x3d690699bd0fdd4fU, 0xbd861b953d37e5ecU, 0x3862f0c53c00c086U,
  0xbdccdcc13cdbc760U, 0xbc82f2babd794944U, 0xbc804dd23c929e02U, 0xbe14bb0c3bb6dd77U,
  0xbe309767bdff2795U, 0x3cb625e3bdaebeceU, 0xbdb325793da1a78bU, 0xbc0a4bf2be183b98U,
  0x3d7aff6e3d9d5417U, 0x3e2c1a183e66ac16U, 0x3da23fb23e063fc5U, 0xbd6926e13d0152c8U,
  0xbd904ef73d874a60U, 0xbd94575ebdfd2a34U, 0x3dc406a0bda1f780U, 0x3c3c724a3d96c352U,
  0x3cdcdab93d2a167dU, 0xbe1a046abd93fadbU, 0xbdf8071dbe1afba7U, 0xbd20a3d1bd93cd14U,
  0xbe0b7efcbd0d4e68U, 0xbdecce62bddf9edfU, 0xbd50b649bd868d0eU, 0x3d727764bc45074aU,
  0x3e3468893e4e7865U, 0x3d8fe6143e492474U, 0xbe403c2dbce934d8U, 0xbdcee43dbe6754dcU,
  0x3d146f25bd007b6bU, 0x398576133ded3eb6U, 0x3d5dd5433d6293daU, 0xbe64c8c7be1f3505U,
  0xbd64ace9be33b2aeU, 0xbdaf0ffdbd7df91cU, 0xbe2067f9be0ce7acU, 0xbdcd25e2be431bc7U,
  0xbe0018c8bd10d6bdU, 0x3dfbd12c3d748d24U, 0x3e4687d83e58bb77U, 0x3cea4f153e0592e4U,
  0xbdec11c43d145ea3U, 0xbe230cacbe8f25b6U, 0x3d78da19bb9e4986U, 0x3cbf444ebd470032U,
  0xbce1d893bce8363cU, 0xbe01fee3bc55b69eU, 0x3d167117bd35ace1U, 0xbd8a6074bdbb0d14U,
  0xbe30a941be0e0938U, 0xbe2476fcbdc290b1U, 0xbdae6c1ebe1b3200U, 0x3e3dc39e3ccdde60U,
  0x3e5bf6bf3de592e2U, 0x3bdca3d33dddbb1dU, 0xbd54b1e43cf59fa5U, 0xbe22f020be3e7c60U,
  0x3ce6447fbd8df121U, 0xbda51abc3dac8eadU, 0xbdbdeca7bd5f7d7cU, 0xbdd0cfcbbd86f403U,
  0xbc02cbd2be20633bU, 0x3ca5bd96bd39f1e1U, 0xbcb85496bdf16a70U, 0xbe18baccbe1fb8c0U,
  0xbdc9126fbe42b6c9U, 0x3dcb18d63ce08fdaU, 0x3e499c0e3e78605bU, 0x3db32e0d3e00d8f9U,
  0xbe36f42b3d9830e3U, 0xbe59c25dbeaf6c55U, 0x3c846131be1934bfU, 0x3b686134bc48f940U,
  0xbd97b342bdab9b09U, 0xbd11ee65bd49e179U, 0xbd07913bbdd68150U, 0xbd97ed38bdb70c04U,
  0xbd57f9613c8ffc68U, 0xbe8b1772be06d3e9U, 0xbd6ec9c9be84ef11U, 0x3d4d12f8bd2274ddU,
  0x3e7961a33e46d1aeU, 0x3dfa68673df56850U, 0xbe0ce8133d440268U, 0xbd90c590be857f50U,
  0x3cc896273b3cbf37U, 0xbd83ba1ebcfade22U, 0xbd3fd925bd2edb83U, 0xbdd0f8be3cb43201U,
  0xbdc8fac2bdd3a3c4U, 0xbd1ffe6ebd8d29adU, 0xbdf3801fbcb93f31U, 0xbe4dab1dbda0f078U,
  0xbd74029dbe1a0aa5U, 0x3bca2e39bcfd2565U, 0x3e8e8e3a3de61d88U, 0x3df8638f3e2bad54U,
  0xbcf4fb0e3cc7d964U, 0xbdbb8cf5be5560f1U, 0xbbf7e668bdc798feU, 0xbda0da883d835071U,
  0xbb881822bdee20e8U, 0xbd53c739bd33b0baU, 0xbd00255ebdbc2b69U, 0xbcb7aa273ba530b9U,
  0xbe1c31c0bd798a6aU, 0xbe1b93e9bdfb705bU, 0xbd39aec33c7f7159U, 0x3c40a49b3d66910bU,
  0x3e2225bb3e084eb9U, 0x3cb7c5733e300dacU, 0xbe527616bd0c5dd9U, 0x3b8306d7be064d0fU,
  0xbd0a20fe3d11d2c3U, 0xbd644a433d6ed798U, 0xbd5f2fa8be008c28U, 0xbdf1d31f3d16a5aeU,
  0x3d61e25a3d8598abU, 0x3b93cdaa3c05804bU, 0xbe0ba7d5bdf57a5eU, 0x3cad797ebd6750b5U,
  0xbcb7988cbaad5910U, 0xbc3c3f083d2c1a9fU, 0x3e088f203dc8765aU, 0x3d8ae1233d298b66U,
  0xbe755574be3da1f1U, 0xbcbb77ebbdd41f1dU, 0x3d7710723d5c5c92U, 0x3d8674e33d5e7da0U,
  0xbe1d3c9fbd48a2fbU, 0x3dad89d9bd6186f9U, 0x3c0139a83e055285U, 0x3d511cb7bd54710bU,
  0xbd87f29bbe20095aU, 0x3d807982bb56b824U, 0x3dcb5331bc33efc0U, 0x3ddae0f03dd1523aU,
  0xbd5ce6a33c85f883U, 0x3cbc3211bd98794dU, 0xbe47a45fbd9f1ce5U, 0xbd2b98e3be27f633U,
  0xbcd939433e1d5945U, 0xbd8cafdf3d1f908aU, 0x3cfc9daebcd8d97eU, 0x3d90b7473cb22341U,
  0xbd31d1723db7f5fdU, 0xbd211bb03c9f9a83U, 0x3d3b7cee3c99ada8U, 0x3d2e98363dc487bfU,
  0xbd397cd63d696fc2U, 0xbd31479c3d651bc3U, 0xbdce34bbbac762fdU, 0xbda50962bd52bf51U,
  0xbe592cd9bd83ddd6U, 0xbd1ea10d3cdec937U, 0x3cdacfcb3c3c0966U, 0x3d1fd3c13d68f058U,
  0x3da103c6bd21f6b7U, 0x3daf95ca3d827924U, 0xbcaf7a243d859a65U, 0x3d1a05303cb4c482U,
  0x3d063b7f3d7f361fU, 0x3b0d200f3bc9fef0U, 0xbd9f582abd377c05U, 0xbdd09f27bd665e4dU,
  0x3d368931bda23742U, 0xbdcc562cbd04e2c2U, 0xbdac49f9bdacad62U, 0x3cb1b2d9bc829af8U,
  0xbc9073bf3dc52791U, 0xbd14891d3dff69ceU, 0xbd5abb64bd6a6004U, 0x3e117b993cb2c3eaU,
  0x3de36c4d3d8553dcU, 0x3e12c3c23d44320aU, 0x3cebc6ed3e2775deU, 0xbd4896c4bd180006U,
  0xbddf8c8b3cf01312U, 0xbbc4ccdbbde597ecU, 0xbd880f1fbd7da8efU, 0xbdd9a7ccbda63b08U,
  0x3d37bfd23d2f222cU, 0x3da6b8ad3c9afaf5U, 0xbb31263dbcd23af3U, 0xbce3732f3d4488ceU,
  0xbdc63b45bd4b3c34U, 0x3d1e274b3ce4d7c0U, 0x3d23fb2a3dadc824U, 0x3e589fce3d4873a4U,
  0x3d82e68a3cad040fU, 0xbd9117e7bd385836U, 0xbdf0276ebdd4b4e3U, 0xbd37d358bde56550U,
  0x3cfb0bf43c95022fU, 0x3ce34749bd7611f7U, 0x3de70b793e1d3040U, 0x3e415de53d9cb1fdU,
  0x3d81c85fbd06c190U, 0xbdfc6a2fbd04aa4fU, 0x3dc3aabebd4a399dU, 0x3d06b947bdb1ac96U,
  0x3d05e218bca58087U, 0x3d8afe403db47166U, 0x3cca379e3d004ce2U, 0xbd44b69a3c2daa8eU,
  0xbd940968be301872U, 0xbd720575bd929a41U, 0x3ba46e65bd3f0e81U, 0x3d2a67413c0beb3eU,
  0x3e1c77ca3e26fd32U, 0x3dc6b99d3daaa087U, 0x3c93aba53ad92896U, 0xbd8acd82bd7b57d1U,
  0x3dfb60443c34ad2aU, 0x3b05850d3c9fed6eU, 0xbc2604063cfe06d2U, 0x3cb7db503d207a37U,
  0xbd3c68a93dc93a5cU, 0x3d0212363ceafec6U, 0xbdc4cc6ebc0d9f53U, 0xbd147c853d2aa9b7U,
  0xbc37c885bcd1ee7eU, 0x3db2b5533d758253U, 0x3e07add13caec54aU, 0x3d53cb2c3e7fbd80U,
  0x3cb35edebd42121aU, 0xbd0c0a8ebd362e7bU, 0x3c7fde443d3933b9U, 0xbd7a3cbdbc3b5c21U,
  0xbcd335833d8f6571U, 0x3d969938bd1d89e7U, 0x3da0f3ecbc025cd5U, 0xbd3673b9bcd2a0efU,
  0xbdf99af5bd35a02eU, 0xbbe3ad0dbd3f15ddU, 0xbc4b7a3d3cd29e4eU, 0xba2d4e9ebdeca8b6U,
  0x3e033c3a3de95c6eU, 0xbdbe19383e96a0acU, 0xbcdce39abd6508e2U, 0x3c8317983cea6818U,
  0x3dd6eb313d3997d3U, 0x3d064ed73c0e768dU, 0x3daf4e3ebd3c4139U, 0x3d560dcd3d4c0caaU,
  0x3e09f1f83dfd0221U, 0xbcf1532e3d964356U, 0xbd5fcba3be50e40dU, 0x3c0d8d173d4e8d50U,
  0x3b929eb7bce0fed0U, 0xbd27a1dfbccd57afU, 0x3de74a693e3c13ebU, 0xbd42df273e9f72ebU,
  0x3ca992903cb0654bU, 0x3d38c8c2bd19f7eaU, 0xbdcad95ebd4a1565U, 0x3db47f473dd7495aU,
  0x3d6ff42bbd810aebU, 0xbd5d424e3d70839bU, 0x3d2df530bc01388aU, 0xbdad92a4bc185b95U,
  0xbdfd0d72bd0cfbb8U, 0xbc4809dcbd29180dU, 0xbd8a0547bd6b8c66U, 0x3db3cec53d57d685U,
  0x3d7e277f3e508d9cU, 0x3e0133f13df36406U, 0xbc4f17203d5e9c50U, 0x3d7357e0bc97ac5aU,
  0xbc821c62ba4f2a3eU, 0x3d8141da3dae9a60U, 0x3c973664bd68a2aeU, 0x3e496cee3d1f2114U,
  0x3e0459f63cc00846U, 0xbb9542823dae7e85U, 0xbd501bfcbbe938c4U, 0xbd78c0b83d1b82d1U,
  0xbdf5b873bdc954f3U, 0x3d764c14bc7b169bU, 0x3caad4dd3e0162caU, 0x3c2825b7bd0fc87dU,
  0x3d36390c3d51d021U, 0xbd89acf93cde853cU, 0x3b0a25ef3cecbe34U, 0x3e02ed683df79ff6U,
  0x3e77adee3e25ae2fU, 0x3e4ebd6a3e6ca274U, 0x3e0894f83e488e64U, 0x3def4bce3dd9161fU,
  0xbc8219d13d3af3cbU, 0x3d979bb4bd3f40c6U, 0x3c9b89fabc8eeae0U, 0x3dbcd2173d09342cU,
  0x3dcd5f333d4914bcU, 0x3d16bc113d906348U, 0xbd7860143b78acc0U, 0x3b78f280bcc7b7e4U,
  0x3d4919f43d9a76ccU, 0x3d01ad633c13f3eaU, 0x3e037cb23daaac37U, 0x3e6ce0bf3ddc382cU,
  0x3de2b0443d9017e7U, 0x3cd495373d7bde85U, 0x38942e6f3e03c025U, 0x3d47589b3df2a6dfU,
  0x3d9de39a3e07dc36U, 0x3c174f15baf3be46U, 0xbdec42bdbe06e791U, 0x3c0b17b03c9bf32cU,
  0xbcde6a2e3c022810U, 0x3c64a5c8bc686d58U, 0x3ba3fd10bd2abf66U, 0x3d82e106bc038620U,
  0xbd79cb523c8e9978U, 0xbd778addbd08c430U, 0x3d8738fa3d14774eU, 0x3d4894dc3d654a1cU,
  0x3c1f53e8bcea8fe0U, 0x3cab12203c03fcd0U, 0xbc98a5403d0e6ca4U, 0xbb92dc00baca0fc0U,
  0x3c8671bcbd9921f8U, 0xbd835db8bd772b44U, 0xbd249f42bd92f1edU, 0xbd2babc4bd1bde20U,
  0x3d927c183d8b65bcU, 0xbd8e28d73d823078U, 0xbd25c4f53c0526f2U, 0x3d62dd5d3c464aa7U,
  0xbd90bf1abd17debbU, 0xbcbf6a33bde4ed9bU, 0xbd473e973d3133caU, 0x3d07e1e83d18b237U,
  0xbcf80fea3caaba7dU, 0x3d3cde22bc657999U, 0x3d80df243d971dceU, 0x3c62a7f03cac39bcU,
  0x3ba48900bc8396e0U, 0xbb8cce20bd323468U, 0xbc6fa0273d07ccdeU, 0xbd2056243db2a078U,
  0xbcdbd126bcbbcf59U, 0x3d62e4003d7f5c0cU, 0xbdfbcdd03d033235U, 0x3beb2d02be57be4dU,
  0xbe1a18a53cd5ecc3U, 0x3bb4e0febd30734fU, 0xbd46893f3db2d2cbU, 0xbe1ce026bdcc6c2dU,
  0xbd46f975bda691cbU, 0xbd308711bdb3d748U, 0x3d8ed75ebd3a071aU, 0xba86a1c0bb55ff40U,
  0xbbab3b363d38cd46U, 0x3d165c3abd8cacd4U, 0xbd9655693df82ecaU, 0x3ce62272bd06560dU,
  0x3e1a60ea3e344b48U, 0x3d4108433e6754f7U, 0x3bb9491dbd108652U, 0x3bbbbdb13d00ce3cU,
  0xbdb499ef3cb06f5dU, 0xbd9416983b97214bU, 0xbd39d082be4c7defU, 0xbe178cadbda87c2dU,
  0x3c45a300bd974168U, 0x3d0c94f1bc749b08U, 0x3dda769b3d520c2cU, 0xbcfd7edd3c52115fU,
  0x3e00e01e3e0f7d57U, 0x3dc3c4833e1103acU, 0x3db327303e29f389U, 0x3df069e53e38f7faU,
  0x3d3af3013cbf22e0U, 0x3d2308133d95c877U, 0x3d98f419bc8c8291U, 0xbe0a737fbd79e245U,
  0xbe3dc946bd427388U, 0x3d4ff830bd2a30f5U, 0xbcd7c8a43c1d2757U, 0xbba662603d152d18U,
  0x3d1e9c803d84b046U, 0x3de71bb63d4ed4dfU, 0x3e08ced43df3b83aU, 0x3db893273d82000aU,
  0x3e2af19e3e3b3331U, 0x3e2505ac3e39e409U, 0x3dcf32483caab57aU, 0x3dc06c863d6e52f5U,
  0xbd2e41743e0b80dbU, 0xbdc859fb3d51ecbdU, 0xbd4c78bfbcb080e5U, 0x3d68774fbd0403acU,
  0xbd5c2803bcfd0e83U, 0x3cd316403d17c574U, 0x3d5f5d28bd4677ebU, 0x3d1073063dbd7f2aU,
  0x3caf85d23e058ab1U, 0x3e0932bc3dbb87e0U, 0x3e1af6b03e0afb12U, 0x3e1e31383dee1f09U,
  0xbd478db63e0d0499U, 0x3d8c1887bd4d9b67U, 0xbcf3868bbc017c2aU, 0x3cafc4b0bd8d0b0fU,
  0xbd488d9fbc8775a4U, 0x3da239943d584a56U, 0x3da6425f3a554ba4U, 0x3df347093d9994a6U,
  0x3c8f0536bcf53894U, 0xbbefb7d63e16e24dU, 0x3d2accbb3d400c57U, 0xbd2bd09ebda42206U,
  0x3c3f6806bddbffbeU, 0x3dae66cfbd59f067U, 0xbca4a3f73d219e3fU, 0xbd42053ebde2e646U,
  0x3dc09c423d0c3f16U, 0xbb119e7d3d9cad48U, 0x3cdccf1fbdd6df47U, 0x3d9c679abcf3a7eeU,
  0xbb8db21c3cfcde97U, 0x3a50d2763d18ce30U, 0x3d6893a6bd80606cU, 0xbd8ddeedbcf5d024U,
  0xbd953cf3bde98410U, 0xbe296955be1c4a99U, 0xbe75cac8bdaad985U, 0xbd991baabd0d99d6U,
  0x3def2e3f3d8b9d32U, 0x3db484973c889d4eU, 0x3db4da8f3dcac388U, 0x3c9ad29d3de236ccU,
  0x3d8014fabd5379beU, 0x3e02a4bf3d91365bU, 0xbbbe9456bc519883U, 0x3d579bfabd75d84bU,
  0xbd3b46f0bb4a7bebU, 0xbde52e4c3ce4934aU, 0xbe2fd114bd8d313eU, 0xbe2e6b73be123a54U,
  0xbe446b45be9567d2U, 0xbd7630c1be583471U, 0xbda626afbd1df158U, 0x3dd3daa63d060ad0U,
  0x3d2abd053db6b273U, 0x3dab6fb33dad11d0U, 0x3e0b66be3db3c623U, 0x3d6cd26b3cb60563U,
  0x3d6ba9d13bab3d1bU, 0x3d404fdc3d9eefbbU, 0xbbc5c6c13defd315U, 0xbe4bf323bb24a1b3U,
  0xbe8697acbde180a9U, 0xbe85ac4bbe59a4b8U, 0xbdc60711be8e3808U, 0xbd739763be20e853U,
  0xbdd5570bbc0e288aU, 0xbd8b7813bd5fe109U, 0x3db894953caf0bbbU, 0x3d1e92263d6863a2U,
  0x3e07cdfabcca54acU, 0x3dbde7383e3ab6dbU, 0x3da794e23d7b551fU, 0x3d97f84ebd7521c3U,
  0xbcd1629ebd9ff9c4U, 0xbe1e92d3bcd3e120U, 0xbe66b081be3a1437U, 0xbe88e392be14a8c2U,
  0xbd418eb8bdbae99eU, 0x3db921fa3e1d9315U, 0xbe2a57c7be294f47U, 0xbdd91bd7be333370U,
  0x3db68f2f3b175791U, 0xbce50e033dc4873dU, 0x3e0239a6bdc32a3eU, 0xbd98ba653cbb22ceU,
  0x3da621013c74b002U, 0xbb6d8c87bd7e3520U, 0x3d4ae57fbce6d9f8U, 0xbd8e664bbd94addaU,
  0xbdcc9fd5bdc5366dU, 0x3c518335bcc4a8d5U, 0x3e05c2a23de10623U, 0xbd67169f3e0c6a3fU,
  0xbe9e8602be1034a3U, 0xbe1e7e4bbe5ed525U, 0xbcfa9cbabdbfc241U, 0xbd2a0794bda90eb8U,
  0x3c68ceaebd8175f0U, 0xbe4c4c8bba63f60aU, 0x3d558943bb26c53bU, 0x3d6b54fbbd004e54U,
  0xbde4981abcd8b16aU, 0xbd43441fbe14a9ceU, 0x3d145976be30d0fbU, 0x3e5e1c993dbbe7e1U,
  0x3dff6e333dd81ebeU, 0x3d75007d3d2eb3a9U, 0xbe68eaeabddb439cU, 0xbe0d9fc5be5bdf25U,
  0xbd9d2d0cbc852e25U, 0x3b092122bbbe56aeU, 0x3cf18128bd1829b7U, 0xbda4e39d3d07d4b0U,
  0x3c8b05ff3d294c2cU, 0x3d51ac7c3d380ba1U, 0x3d6dde68bb34bb4cU, 0xbbf1bbfebddf5c33U,
  0x3e15760e3ddae05cU, 0x3d4418da3e218fd2U, 0x3e1cfba23dc46746U, 0xbcda159d3bec31c5U,
  0xbe3a1649bd1106acU, 0xbe1db1adbe4a1a3fU, 0xbd7b14e4bdd62bbbU, 0xbd2cc08ebd9906beU,
  0xbddad255bca8742dU, 0xbcbaea2fbd15521aU, 0x3d22ef4b3dcd0836U, 0x3dcdcd16bbd81893U,
  0xbcd98e363dc55a00U, 0x3a82831bbd15cadeU, 0xbcad732f3e545876U, 0xbc7b1f533c923e1cU,
  0xbdc6767fbd56ea4fU, 0xbcd8b221bdbaef98U, 0xbb0fd7b2bc6b1c6eU, 0xbd325baabb37d987U,
  0x3cb62c53bda56998U, 0xbd84bd55bd6692ffU, 0xbdc0d7fabcd1e217U, 0xbc82fa423dca45b9U,
  0x3d7d71b43d82311cU, 0x3dd863b6bd198985U, 0x3dd952203d5624ddU, 0xbc5dbce93d3963f5U,
  0xbe237cecbd8e565dU, 0xbe679cc7be628994U, 0xbe1a84bebdeaaa1dU, 0xbde236843dab5183U,
  0xbd32cfdabd59da0fU, 0x3e0119033d55168dU, 0xbca3d0c53d86b8a3U, 0xbe0b306cbbfcf272U,
  0xbd5b52bcbdd5a421U, 0xbccb42b4bd8c4d1cU, 0xbd026dda3da39408U, 0x3cad618d3d66d7c4U,
  0xbac441ee3dc98174U, 0xbd764c4c3ac59f32U, 0xbea73673be77f221U, 0xbe5afaeabe8e0c0aU,
  0xbdfc62d2be1b5a7eU, 0xbe4fb9e0bdcb1a48U, 0xbdd02fe2bdc15893U, 0xbcc9113dbc096011U,
  0xbc01e6f53c606ef3U, 0xbdb2d071bc58c05dU, 0xbdbe1c55be00ef7cU, 0x3d035bb4bde54235U,
  0x3e2f9858bd672278U, 0x3d431f1ebdd88b66U, 0x3d3f812c3d97173bU, 0xbd8834dcbcc13984U,
  0xbe354a94bdfe1b0aU, 0xbd9857a8bde7c901U, 0xbdd42074be204172U, 0xbdbb713abe692efcU,
  0xbbdd62cdbda1a254U, 0x3da1a70f3def8829U, 0xbbc61c063dc5b1c7U, 0xbd1de4efbdf6d745U,
  0xbd75c1ec3c977101U, 0x3d7191d93b171c60U, 0x3dfaa2d13e0157a3U, 0x3e1ccc2b3d82ab18U,
  0x3d28be8e3db218bfU, 0x3cb1c9eabdaacc32U, 0xbdaa7f4abddcac46U, 0xbd917514bcba98a9U,
  0xbd2c4c37bdd4189cU, 0x3e2c5fa3bb90120cU, 0x3df306f33e59f913U, 0xbdef9df23d2806cdU,
  0xbdcea03dbd678210U, 0x3d2a712d3d218664U, 0x3da2c9fb3bd9666eU, 0x3dabba673de49775U,
  0x3cde8804bc3d806eU, 0xbc0a170ebcaeea6aU, 0xbca61bf4bd014d16U, 0x3c4cbd5dbd07348bU,
  0x3d063ac63d85ddaaU, 0x3d4047583bffa12dU, 0x3e00221b3d22aad7U, 0x3e94ad913e5de3d5U,
  0x3e13df7e3d7a5c6bU, 0xbd44bc033d909faeU, 0xbde979b8be1d3477U, 0x3d355a84bd882e50U,
  0xbd056e143c58c54fU, 0x3c61cf81bd17cb42U, 0xbcaf034cbce1985dU, 0x3d63ef863c2ac7e8U,
  0x3e16f50d3d8599dfU, 0x3db332b53db7ec77U, 0xbdd0ebadbd7c7437U, 0xbbef02583d9b39cfU,
  0x3e6223493e3fb6a9U, 0x3e5ded333e73c816U, 0x3d572edc3c197f32U, 0xbdb94a3a3dd8cf33U,
  0x3d2b5666bd835ef2U, 0xbe0d2efa3c3121f4U, 0xbbc36406bdc99105U, 0x3e170eae3e58739fU,
  0x3cd50caa3dcd6446U, 0xbb4aff6cbd30bd47U, 0xbd110e573d701b3aU, 0x3e254dad3e327c50U,
  0x3d4ee4fa3da1af3eU, 0x3e1921263c1b0f17U, 0x3d8e947f3dfb0d76U, 0x3db1af1e3d10e219U,
  0x3d79543c3d7c20a4U, 0x3d448f203d26bc6cU, 0x3dfdec293cc7d590U, 0xbc0277fd3cb1d6f5U,
  0x3de0d4fcbd6b6fa0U, 0xbd7b0d603dd0d5d8U, 0x3cea46a23d1b1d54U, 0xba3bcf00bd1a4214U,
  0x3cddf4f93d88ad2eU, 0x3e59f5453e112d77U, 0x3d0d09333e0bb0ebU, 0x3e43516c3de00629U,
  0x3e385ef43e039b41U, 0x3d875a923e2adb10U, 0xbc8da42c3d54aacfU, 0xbd58193cbd375bf0U,
  0xbd1e9e9dbd1a2afcU, 0x3e3157acbc8b8ecdU, 0x3c9130113e13461eU, 0xbc3065cb3b894766U,
  0xbbd461b0bcf897e8U, 0x3d315bbcbd2743faU, 0x3e277dd93ce8ea96U, 0x3e3956783dfb155eU,
  0x3cb256c33d877aa6U, 0xbd69be063df7c5dcU, 0x3d0317133b8b6e5eU, 0xbc4e58e5bc9e2105U,
  0xbc684da63caadde1U, 0x3bd777ca3d4ce43fU, 0xba0d37ef3d9a2f33U, 0x3d15cb1f3d95bc97U,
  0x3e1cf05fbd39aa2dU, 0x3ccdb2d73e34d5ffU, 0x3b9cd430bd4cb72eU, 0x3d5e1bdcbd60ab26U,
  0x3dc62148bd0bd163U, 0x3d3a3c9abcfcaff9U, 0xbda06cf8bdc0e504U, 0xbc292c95bdfdcd29U,
  0x3c6edbd0bd994881U, 0x3c9c26ffbd1caf9fU, 0xbd1dcf153c5a635eU, 0x3d52d3b63ce5d4e6U,
  0xbd258ebc3c7cd14fU, 0xbe017d2dbd1b3e1cU, 0x3d829f83bcbf8577U, 0xbdc945473d672f69U,
  0xbcff90b4bd0d11c7U, 0xbd8ec365bd56edd6U, 0xbcc28c66bb3053e0U, 0xbd3189e2bd915df7U,
  0xbe06382bbddda67cU, 0xbd8fb99ebd913c9fU, 0xbcc47f99bdf959d7U, 0x39b23fbc3d273e37U,
  0xbce3b42fbc62e420U, 0x3cb31195bcc00ffbU, 0x3d7be740bd6ce85cU, 0xbdf9f565bdb4b62cU,
  0x3d9546f0bd25cfcfU, 0xbc6553f6bca061eeU, 0x3d94b5e43c40d458U, 0xbd8fda50bcd1b318U,
  0x3d5aa5803cb49a28U, 0xbcadaa25bd8d583fU, 0x3da532cfbcf4ab5fU, 0xbd6e90acbc4345c8U,
  0x3d0d00b93d5c027fU, 0xbca63001bce41ec9U, 0x3d62cdebbd9d457bU, 0x3d99aafcbd59298aU,
  0xbcd7e7963d7f0215U, 0xbd5abe223da47178U, 0x3ce3cb203c14e5a8U, 0xbc86d8d8bd441807U,
  0xbd8887953d0faa88U, 0x3d27039e3d6a466cU, 0x3d708d54bd5f1578U, 0x3d114ddcbcc1c71cU,
  0xbc6f82983d4e17b8U, 0xbcbe5c443be95350U, 0x3d1f855e3d8beed8U, 0xbcfbacbe3c18b828U,
  0xbc601530bd9e9f18U, 0xbd8803ca3c518298U, 0xbd716d383b828240U, 0x3d55d604bc5c1730U,
  0xbcfb3082bd8ad9eeU, 0x3d992c50bcf57d74U, 0x3ce46ce4bc6216d8U, 0xbd9948bfbd2f0007U,
  0xbb3aaec0bd6e7f74U, 0x3cb35760bd2887bfU, 0x3d792f103d2066ceU, 0x3d5653083c96d9f4U,
  0x3d6d04f33d885318U, 0x3d818fc63c1f5cc8U, 0xbd76f36ebca33feeU, 0x3d8bfb493d8a8283U,
  0xbca879a13cd2662fU, 0x3ce816fa3c85f464U, 0xbd1fd5fa3d8002d2U, 0xbc3bd7503d6c10bcU,
  0xbd28a8633d1c5918U, 0xbd989aa23c8258c0U, 0xbc0a7e713d70616aU, 0x3d0b139e3b8d04aaU,
  0xbc003d813c86f08aU, 0xbd368474bd43a557U, 0xbd2c02cabdad0e03U, 0xbcf31f92be4212bbU,
  0x3c3e413fbd7e5590U, 0xbdbf8b54bdf3736fU, 0xbd399fcc3d5b6a88U, 0xbbf05d85bda1ae0aU,
  0x3cda6c44bcc05710U, 0xbda5656cbd314af8U, 0xbd409b9cbd6df02eU, 0x3d4b8c7cbcc3edb4U,
  0xbda40435bd485871U, 0x3cf9d7b3bd3a48d8U, 0xbd6863a53cbadd6aU, 0xbcb329dbbdfc95e4U,
  0x3dc3f98ebdbdda8bU, 0x3df6111a3db548d3U, 0xbdbfe07a3df26a24U, 0xbd67f91abda48a47U,
  0xbbf88ab2bb506fd8U, 0xbdeaab52bd6f5f09U, 0x3adae028bdd90608U, 0xbd72d9c7bd648daaU,
  0xbca989aabdc19f5aU, 0xbc83e2f5bc116700U, 0xbce1082bbc2721ebU, 0x3dc2250ebd839494U,
  0x3cc237ccbcc33f27U, 0x3cf70554bda13e31U, 0x3e10f2623d5608bcU, 0x3da9d2da3e1ebae1U,
  0x3d60cf753d9f2dabU, 0xbd80105b3d1b878fU, 0x3cb7399bbc4cf6daU, 0xbcb10d3fbd98e945U,
  0xbd883ee73cb0a0feU, 0xbd87d2cf3dbbd636U, 0xbd05994fbc36c9b2U, 0xbcf47810bd99e719U,
  0xbc252f7f3d9a77deU, 0xbd07a47abd6fbe9aU, 0xbd1abcca3b7311d1U, 0x3e10d2043e10671cU,
  0x3e54aead3e2a886eU, 0x3d1c85a43df427b7U, 0xbd672f4abd1a6fb9U, 0xbc2f55463da8ceaeU,
  0xbdfa724bbd00a429U, 0x3c76729dbd60711aU, 0x3d0de9233c7465d9U, 0x3d18679f3d7695e6U,
  0x3d0c6b413cb4b298U, 0xbcd854a9bd8849ccU, 0xbdf8b8c3bdcb4b0fU, 0x3d1518cebc3f1b37U,
  0xbd35c2f73b5a563aU, 0x3dc1a5533d36e288U, 0x3e1e6ba53defccc6U, 0x3e0f5ae03dba6e0dU,
  0x3c697a513e1ff71bU, 0xbca6156cbc9f67a0U, 0xbd96cf10bc0d23a3U, 0xbdb22080bcb5994cU,
  0xbd5df285bd880011U, 0x3dc8d8623def4eccU, 0x3d9c851a3d23363fU, 0xbb74b1403cc3a070U,
  0xbe20844cbc11353bU, 0x3d6eff19bd4579d6U, 0x3c9b30fe3db3a526U, 0x3b2a6a563e15c31aU,
  0xbd643c893cb69049U, 0x3dc47c703d140510U, 0xbc7ae57c3acf1fccU, 0xbc687582bdc119c7U,
  0xbe270a82bdf2ec9bU, 0xbd2b6ec1bdc29d9fU, 0x3e0186963d48a3ccU, 0x3e1758c33e125555U,
  0x3d33b57f3de32cf5U, 0xbd8a414d3d48b6d0U, 0xbd6bf5253ced5c25U, 0x3d07b53bbbbe78f9U,
  0xba30d2f33d217cbaU, 0x3e0899a43d2e2b57U, 0xbcb096883da2d0fcU, 0x3d8fe0b2bc93c776U,
  0xbbe097063daa188fU, 0xbc840da93dec07b9U, 0x3d8d4cddba59375aU, 0xbd510d3dbd768b2eU,
  0x3dacf16b3d55b7afU, 0x3e93a0863e928b97U, 0x3b5b04ee3dc4e125U, 0xbde5bebbbc66923bU,
  0x3cd46f893dc7b2fbU, 0x3d2a83053d733d6bU, 0x3c984e3ebcd4a61dU, 0x3cbcffd13de3d12aU,
  0xbe231ce53d42cf38U, 0xbbb1423dbe07aba9U, 0x3c9b24f9bda8ba08U, 0x3d986a063dbc73d3U,
  0x3c9dfd743db1548bU, 0x3bbc6e49bcbdf563U, 0x3e0dc0053d2d40b6U, 0x3ea54bb73e8f23ceU,
  0x3e0d80f33e515a6dU, 0xbd2f774a3d061ae2U, 0x3d20489abd8744b2U, 0x3da8a3e13c28ac47U,
  0x3cbd3fc93dcc55e5U, 0xbcb88de03de55a41U, 0xbe3ac06dbcab95bfU, 0xbde28e8dbdb24e22U,
  0xbdcfdf33bc6aa6ceU, 0x3d83dbe53da69fa1U, 0x3df502313d35e746U, 0xba923a743d520380U,
  0xbbf05464bd85f450U, 0x3e2e3b4c3d91fd1aU, 0x3de63d193e145d13U, 0xbd09c488bd689915U,
  0xbbbccebfbda02f0fU, 0xbded8c853d86b7efU, 0xbdb6e1e7bc9fe060U, 0xbd653009bdab1099U,
  0xbe082c40bd102913U, 0x3b82941bbd9589b7U, 0xbd82a01cbcf88e01U, 0xbd048c27bd74f6d1U,
  0x3dc976833e0b90bfU, 0xbce24c8bbc142e5dU, 0xbe1ced16bde9de81U, 0xbc1121e2bbd1a6d5U,
  0x3c6ffa193d8893a4U, 0xbdfd4f45bd2dfc11U, 0xbdb3cf9cbd42503aU, 0xbdb6754b3d7edceeU,
  0xbc7c98ab3c2c3a27U, 0xbdb5a1f0bdcb71e8U, 0x3df42e703d0b3d3bU, 0x3e078203bc8857daU,
  0xbdb941af3d3f311dU, 0xbd09ca37be1cb3ccU, 0x3e02be843d62dab9U, 0xbdfe9679bd0e3b90U,
  0xbd99ea37be47c676U, 0xbdde9274be22ad65U, 0x3d1b576c3da8ee55U, 0xbdac9b8abd953a13U,
  0x3d482cbb3c860653U, 0x3d5cc2dcbd1f2bb6U, 0x3da43b593d8b5c0fU, 0xbdc4049abd30572dU,
  0x3dfeb95cbc99d420U, 0xbd1bbd983d163365U, 0xbd84d55a3d1efa93U, 0xbd967375be16d1dbU,
  0xbd32aadf3d575c9fU, 0xbe32cb67bc26dfb3U, 0xbd847cf1bdfc83ffU, 0xbdc42c75be4219e3U,
  0xbb49ac183dbdc832U, 0x3d2c22c53c90ce48U, 0xbdfa3a0bbe09f377U, 0x3d7eedf53caeecc1U,
  0x3e23ef033c338b92U, 0xbe1d8637bd72ac16U, 0x3d99353ebdcb436eU, 0xbbb4c4e53e020a80U,
  0xbae5dbccbc91d2afU, 0xbe3c1ad5bdb1d360U, 0xbe333966be1a6c31U, 0xbe5121f8be236707U,
  0xbd448cefbddcb496U, 0xbd2442c6bce3dffcU, 0xbd8490a73d6ed94eU, 0x3cab2e9d3d7be4c1U,
  0xbe110ac63d0fa6ceU, 0x3e1ab872bdd03649U, 0xbc89d12c3e01d22aU, 0xbe0d7d77ba9a311cU,
  0x3d2a1d93bd033007U, 0x3d775e323d8b8b9aU, 0x3c8e088a3ddb7022U, 0xbe7d111cbddc13c1U,
  0xbda15f57be14a38fU, 0xbdb6622abd9dd6d7U, 0xbccde3c3be2b9d1fU, 0xbd9f38b2bda88a32U,
  0xbc35009a3d33fbadU, 0x3d9a50fb3cd1dab8U, 0x3d53c6343daa7d2fU, 0xbdb2bf1dbc557c21U,
  0xbd2038c1bd44f57eU, 0xbe1f869bbbcc5fcdU, 0x3cef17c63c82bcb4U, 0x3d96e46b3e298bbfU,
  0xbaaee35abc868a0eU, 0xbe5c7917bdebcffbU, 0xbdd540d7be248618U, 0xbd3fa4783c5fdefdU,
  0x3c90e124bd8430e0U, 0x3ca003d3bd88bd22U, 0xbd0e48d7bc86d45aU, 0x3dd73969bc245948U,
  0x3d934aafbc9d23edU, 0xbdb6a3b93bd17259U, 0xbd949f30bd29074aU, 0xbe613542bddac6e2U,
  0xbe00dd6cbcaceba7U, 0x3d09ecf6bcb46dbeU, 0x3d8520a43c6f2c7cU, 0xbd12ca9ebd6668d9U,
  0x3b9d6fe6bdb8a0e0U, 0x3d73a4acbc014953U, 0x3b0593353c096128U, 0xbd8098173cb15a19U,
  0x3d2e6ac03d07b370U, 0xbd287d683bcb5870U, 0x3d86fd493cd1a8aeU, 0xbe0718a53c5380a7U,
  0xbe241fc4bd7a0d62U, 0xbe6e0885be3fd462U, 0xbd09715dbdf0bb53U, 0xbe0c952fbdb108f1U,
  0xbdba62debe507fd7U, 0x3d04857ebcb79e6eU, 0x3dc40e9b3cd85071U, 0x3c7092b03d7fe805U,
  0x3d35a9ce3966e31fU, 0x3cebd076bbb3b4e7U, 0x3be87cacbc2e2a37U, 0x3da5e77b3d594010U,
  0x3dd4eb573de03307U, 0xbbbfd5153d1cd0a7U, 0xbd4ff0a3bd808507U, 0xbe1e3e61be288e79U,
  0x3d696216bbfbb539U, 0xbe34c9d0bc22bbdaU, 0xbe2d8919be86dc3bU, 0x3d0cddd43c4f1b60U,
  0x3db882123dbfcfa1U, 0xbc4d270a3ccaf063U, 0xbc42535f3d426e09U, 0xbdbbd5f23dc9608eU,
  0x3cd0e2c2bc1e0ec5U, 0x3d2922ee3b934cc0U, 0x3d2c45b03c6da234U, 0x3d020b953deaa2e5U,
  0xbdb83a37bd901d7eU, 0xbe097d6abc1166f0U, 0x3e1f92f73d155f4aU, 0xbe1de9133c18d8bbU,
  0xbd59b97ebe030aeeU, 0x3d772d94bd11ed30U, 0x3c83e74d3d8e6626U, 0x3d40d6ad3c8d6fe2U,
  0x3d35873d3d7a1b39U, 0xbd84baca3d5bfc11U, 0x3d8d7a843d37417aU, 0xbcd19d1ebd8feeacU,
  0x3ceed21ebccc4cf1U, 0x3d2d8d613de6857bU, 0xbdb3ae323c93b590U, 0x3c8c87d5bd0e7ff4U,
  0xbb15079a3d905aafU, 0xbd1150dc3d3c195eU, 0x3b7358573c69a188U, 0x3dc5d09bbca56320U,
  0x3d9451673d8c2191U, 0x3d554d913e08f8ffU, 0x3d8730f53dab6558U, 0x3db3259cbcce9233U,
  0xbca8bc04bc301e97U, 0xbb8ff834bd1c82bbU, 0xbcf691f33d6b6b4dU, 0xbd00b30e3df765c2U,
  0xbd050c67bcc692e0U, 0xbc960a06bcba219bU, 0x3d33a2f7be22fac3U, 0x3d96d65fbc553184U,
  0x3e003cce3d1b040dU, 0x3d96b7df3dc69657U, 0x3e1f64723d0beeffU, 0x3da8c0433decfcedU,
  0x3e15a4133e43efa9U, 0x3d23cd973cf08711U, 0xbd5b5046bd619548U, 0xbca49a883cc44c00U,
  0x3ccc5ee93da0c7b8U, 0x3c01981e3d5d3014U, 0x3bba0bfe3dd1c7a7U, 0x3c8bfda6bce323f6U,
  0x3c5314f5bcc4a2f6U, 0x3e0c62aa3d623811U, 0x3da0de5d3e082bb7U, 0x3e0cc9b03e09b8ddU,
  0x3dfaddab3d88b21cU, 0x3da1ce993e06d9acU, 0x3da3be1f3d545765U, 0x3b685911bdd338a2U,
  0xbcd8ab38bbe9fc1dU, 0x3d56fe24bd344cb0U, 0x3dbca69c3cc9bab9U, 0x3b98779c3cb4a81cU,
  0x3e2fca683d8702dcU, 0x3dd2e2613e5bee05U, 0x3e0011a13dd93617U, 0x3e3fca843e30c6c9U,
  0x3e240cd53d35f437U, 0x3dd048d03e43689bU, 0x3e3cd68c3e5c97d2U, 0xbbedab533e3c3b75U,
  0xbc15f2223dcf275eU, 0xbccbe6a13ddc74a2U, 0xbc2d19d8bd3b113fU, 0xbbe27ef03c949338U,
  0x3d110f4a3d884306U, 0xbd3aaf00bcbb3466U, 0x3d863af03db2e203U, 0x3e0a66b63e04c5eaU,
